[PAD]
[unused0]
[unused1]
[unused2]
[unused3]
[unused4]
[unused5]
[unused6]
[unused7]
[unused8]
[unused9]
[unused10]
[unused11]
[unused12]
[unused13]
[unused14]
[unused15]
[unused16]
[unused17]
[unused18]
[unused19]
[unused20]
[unused21]
[unused22]
[unused23]
[unused24]
[unused25]
[unused26]
[unused27]
[unused28]
[unused29]
[unused30]
[unused31]
[unused32]
[unused33]
[unused34]
[unused35]
[unused36]
[unused37]
[unused38]
[unused39]
[unused40]
[unused41]
[unused42]
[unused43]
[unused44]
[unused45]
[unused46]
[unused47]
[unused48]
[unused49]
[unused50]
[unused51]
[unused52]
[unused53]
[unused54]
[unused55]
[unused56]
[unused57]
[unused58]
[unused59]
[unused60]
[unused61]
[unused62]
[unused63]
[unused64]
[unused65]
[unused66]
[unused67]
[unused68]
[unused69]
[unused70]
[unused71]
[unused72]
[unused73]
[unused74]
[unused75]
[unused76]
[unused77]
[unused78]
[unused79]
[unused80]
[unused81]
[unused82]
[unused83]
[unused84]
[unused85]
[unused86]
[unused87]
[unused88]
[unused89]
[unused90]
[unused91]
[unused92]
[unused93]
[unused94]
[unused95]
[unused96]
[unused97]
[unused98]
[unused99]
[UNK]
[CLS]
[SEP]
[MASK]
t
a
##in
##he
##re
##on
the
s
##ti
##er
c
o
##en
p
##ed
##al
in
##or
##es
w
f
##at
m
d
##is
an
of
b
##an
##tion
##it
##ro
and
##ar
e
##ing
##ic
##as
##le
re
(
n
to
##ent
th
##ation
h
l
##us
##el
##ec
##ac
##om
1
g
##et
##ul
##ol
##im
##un
is
##ur
##ig
for
##os
2
v
con
##id
##il
##ve
##ce
st
pro
##ly
##ith
##ut
r
##ow
##ot
we
al
##st
as
##am
with
on
##ter
##if
##od
be
##uc
##res
that
ex
##um
##ab
##em
##ts
##tic
.
##qu
##ver
##ity
com
##ag
##ir
##ri
##ad
by
##si
##oc
##ate
res
##ain
are
##ure
ac
de
##ated
##ment
##).
us
##her
##ati
##ap
k
##00
##pl
or
at
##rom
##op
this
3
##ay
was
##..
##ren
0
##ud
##se
##og
##ted
ch
##ess
##up
wh
comp
un
##ch
it
##ore
##ell
i
[
j
se
from
im
tr
##th
were
##ant
le
##ers
dis
sh
sp
##ff
=
##ine
##iz
##tr
en
##orm
##ical
##te
##vel
##ub
##red
4
ne
##ations
##and
ad
##per
##igh
##),
##ich
ap
##iv
##ase
##ents
he
can
##ies
not
##ge
co
5
inc
par
##ug
per
##ign
##ect
##sion
##duc
##por
sy
y
cont
##able
##ition
##fe
##form
mod
##ans
##ous
ha
cl
##est
##ence
##ion
whe
##01
##und
0.
which
##ip
##ance
sc
##ther
##ach
##feren
gen
##age
##der
stud
##tive
di
##lec
ob
##.,
##ak
ab
dif
##act
##ial
all
##ys
inter
##....
ass
have
##etw
##pro
##ary
ind
et
me
##ill
pl
200
6
19
##end
##all
met
ph
##ue
cell
##ific
##vi
##ard
##tions
pre
##ist
##ple
##ally
##ors
##our
##olog
##ib
##ide
int
##ari
##pres
##yp
resul
eff
dat
##tim
ro
ar
cons
(1
ev
##ost
show
##str
these
des
differen
##stem
str
x
##rib
sub
##ased
##ear
##ph
##so
gro
##ork
##enti
,
sign
##ong
no
##ia
qu
trans
system
pres
rec
##low
##tiv
has
##enc
##erm
model
anal
am
##ond
##uch
##erv
##ber
##een
tim
##ang
z
rel
##ome
7
##pos
##uld
data
##cess
##ight
##ative
##ates
##ular
tw
##0.
there
sim
##etween
##ast
##ass
det
between
##ep
also
cor
##ugh
##unc
+
reg
more
##ech
spec
resp
##ory
pati
(2
one
##ility
##ind
##].
sam
using
##port
##pt
##ord
val
pr
8
other
pos
##cl
201
##ution
##ens
##ound
used
two
##ble
u
##rol
than
##ual
man
sec
##ie
##ied
sup
meth
9
##ater
##dition
##ail
##ace
##tain
vari
##out
fig
##gr
##are
##ack
##ree
study
been
incre
##ms
##ose
time
mo
##iti
each
##.1
col
−
how
##aus
num
acc
if
gr
results
)
their
ag
fol
##ely
method
may
dist
inf
such
out
sur
func
dec
##ating
op
em
but
so
##ces
10
##ten
patients
gener
##oth
##ures
do
over
##one
af
cells
analys
##rec
-
our
appro
where
group
##plic
##ite
##ting
##1,
fe
follow
##ice
##ects
form
inv
comm
##ulation
bi
high
##.2
##ath
ver
es
control
when
under
med
##hem
exper
##ments
##lo
set
##........
##ile
##ould
##ik
level
##oin
only
##oci
meas
perform
##ture
199
def
process
##tical
use
prov
fr
low
##av
##velop
##ax
its
tre
fir
##ases
[1
sol
##ues
##ization
##ros
##vely
different
signific
##ized
##ons
after
##na
number
will
develop
##ined
##ust
##yl
both
##iver
partic
##als
sm
##ature
##-1
function
pol
##arg
##ology
then
1.
##entr
analysis
##ability
##les
##ected
##ever
fact
dur
incl
equ
min
##ici
id
##now
##br
##hed
significant
fi
##ection
##formation
##hen
exam
into
comple
up
some
however
obs
bec
work
they
non
typ
er
##art
expres
##rent
first
disc
##tivity
##echn
present
##fig
##ne
##ym
##ange
##ark
includ
##lu
produc
cur
dep
##tal
##2,
ins
##tein
##tern
loc
aut
measure
mul
##gen
##acter
##ared
##fore
techn
##ency
q
##cer
cr
inte
##inal
mat
dr
##cc
requ
##ational
“
br
##aph
##action
##ved
##0,
##hes
observ
##ays
##tit
most
##ew
##atic
new
##ause
12
bl
##ex
desc
##ise
resear
associ
##ize
##erg
rem
experim
cal
##ft
##ants
##gor
mon
information
ed
##ties
##rough
##ild
during
##ric
##ann
##ks
struc
##ox
protein
##til
giv
##eld
based
##anc
##ult
##ung
##old
go
found
##.3
##de
##its
##rel
##iqu
condition
well
vol
app
##ov
car
##entif
##led
##.5
der
char
treat
##fer
##amet
shown
##ption
##yn
case
anti
##duced
##ven
##ages
hy
studies
##ix
poin
##ute
##ough
obtain
##ilar
through
cy
##ective
indic
repres
##1)
proble
##ane
exp
determ
any
class
##ha
ser
el
hig
research
##ement
##usion
##put
requi
##ings
same
test
dem
rece
sin
figure
##to
:
mic
end
##ines
##10
addition
similar
multi
##ps
know
##ological
av
three
elec
##ene
import
fur
##atis
##alth
lo
##ress
had
15
|
##ale
##ort
##ium
##1.
##ported
cap
##gorith
##ural
&
conc
##sp
##rect
comput
design
algorith
##ality
term
##ma
pa
##ake
given
effect
##unt
##etwork
distrib
further
##ivid
##],
##sible
##duction
pred
sug
estim
mem
pe
##ination
treatment
because
propos
##2)
##ited
identif
##istic
##eng
##lis
##tively
##ade
##ivers
network
##ential
main
fre
##vious
(3
expression
##ject
##alu
##com
##con
path
imm
health
##itive
hum
lim
[2
small
##hib
character
describ
tem
##lic
##aining
thus
##ism
##par
<
##struc
##aw
need
##ently
##3,
could
while
##adi
second
line
value
##sc
who
oper
syn
##ok
##iss
##ob
##ider
following
gene
sugg
pot
bas
##.4
values
would
##ock
##ulated
calc
order
(19
##resp
year
##nal
paramet
clin
sequ
higher
##gan
##ities
##ful
##ator
##ier
evalu
respon
lik
##of
about
20
rate
##ains
add
provid
within
selec
##ode
table
11
##ning
##2.
##ples
region
##ian
∈
occ
##arge
pap
compared
represent
applic
##tt
dise
##rop
##ision
##4,
##ogr
find
13
##agn
pub
chang
methods
##ves
##-2
ma
levels
##ectively
gre
those
since
##iron
should
effects
##ically
observed
ke
important
previous
univers
##................
..
##the
sci
##inc
##sive
impro
##osis
activity
pat
current
due
norm
##ness
##amm
systems
##ily
att
##ics
imp
prob
sing
##face
##val
##ove
frequ
##ived
##ive
##plement
##ental
stand
te
##echan
ris
sch
state
##5,
mm
2.
ther
##atory
therefore
conf
fin
16
mean
pow
expl
associated
concentr
long
total
##other
individ
##respond
##tig
##0)
development
##ins
pop
1,
predic
##ital
grow
complex
14
consider
##ving
##view
##over
gl
##ty
large
prim
##ink
compar
approach
##iter
##rest
mechan
example
mark
##xt
##12
ele
aff
prot
performance
obtained
dom
##oid
specific
section
initi
den
commun
–
##endent
individual
##sed
su
many
tri
##ood
problem
human
##line
max
correspond
algorithm
##co
assum
increased
##ward
ep
18
beha
sever
comb
##iod
##lear
##af
##viron
result
structure
part
chem
##idence
optim
##hip
proper
del
##5.
general
phys
ref
##11
progr
extr
##fic
paper
(200
intro
##ross
behavi
bel
lab
##3.
type
##ry
##uce
reported
##4)
μ
##ences
serv
##6,
##4.
power
respectively
##ogen
university
##ergy
organ
fl
discus
decre
environ
ear
single
0.0
micro
standard
sym
##ified
##7,
##ission
ge
##50
increase
size
##ets
conditions
##cept
among
very
mater
##onic
##5)
sl
contr
##min
·
avail
pers
vis
occur
performed
signal
models
possible
ii
risk
auth
ext
lower
lead
invol
##ately
particip
##ick
##7.
period
##3)
##ced
response
less
##6.
field
rat
compon
analy
assess
inhib
100
disease
inves
##ns
interest
ca
let
##ference
##oph
concl
198
##ish
cases
inst
allow
groups
##verage
##cr
investig
##ograph
##ld
##8,
##ording
mor
sen
cent
point
cancer
##ension
##ables
immun
ret
without
years
die
fil
several
##med
##me
child
bu
gu
clinical
targ
##elf
real
energy
changes
##round
##omet
proposed
local
30
##ists
##though
{
##ores
##ices
techniqu
normal
##ner
##ained
particular
##icient
##ynam
/
##.;
##ogn
##onstr
described
significantly
##xim
##ke
##ateg
##6)
##ensity
although
##els
adv
##arm
showed
solution
##based
sit
step
correl
mut
>
*
##ually
pattern
3.
four
prof
direct
distribution
##oy
‘
support
tak
electr
sour
cd
even
factors
##arch
##8.
demonstr
red
##jects
acid
[3
temper
##ety
##ification
shows
##9,
pri
relations
##utions
age
statis
ps
hyp
potential
##ength
tum
##acy
neg
err
##pe
##cri
sw
##imum
##ody
post
##ule
##sequ
according
##osp
available
##13
##ependent
abs
above
##reg
eng
pur
##ull
##ters
surface
act
collec
material
flu
##ication
cre
intr
them
##ger
role
##ector
soc
##io
environment
does
##onal
patient
##%)
##-3
integr
log
care
manag
see
##app
##ame
##ount
##ii
cir
molec
##ested
bound
vir
including
##9.
##andom
α
##ither
radi
change
lear
##uted
•
phase
related
depend
##ank
##tics
##cle
##20
samples
##oss
##7)
factor
activ
range
po
common
parameters
bet
sample
##ests
hand
##olution
ox
growth
rele
flow
water
##az
##org
tra
fac
≤
appl
##own
contrib
##hel
##pr
contin
##ules
key
hist
##omen
sum
##ude
##ave
##man
##ware
##ler
##anti
mg
here
##ival
positive
random
##atures
##sh
my
##8)
##cent
50
24
neu
back
therap
did
##asing
##dro
implement
before
target
##tional
##000
25
tas
"
##odes
ach
17
being
##vers
prac
tiss
##idered
diagn
##cop
defined
##met
##15
average
ent
##ulations
theore
image
again
considered
##actions
und
##−1
species
review
##oh
##zed
##imension
##pa
provide
##ocy
±
##we
press
dynam
area
##ds
##mit
nec
##jor
differences
est
##//
##lood
rati
sk
##ances
##itor
consist
##istr
##ah
##row
position
hel
struct
frequency
##ae
##ype
ve
proced
terms
##och
influ
program
orig
##cep
##be
ir
top
multiple
sens
major
achie
##osph
bre
space
spe
presented
temperature
strateg
##14
##lished
##://
population
suc
##eff
conn
caus
##ledge
##ci
construc
ques
##cs
strong
measured
larg
fam
##rix
input
relationship
characteristic
(4
foc
improve
##ml
approxim
ever
##ustr
4.
iss
la
##not
##16
##ume
##ct
dev
quality
##ior
difference
##bers
##ords
either
cho
##25
pp
##asc
whether
mice
lif
nm
##19
inj
##erc
##ators
behavior
##bs
must
ang
##ison
nat
##ols
lay
##omic
drug
prom
initial
circ
blood
spectr
nuc
conclusion
stim
##ield
wor
~
##stand
various
accur
experiments
plas
##ploy
clear
##dr
2,
##hesis
soft
known
##au
##ible
linear
##atively
call
##bl
##9)
cost
exist
stat
dna
sequence
##ych
presence
##ised
corresponding
loss
suggest
require
##tro
artic
bo
##ibr
mass
defin
ow
social
sem
her
##lob
##iew
ill
matrix
length
cop
read
##way
##eration
##tice
required
variables
subs
##ton
applied
clus
knowledge
mus
separ
genes
public
##read
const
mal
evidence
1)
anim
yo
(199
chann
##ttp
##urn
another
properties
##ournal
...
card
instit
##know
focus
view
what
cat
##figure
every
##omy
reduced
experimental
might
wr
men
##eric
##ended
way
mit
conver
##17
children
##ron
conduc
##1).
reas
##tes
;
developed
##inding
##for
##mission
##⁄4
schem
coun
determined
least
user
##ression
antib
made
##18
##isms
##5%
##abil
functions
continu
cm
##ored
application
management
times
much
concentration
##ern
now
detail
##hy
graph
good
limit
##see
intern
expos
follows
experi
appear
##uk
ec
differenti
ratio
prec
deg
tran
points
0,
%
##40
production
cer
##5).
##hold
##ina
vi
fail
lat
ce
off
##bility
##get
mix
proteins
##yr
##30
##land
features
better
hyper
prog
β
identified
##artment
sensi
direc
recept
output
stress
volume
##ably
sal
##verse
states
access
##ee
]
il
##bi
learning
ol
##ai
sus
source
##2).
types
##ouse
adj
error
participants
##uf
primary
ur
##ying
constr
note
40
down
##ument
transi
enh
early
##ck
(201
weight
relative
22
centr
##60
medical
##tis
included
open
##tically
##till
##aging
isol
##ra
′
##oint
cul
λ
parti
##ze
additional
[4
hen
phen
increasing
experiment
hosp
necess
##ret
##atisf
hydro
##ulate
##/2
##ars
mak
##ont
ml
provided
like
self
rob
##aps
##ries
his
lang
##ides
rates
days
##amp
month
prior
negative
ic
##den
theory
block
regard
compos
likely
conte
##oma
fix
authors
often
##))
life
detection
##utes
eas
resour
##ca
##22
short
cos
tissue
run
##oms
##time
women
understand
##ering
problems
light
##omm
psych
hom
decision
fa
phosph
index
interaction
phot
clos
link
×
report
##ights
5.
density
components
comparison
calculated
software
##pec
means
fib
address
##ste
equation
ste
node
applications
reve
journal
##80
satisf
util
##anced
##uture
technology
previously
maximum
che
##ring
##3).
##-4
load
consum
cross
0.00
domain
ul
adap
##ote
##ero
probability
nan
##iciency
introduction
science
vector
fem
##tered
received
##lik
tumor
summ
##21
still
resid
##aces
constant
http
##ways
right
##ird
##ss
##itro
characteristics
##abol
against
recogn
##mon
##70
bene
##ially
##less
bro
##oper
neur
##cin
determine
left
band
overall
doc
##ots
(5
23
success
##pri
greater
resist
##tor
make
estab
effective
findings
images
content
valid
arg
physical
mr
##ling
membr
processes
discussion
##inary
##6).
ra
##gf
functional
cri
fram
employ
reduction
##lying
##rie
educ
reflec
interp
impact
liter
exc
contrast
##--
##izing
pair
article
few
##ges
recent
wee
arch
##24
##vant
##more
cardi
future
free
body
ide
minim
percent
electro
##23
evaluation
##ems
via
seg
econ
##table
best
##pose
##ogene
mac
diffic
simple
##ole
##zym
visual
day
expected
##__
distance
hypot
across
seen
task
ax
techniques
##4).
##omes
labor
φ
##lation
##aneous
##7).
langu
glob
##uit
##roph
##itation
##term
sa
next
mar
nodes
training
##bo
yield
scale
include
suff
question
##ching
brain
hence
##ino
##ta
context
##ape
active
therapy
capac
σ
(1)
national
cour
independent
protoc
##di
count
##edi
##8).
##pling
pul
dri
##75
activation
10.
pressure
60
rev
fund
##ople
##roscop
nor
definition
variable
play
##ysi
along
##ams
proof
whereas
formation
simulation
polic
##yst
medic
bar
altern
##ired
mechanism
theorem
lip
##aches
transfer
later
##vent
molecular
procedure
constrain
association
demonstrated
star
site
hospital
help
binding
she
##ession
##ij
pack
finally
(0.
asp
coeff
service
##ids
coll
##1;
##ool
displ
enc
involved
##wh
##ray
##active
les
##by
ampl
reveal
transcri
subjects
ein
processing
sn
##duce
##lex
eth
fore
ci
dig
provides
rather
28
parameter
∑
δ
##tle
search
author
obj
people
areas
full
expressed
li
nucle
larger
component
situ
dimension
tex
reason
21
treated
carri
regions
##tering
##9).
culture
##spec
≥
feed
concentrations
increases
metabol
selected
##ire
##lish
criter
measurements
##=1
##90
able
technique
confir
generated
certain
θ
admin
correlation
center
##go
##10.
chrom
0.5
family
∂
hem
##fs
individuals
##ascular
##ata
##ions
product
limited
##38
26
below
##);
##let
air
##bit
reduc
surv
super
##pression
peak
exten
engine
usa
department
near
statistical
[5
world
ms
##vention
→
furthermore
natural
##vere
vs
amount
consequ
optimal
stage
memory
surve
sympt
##iting
##78
γ
##off
containing
elements
impl
##orph
##ply
6.
vers
(2)
reaction
##stric
moreover
resulting
##vities
na
##isc
ess
autom
central
soci
move
##ours
##gl
attrib
##0).
last
channel
enzym
carb
##ones
##cd
iv
networks
taken
polym
cycl
chr
##here
##ash
##come
##lamm
record
##ient
degree
though
repe
##alle
##ground
patterns
scal
complete
concer
lines
reference
fit
##ography
events
layer
##ising
##acts
spati
consistent
1⁄4
side
##ections
princ
##lor
structures
users
infection
highly
##35
3,
detected
##des
##agne
ct
sites
ability
influence
##inant
communication
months
##load
literature
##uring
##26
diff
'
##hr
chall
##oles
##urb
##99
medium
bacter
##onses
##ports
unit
selection
action
materials
analyses
##equ
rap
services
global
##oun
basis
##da
##order
responses
plant
wave
final
27
directly
##tivities
##2-
toward
difficult
necessary
five
nature
version
eu
##2;
##reen
##like
cannot
hal
##45
analyzed
##cy
##+1
##(1
descri
measures
por
computer
##28
##bor
##rence
measurement
##mm
possi
##tre
poly
international
appropri
object
series
##27
atten
mechanisms
transform
compound
benef
project
genetic
##son
##ceed
aim
studied
##aced
wid
29
students
americ
subsequ
##29
##medi
mid
numer
##65
original
volt
followed
estimated
lack
datab
##ury
food
##int
quanti
feature
maintain
##itude
map
affect
event
place
##icity
##rial
published
fixed
##epti
concept
##uration
critical
algorithms
special
rest
##ining
##acc
sil
##ework
doi
##eth
membrane
serum
pi
receptor
##gery
scheme
##izes
diagnos
##erve
##1-
take
reduce
35
##eline
decrease
framework
##34
##reshold
##iff
indicate
respect
language
ig
sex
##ih
induced
equal
cam
noise
assign
exec
subst
ens
37
synt
resistance
indicated
detect
decreased
##otype
##oding
##induced
continuous
##urs
account
##wise
neuro
trad
##ify
pain
##astic
##brid
##antit
bal
excl
diss
##no
accuracy
##position
##cm
##back
activities
approaches
##related
element
strategy
prol
197
school
therm
evolution
interactions
##encies
τ
useful
magn
combination
©
gas
har
restric
setting
coord
mach
##any
cyt
testing
sets
7.
around
diagnosis
##uz
exposure
agg
heter
##pecially
called
hard
##ique
##amin
status
solutions
conducted
##hers
##ream
relatively
tests
tested
si
added
##gether
code
together
far
background
##3;
tub
identify
get
##0;
##2(
speed
efficiency
dynamic
dose
##ulin
##36
market
##sm
wa
propor
threshold
equival
##%,
collected
colum
da
mess
needed
third
[6
illustr
rad
##ites
##ered
##rs
produced
having
eq
##type
##aff
##ochem
wind
##igr
plasma
six
##cell
##inf
##ga
quantit
iii
##ift
##acted
sequences
assessment
##sk
##-5
##0.0
practice
head
ann
surgery
distributed
zero
products
##tex
##bed
recently
exhib
##eed
assume
##agnetic
cou
diab
supported
##iving
estimate
##ert
advant
great
reli
bus
swit
##aly
stimul
##4;
##otyp
##ope
lit
especially
appropriate
##itect
chemical
spatial
enti
oc
##ymph
80
##uble
variation
cause
hold
##ancy
delay
evaluated
pd
survival
##set
##anes
##imin
##mma
##apping
implementation
1).
repl
conven
morph
ρ
##most
##95
transmission
rapid
acqu
cycle
paralle
revealed
dam
animals
##1(
derived
##ery
score
whole
upon
education
ww
voltage
##ologies
##que
build
location
pharm
##,”
##grad
words
##aries
land
##ula
relevant
##comes
basic
operation
distinc
death
allows
physi
##entially
programm
incub
##ense
regul
##rient
##33
experience
capacity
##67
##iness
##plications
##do
##6;
fat
π
##5;
bone
own
inhibit
recomm
monitor
mes
mas
gover
architect
imaging
acknow
##ferences
##esis
##specific
relation
internal
##ulf
cogn
germ
community
protocol
virus
vel
##reng
designed
understanding
refer
##ographic
##eness
screen
lymph
prop
fo
##64
##istry
pass
list
avoid
arter
##ott
sensitivity
subject
policy
outcomes
biom
48
mode
##arily
heart
law
examined
approximately
nam
belie
##cence
##ysis
resources
buff
##ops
others
hep
bur
base
gluc
weak
##igen
ben
broad
define
requires
supplement
rna
##98
repro
leg
##enced
##odies
##37
web
##anning
iee
##erved
discussed
done
liver
kin
suggested
correct
online
classification
history
#
##atin
usually
investigated
##mic
rout
scen
improved
just
criteria
##7;
##9;
(3)
generally
generation
emerg
interesting
contains
failure
ieee
##urity
##ocytes
##terior
streng
##isted
##ectiv
successful
agents
##ht
##ategor
##zy
assay
##oti
las
you
oxid
www
##ral
##overy
smaller
4,
direction
medicine
rot
45
novel
institute
inflamm
##ict
symptoms
medi
##hz
substr
##ands
##la
##100
muscle
##hol
administr
represents
issue
##eu
##plas
become
##hest
carried
##1–
numbers
maxim
##gn
##ww
##trans
signals
##une
##sw
tox
mir
core
conclusions
environmental
facil
electron
suggests
ta
##dependent
##olar
rats
members
until
regression
##norm
[7
course
tree
origin
outcome
neut
needs
parallel
##3-
(6
transition
rs
pan
##.)
upper
0.8
cp
du
combined
2)
caused
##2]
##day
lemma
soil
##orption
sources
promot
##mod
achieve
sensor
∫
##rome
##osen
##ember
beg
veloc
guid
gly
tool
laboratory
##air
cut
##1]
##xi
##tices
##use
evaluate
database
##operative
govern
minimum
squ
equations
##ili
respond
##otic
transcription
∗
specif
controls
transport
##fr
34
mob
close
biological
lin
##8;
fraction
categor
##ley
force
chronic
intensity
##ending
severe
frag
##orn
0.01
##iform
##2),
tradition
tempor
##vari
##ls
##gg
achieved
.0
##arc
pm
young
lung
##otor
##ead
rang
neigh
fer
##39
!
interval
engineering
##rope
sout
##cp
##certain
segment
countries
scenari
objects
objective
##aged
person
36
[8
##li
representation
wi
recon
mill
md
motion
##linear
##ye
0.4
turn
##unction
##level
inform
particularly
##www
instead
true
##king
ω
give
##aves
poor
stable
agent
track
##imensional
##cript
##ou
synthesis
strategies
##mitted
##tif
agre
adop
survey
##plicit
importance
observations
incor
once
check
##bp
##ements
$
princip
##ingu
spectrum
fast
##ternal
##rup
##ats
american
always
pepti
estimation
exact
baseline
device
##lin
costs
text
cyto
##bly
trials
discre
weeks
perce
ion
8.
structural
dynamics
##roup
clearly
society
ns
acknowled
##atives
##ipp
mortal
neurons
secondary
organization
90
##aring
32
nut
issues
uses
bm
##-6
tend
##press
produce
##etes
##ellular
existing
trial
versus
pen
cluster
33
inhibition
##hic
van
##uments
ng
don
##abor
ut
efficient
##97
stability
cult
upd
label
indicates
hypothesis
denot
acute
##ales
choice
fluores
ip
##ults
##ba
config
devi
absence
vitro
isolated
consumption
coordin
tren
ti
mel
constraints
almost
##amine
prep
rule
##ometric
cryst
deriv
alternative
##agr
##dom
##asis
signaling
display
surg
38
emp
scores
instance
##cont
##helial
prevent
##tioned
##1),
identification
document
sat
##plication
spect
europe
##nt
##omer
cle
color
introduced
##nas
optimization
diseases
mortality
##fl
##)(
thick
##9]
##ready
duration
entire
viv
##rem
2.1
lig
deliver
##ached
##ident
##known
interface
##uary
male
estimates
acknowledg
describe
od
au
##68
composition
##pled
affected
release
##ficial
devices
bir
leads
sched
##emic
##ada
plan
home
##etr
##hing
requirements
resolution
##ectors
preval
ε
exists
##1/
finite
##32
##mail
pathway
cellular
strength
kind
##dimensional
highest
##ygen
half
inn
##col
already
little
##arr
ground
forms
collection
slight
(198
slow
never
ts
optical
established
similarly
unique
##bol
##ious
##uded
external
##pp
dos
grad
indeed
diet
mc
accum
mil
strain
1:
making
##kg
pt
um
carbon
datas
mouse
##ises
##elling
##3–
breast
complexity
yet
2-
rt
orient
cand
desp
##agen
cs
whose
longer
instr
remains
rules
aug
##48
ter
vary
curve
filter
2).
##omb
##isation
accep
##acement
##sch
vide
##hal
##ocks
70
magnetic
uncertain
recognition
##eral
acad
errors
##ibri
occurs
recur
##berg
buffer
populations
correc
improvement
cognitive
ultr
interpret
##apy
plants
##ulating
wild
velocity
modeling
despite
aggreg
##):
colle
##uscript
##cal
microscop
shape
hours
chosen
dys
induc
wall
dm
##dl
contain
virt
∆
plate
equivalent
5,
##ibility
edge
migr
##erate
stor
purpose
regarding
animal
0.1
##tosis
##itable
steps
alle
##eti
recorded
3.1
vivo
gain
##abilities
##orb
tasks
asym
##96
attention
reports
##nf
boundary
os
antibody
express
##ches
contact
##state
economic
challeng
##uct
chain
immedi
percentage
leading
security
##lier
expect
sampling
symmet
constit
ful
assessed
##group
draw
diabetes
molecules
white
regulation
divid
##94
ni
##ometry
div
observation
##ogenesis
equil
##itten
ten
##ystem
goal
vehic
finding
procedures
elev
hor
saf
##itis
##...
abstr
candid
working
##9].
##normal
essential
zh
pcr
attem
synthe
##td
computed
china
00
##3]
controlled
dependent
rh
distinct
das
past
accepted
mobile
##77
architecture
emission
sd
##max
##anol
net
pc
put
units
}
colon
##ogenic
##atically
2.2
##mark
glucose
wide
gives
##ney
##fold
female
##struction
tools
spl
examples
nd
seed
##aft
mainly
enhance
bes
##with
compounds
consists
##faces
neural
##che
attack
hiv
prepar
ga
1.2
priv
mom
cust
specifically
coefficient
apop
##rents
robust
exch
particles
rank
accept
located
page
[10
1.0
##nd
##inter
ss
property
##otherapy
jap
represented
easily
##umin
##year
##sen
epit
becomes
incorpor
column
monitoring
prolif
regular
commit
##1].
generate
##ched
##oe
appears
##acellular
##tric
pet
root
hybrid
predicted
makes
inten
noted
computing
conventional
compare
joint
##opath
##enz
##pub
questions
om
##74
includes
predict
green
description
host
(9
sent
##85
1.1
administration
##encing
tax
characterized
subsequent
##pi
demonstrate
##ocation
synd
injury
##atric
##chem
‖
developing
##ka
connected
black
details
exerc
angle
investigate
traditional
##76
seman
polar
digital
##emia
flex
typical
parts
ast
modified
##point
##3),
extent
##aching
cere
actual
##oking
transl
partial
currently
confirmed
formal
##acture
conflic
##pc
√
damage
##9–
implemented
epid
##dle
##orts
orth
bond
##2].
##bm
degrad
tissues
profile
enzyme
word
##2/
depth
η
sections
##entific
##ameter
##)-
intervention
##va
towards
variety
##ker
heat
prediction
(4)
extension
taking
##ungen
skin
aus
drugs
##posed
traff
##iles
suggesting
motor
dil
assumed
simulations
hz
kn
##ptions
ber
oxygen
”
relationships
ð
involve
##____
##loaded
##sup
##lim
##activ
##pan
##aking
smo
media
too
adult
##ned
##44
sense
31
operations
detailed
demand
proj
##side
##200
feedback
qual
assumption
zu
auf
ze
immune
fully
uniform
mathem
44
cla
##ki
establish
depends
classes
mrna
start
1.5
mol
##ibrium
aspects
embr
identi
variance
indicating
providing
##cor
?
fall
3.2
typically
##ories
double
simpl
substanti
°
etc
##icients
earlier
(8
considering
##car
##ump
tor
remov
temporal
aud
##itr
##era
proceed
##-0
analog
computation
hr
##omal
##gs
que
face
plat
advantage
items
joh
metric
business
##31
ri
##0.00
##epend
chap
underlying
resource
extended
alone
##olved
2.5
coefficients
##ica
induction
denote
cas
##3].
theoretical
solid
correlated
3-
incidence
##chron
integration
begin
strongly
fields
arr
##66
discuss
sufficient
##udes
##4]
pay
strains
simult
prevalence
substit
itself
return
computational
##words
coh
researc
behaviour
channels
mutations
programs
machine
##ighted
##free
hu
situation
dc
otherwise
##atal
pharmac
enhanced
manuf
##pd
facilit
disord
tur
emo
##aily
meet
(7
reson
##ends
##pective
kr
amino
susp
financ
55
bei
##omial
personal
resulted
##agg
##rolog
led
differential
placed
marg
##izations
simultaneous
transformation
frame
throughout
cu
rights
antibodies
liqu
enough
bias
gal
wes
possibility
price
hab
radiation
gel
gradi
##ache
implies
mixed
##bre
9.
numerical
##-8
##cn
substrate
0.2
##icht
##ished
invest
pix
matter
contribution
##gebr
extract
##ky
trig
statistically
##wa
##sian
##imm
##rh
##ll
proportion
causes
video
week
capture
insulin
latter
surgical
ba
\
polymer
acet
fluid
prepared
healthy
construction
room
##inity
nuclear
adhe
grid
embry
##plant
phenomen
proposition
safety
hier
carcin
6,
ak
seems
##pm
agreement
##gence
##treated
tumors
motiv
##dm
##’’
occurred
accurate
competi
communic
daily
—
##def
mapping
remain
formed
##2+
ant
dele
cardiac
##%.
39
jan
divers
##ochond
95%
##entric
miss
fed
##bal
thermal
decom
cover
transf
manuscript
technical
pregn
window
significance
stem
adapt
empir
##ologic
##ounts
stimulation
##ateral
##rief
house
##bedd
receptors
##ipher
##7–
##oll
genome
particle
∼
decl
pairs
war
##iii
##sa
##mo
therapeu
uk
##-7
chromos
wal
spectra
sciences
traffic
##.-
perf
scientific
majority
0.6
prote
eine
##ani
##omas
ist
else
sr
##uth
##:10.
operator
storage
technologies
bat
forward
overl
##aling
##mann
oral
session
fav
ensure
employed
injection
##pts
equilibrium
phosphory
##ek
Γ
##urg
plot
##tely
##ylation
##ogeneous
extraction
quantitative
alter
##ontal
von
syndrome
summar
counter
explicit
##oved
dies
movement
sensitive
##ogenous
remaining
repeated
##aster
slightly
compet
circuit
integrated
enter
retrie
laser
##6]
apply
align
showing
median
##xy
intermedi
##sts
metast
##lab
allowed
differentiation
##wid
##oud
stri
##gt
skill
##4].
##53
differ
smooth
lic
recovery
gam
##gu
##oxid
government
extracted
##try
##ocard
united
##hydro
widely
delivery
lesions
suitable
sle
acids
date
renal
references
scat
##ras
Ω
##portun
old
removed
stre
remark
written
##icacy
##fa
##uly
brief
rn
virtual
##usted
mutation
keywords
stages
conj
vor
##(1)
##arent
collabor
‘‘
cc
adults
responsible
pathways
propag
∣
pas
chlor
##stream
summary
bul
platform
iden
mi
##net
query
toler
mitochond
manner
##2–
message
depending
claim
##head
disorders
libr
sod
idea
shift
fu
opportun
##iction
nonlinear
##oring
plus
array
rare
##otypes
##ilt
gran
fundam
##ova
##55
metal
),
completely
commerc
inser
closed
except
endot
##eding
contribute
5-
##width
regim
oste
mis
##ocal
quant
2.3
domains
parent
examination
takes
##iciently
benefits
magnitude
advanced
clusters
vascular
diameter
mentioned
assem
unknown
obvious
ln
ξ
〈
belong
##5]
3).
##plicated
##men
distingu
exercise
separate
##ectiveness
2010
tun
presents
liquid
##hood
##cohol
##----
nt
apoptosis
plane
apparent
1-
late
wat
##46
middle
copyr
ds
charge
job
actions
meaning
fal
mutant
screening
examine
create
european
##mg
simply
port
##doi
south
accel
##ão
file
mixture
##ban
comparing
financial
:=
vacc
sept
##roid
configuration
reducing
embedd
incubated
exchange
##ser
bp
pal
fish
hol
##fp
##ategory
##edu
##4-
share
diagnostic
explained
propose
##sized
spectral
quite
recommend
subj
##esthe
wt
created
categories
##ustry
##ochemical
vectors
loop
anten
##ken
##ued
mental
ψ
io
##uff
keep
##hi
contained
curves
ν
confirm
46
mechanical
##inations
interview
explain
proc
construct
##meth
supply
##47
##.0
indust
proliferation
moment
abund
neighbor
gap
##section
##pha
2015
profession
500
##acing
##ares
##ked
cod
stro
1/
##istered
assist
##hs
##seud
respir
accom
##93
2014
##ara
ones
divided
##eter
answ
operating
approximation
occup
statistics
commonly
thickness
marked
investigation
formula
fluorescence
##6].
researchers
western
##ocr
benefit
aver
irr
bott
agr
iter
##uting
electronic
##ben
break
−1
ren
##olic
##sis
beam
##well
##7]
conference
ho
4.1
innov
thank
##ws
##ni
(5)
##ils
##agon
ways
industry
student
explan
##ford
constraint
47
jud
##att
aer
easy
##asts
none
emph
##88
height
##ners
2017
copyright
horiz
nl
biol
sustain
##osa
abnormal
starting
poli
##down
##utive
flux
##ril
amplitude
dt
expan
box
works
similarity
##ades
##bitr
markers
planning
bil
ont
##dis
##enge
##zer
##rim
independ
therapeutic
alcohol
seem
practical
distributions
##mediated
0.7
(10
older
##cepts
bit
_
##itrogen
assigned
db
deep
quantum
##zen
entr
∞
axis
42
variability
##cos
adaptive
ple
osc
polyn
##”,
cf
##5].
##6/
sed
reactions
##101
subset
station
frequently
say
kinase
north
interpretation
protection
identical
##comp
schedul
complement
harm
##pair
minimal
##vals
bacterial
##gebra
##49
append
##truc
specim
germany
##alysis
##ovascular
2008
compute
3)
reasons
##sub
##zing
why
##nm
efficacy
##uation
bio
dop
variations
reach
peripher
10,
##oids
reflect
fiber
quad
spread
##hl
##ening
##7].
stored
pure
##ocyte
gender
##monary
potentially
gi
deviation
2000
##artic
75
expansion
afric
scenario
minutes
diversity
##rehen
pseud
wang
cytok
execution
category
##omorph
##rich
exposed
ai
questionna
##take
treatments
##elines
clim
##ervation
ly
2013
43
obes
building
preparation
bacteria
lipid
matching
arbitr
interven
intra
cloud
##ided
##gi
65
spin
instruc
degradation
gradient
probably
##organ
depression
inver
organic
fuz
2009
secre
peptide
limitations
7,
##5),
##%),
rich
hierarch
##ev
bios
bey
identity
frequencies
quantif
inhibitor
##bc
3.3
prove
speech
##scale
diagr
##going
mamm
additionally
##4),
##function
##1:
focused
xi
##mat
expon
##atics
##1⁄4
ham
dual
##-10
dimensions
ub
##oster
196
).
edges
sti
famil
##zation
##hn
adjust
##sities
kid
empirical
chen
##sively
york
##opro
dataset
##−1)
positions
##control
reliability
vehicle
decreases
ring
ord
recomb
##ibration
manif
300
effectiveness
holds
##band
discrete
consequently
lys
team
km
eight
##fact
fragment
metabolic
japan
attr
oscill
##fication
rm
viol
##inated
absorption
##ana
extrem
eigen
##etal
invas
coupling
layers
##acent
concepts
recr
logic
##nn
##mid
##ips
brow
##ano
ster
calculation
panel
grant
absol
barri
polynomial
##/10.
##@@
##aa
##flow
beh
electrical
##ris
##sd
corresponds
58
##ady
applying
54
beyond
##used
##dx
confidence
programming
yon
gaus
##idity
vit
activated
##cepti
##alian
##sia
##6),
physici
width
foundation
dependence
fundamental
##8]
highl
##(2)
feas
diffusion
compens
inflammatory
comprehen
##ihood
choose
synchron
module
ye
june
##ethyl
unc
##ressive
##icon
controller
infer
0.3
atm
##po
56
##ura
figures
##acr
server
complications
constructed
trade
ea
targets
##ception
lu
college
appe
0.9
suppose
abstract
game
fuzzy
horm
desired
##bt
##oscop
eye
vac
challenge
2012
blocks
uncertainty
physiological
contributions
staining
wer
birth
look
intermediate
think
##ses
nutri
##)]
methodology
sensors
biology
##201
profiles
mt
inside
##ophil
##ament
coron
4.2
drop
sound
sleep
calculate
##reless
##eg
oil
##velength
##ini
paras
##poses
onset
fab
##overed
pulse
nurs
observe
internet
immediately
humans
##.6
nc
8,
arm
vertical
##ured
##mer
pert
females
##8].
involving
##anch
randomly
elimin
metabolism
progression
##kin
##wr
##pati
calcium
aden
##43
residual
##ucle
outside
##57
income
packet
##care
þ
##bar
shared
10%
rf
sv
simulated
##otox
compr
manip
vo
##emi
kg
##elle
fusion
transmit
2.4
bandwidth
perm
lateral
##86
pic
commercial
##elihood
##iment
interact
glut
institution
adequ
inequ
##isition
cohort
##water
rd
rr
oh
mn
##fort
posterior
##yle
heav
throm
offer
binary
##rees
49
##avity
wireless
yields
induce
existence
shif
robot
actually
ll
##dep
locations
periods
##)−
ultras
##herent
comparable
maps
disorder
persist
##where
seas
accumulation
kern
##otrop
linked
onto
transplant
environments
stream
##ayer
namely
(6)
probe
standards
fill
##inger
##pcr
dim
bank
classical
kine
##vol
pig
traject
`
intervals
vess
inclusion
minor
cycles
poll
chapter
##ativ
##requ
angi
##5–
moderate
mer
hyperten
july
tel
##bial
##eling
leuk
fault
orientation
##times
principle
publication
##rosis
##crib
##tober
prefer
migration
trend
##73
guidelines
name
cn
coding
separation
##0(
seven
capital
##ella
sizes
urban
gold
systematic
stabil
##apl
elevated
##stein
antic
recall
males
clustering
connection
thought
##cf
sulf
##tile
##arant
suscepti
reduces
blue
determination
stroke
tm
##ama
progress
##elves
supporting
sodium
(0
involves
pulmonary
acquisition
explo
balance
agric
solve
country
##ellig
round
representative
##link
thin
bind
gm
prevention
reserved
0.05
radio
##estinal
firm
progn
decisions
appendix
##kele
artery
perspective
challenges
incom
implications
neutral
##data
removal
split
##activity
41
muc
11.
describes
subsequently
private
##gc
##genic
2011
sig
analyze
##2:
availability
##rt
march
modes
reproduc
charg
cultures
reverse
ded
inhibitors
np
dest
firms
nf
##)|
##ives
2007
spring
##arrow
residues
##uding
##ourn
##ifier
compl
##omatic
shor
##cast
inflammation
##ads
##occ
austr
[1]
effort
##tenance
initially
phosphorylation
##-9
ratios
peripheral
expand
cruc
pf
##ham
59
##bral
division
wavelength
##%).
##iral
relax
uptake
cardiovascular
nach
referred
candidate
convergence
thor
denotes
stop
##oration
rise
##positive
viral
stimuli
your
##nc
##acl
algebra
coverage
##63
iron
mother
pit
hi
carry
gast
##isons
57
custom
##(2
ideal
prosp
complexes
false
square
##dt
##bil
##neg
protocols
indi
tt
2016
matric
catal
hydrogen
absolute
cortex
##bert
lm
links
##vis
##},
##pressed
##uous
gaussian
##42
##irus
los
##obl
##graph
##.201
completed
##ón
rab
classified
surfaces
invari
als
##omics
##ifi
infections
qualit
##ping
teac
##87
gh
weights
introduce
normalized
cred
guarant
meta
simultaneously
maintenance
static
ven
##ife
ram
roles
##apped
##theless
measuring
tag
happ
january
##tives
intellig
##erson
receive
ot
##ister
adoles
dav
##uck
adverse
tit
hs
behavioral
aa
arri
impair
53
maintained
ads
infected
tl
nevertheless
matrices
##lands
##rd
##ifications
calculations
living
##gal
disch
stra
olig
##kt
##ria
growing
bay
150
changed
grade
pool
annual
regulatory
effectively
promoter
64
malign
practices
4-
arti
stock
utility
##itz
successfully
household
rig
reached
72
interventions
@
mur
semantic
fri
panc
##resh
disp
april
assays
centre
repair
##=0
regional
inner
partition
rapidly
interference
likelihood
proxim
primarily
##itively
##cles
correspondence
hardware
’
randomized
##process
##ariate
running
interpre
##vier
##lip
nerve
changing
##field
select
sexual
tracking
bottom
##lig
##ournals
instrument
##onomic
ov
kit
lowest
committe
composed
##ato
receiving
##olester
##oly
sie
##.7
ie
##ellow
##ept
moving
zone
parents
##associ
ventric
phases
families
##np
uv
insp
assumptions
coronary
reliable
##.8
asympt
##ees
95
##ulus
amounts
conflict
macroph
leaf
##aker
translation
##uits
big
forest
ltd
ing
dominant
marker
city
##fi
largest
##mi
zhang
##test
alk
je
temperatures
extensive
tail
##value
board
##bd
exhibit
manufacture
intake
diver
kidney
presentation
varying
excluded
perceived
front
shall
##hc
ty
##etic
ia
covari
##aria
enzymes
workers
comparisons
localization
##alled
##05
library
skills
2:
join
pregnancy
specificity
closely
phil
disturb
##tial
beginning
##yt
lam
##atical
exceed
amb
##69
ble
[1].
write
respiratory
##cat
nanop
surround
remained
##plate
anterior
rib
##new
reading
recip
##ster
conclude
az
separated
4).
contents
conv
##fered
##vem
biot
##mal
conversion
polymorph
wil
limits
trees
(7)
conve
intracellular
explore
circum
electric
.1
sun
##wide
behaviors
##can
argument
##exp
##forms
pv
requirement
fair
##}.
severity
nearly
termin
anat
400
bed
lie
request
##ped
degrees
##ko
consequence
correlations
nic
##estic
##otide
##thal
involvement
proceedings
allowing
52
##coun
[2]
Φ
##–2
##–3
schemes
thems
tom
##ypt
##iotic
ka
##elt
pancre
##amide
##itory
purch
##ensus
psychi
##lich
fis
thereby
partially
##ori
operators
01
inputs
sector
##dp
representing
themselves
industrial
coupled
segments
antigen
staff
analytical
iso
##–5
##89
##ients
maximal
rough
##41
pk
scales
policies
questionnaire
##ida
jus
bounded
rotation
##iffiff
quick
purposes
endothelial
stimulus
py
coli
selective
9,
##ogeneity
##axis
χ
substantial
##62
extra
gp
--
august
κ
precision
##class
##rose
efforts
decomposition
50%
carcinoma
specified
##anted
##regulated
indirect
chemistry
adding
advantages
##ef
adjusted
supplementary
##ng
attributes
determining
doses
criterion
3.5
##clos
mitochondrial
##aptic
bis
lum
nmr
molecule
determin
september
##oxide
sich
adjacent
art
deal
introduc
san
october
##aving
political
[3]
distinguish
john
[20
entry
ions
member
arbitrary
##ocl
routing
rational
plays
experienced
mathematical
straight
habit
addressed
##6-
neurolog
##ergic
proved
possibly
##ifying
exhibited
gest
lee
crucial
vic
hp
##vs
strict
51
ey
hc
##ush
situations
##rocy
match
film
##iring
##79
correction
illustrated
hypertension
independently
##mp
anxi
recommended
2007;
restricted
frequent
attempt
vertex
superior
parad
##84
1000
validation
myocard
[4]
##ji
##ado
microscopy
dx
Σ
-0.
●
perturb
shap
encoding
scenarios
graphs
embedded
trust
##neum
##.1)
##kl
##sibility
occurrence
reconstruction
##ather
resonance
geometry
##fol
goals
2006;
appeared
##sl
adaptation
messages
chromat
committee
suppl
assuming
modulation
##hand
december
phenotype
dark
##my
rein
camera
glass
##.:
forces
camp
poss
2008;
werden
neuros
disrup
asked
##oral
company
cham
pages
##rog
interests
numerous
settings
##–1
pip
##kins
bud
##ding
phyl
##phase
update
nitrogen
aspect
symbol
##zi
##which
2005;
interestingly
fresh
6=
flo
built
120
##”.
thre
item
modern
rating
formulation
communities
systemic
onc
annot
##cut
subgroup
##ectives
prem
##hd
##olesterol
traum
ij
##zo
capable
##awa
5%
subun
##nr
pedi
##space
)(
arth
predom
leaves
2009;
##lect
##actic
radius
##obic
atmosp
records
##regulation
allocation
3.4
paths
largely
microbi
basal
compan
(197
nas
modification
incubation
farm
nr
fm
exactly
corpor
##phosph
[5]
atp
pb
##associated
generalized
fung
ischem
0)
##haps
##anged
excell
ju
dry
##arse
acquired
sequencing
##inese
99
academic
##key
veget
##wor
auto
consideration
specimens
##idine
##taining
switching
##8%
trace
displayed
epithelial
##ulator
##negative
gastro
sir
nav
##illary
nanopartic
vul
tables
projects
papers
2004;
◦
varied
vertices
##ico
pg
climate
##pass
asymmet
##log
toxicity
fluct
steady
##http
alpha
antenna
triang
notice
##0),
##ür
pac
improving
adopted
##ancing
solving
vision
fibro
##entral
oa
smoking
ld
##tz
perception
##conn
conduct
tal
said
fibr
toxic
labeled
##arities
receiver
##ometer
##char
eg
mmol
variants
instances
##enn
##bruary
diagram
[6]
##yroid
rever
##odynam
mp
tele
oppos
101
nerv
attit
ff
oxidative
inverse
principal
row
integral
##6%
equip
##tp
##tility
stoch
##phal
washed
kl
trends
##ultural
pbs
##7%
##iples
cv
quer
##urrent
##aj
denoted
novem
##itors
serious
faster
quadr
##ttps
lc
cultured
ros
methyl
consequences
horizontal
##erated
##tructure
codes
come
##ged
statement
ves
decreasing
ech
##iley
shar
tro
epidemi
##uate
precip
kernel
mostly
genomic
##-1,
##hell
spont
stated
administered
deploy
lar
##61
##box
##ux
identifying
##but
chinese
comprehensive
##insic
propagation
chemotherapy
kim
2010;
beta
accoun
considerable
mv
compact
ko
##sim
##)2
##)/
##fully
consisting
isolation
sometimes
crystal
2.0
november
##asi
##ho
phenomenon
##urally
é
##itt
approved
##mean
fabric
##ogram
answer
perhaps
scattering
narrow
alb
##uv
2(
participation
transient
opin
tube
##atus
tc
ball
english
4.3
nov
mild
##tration
psychological
ped
##sin
2003;
##acet
predictive
want
client
chromosome
neighb
Δ
2006
hemat
hepat
##force
##oto
grown
(8)
purified
ges
retur
2007).
isolates
[7]
##usive
##dc
##inite
**
morphology
pyr
son
##−2
##83
ls
multiv
neither
##tition
##7),
validity
mos
2006).
switch
##bound
underst
org
attributed
##ulture
believe
ranging
mediated
associations
tb
native
##tid
road
##5-
obesity
##kr
##/-
depic
##ema
##work
popular
sor
gate
cool
promote
scan
##8),
##=0.
multic
einer
sensing
million
blot
##.1.
implant
missing
lesion
nur
conjug
surpr
away
##urance
12,
hypothe
##ref
mind
##lie
satisfy
pixel
concerns
durch
encour
##tures
2008).
##ischen
⊗
##apse
experiences
concerning
discovery
##sec
reasonable
twice
calif
hot
ice
supports
respective
##burg
pel
##54
##ui
##ecting
2005).
histor
defects
principles
∧
rep
diagnosed
overe
string
explanation
melan
ht
cum
tolerance
deb
tnf
##idal
##aci
serve
articles
visible
##inv
##oxy
##hm
notion
##–4
##ened
semi
peaks
anxiety
centrif
ign
##imer
usage
.2
mobility
coordinates
uns
extend
reviewed
directions
cb
dip
physics
mutants
pneum
educational
wood
performing
esc
##obacter
##ille
##oded
extremely
topology
membranes
##terminal
former
lett
stochastic
##range
##ita
20.
documents
affects
tu
##/0
mart
##hern
uc
bands
infras
spontaneous
emphas
endogenous
##72
concern
facilitate
dysfunction
mb
expressions
(9)
teaching
recognized
##cribed
[8]
##onia
replic
brown
adip
va
1−
radical
##wave
##ectivity
loading
##92
specification
transferred
canada
ethanol
developmental
##ging
scheduling
irradi
2011;
Λ
##rer
thromb
##what
nom
liu
compression
maternal
sharing
tan
neuronal
synthetic
∩
##ungs
mri
2009).
2005
∀
##tw
##oks
##ously
mim
option
overex
weighted
branch
##ei
2002;
spectroscop
peer
fp
##tc
ligand
sand
inequality
ef
##ski
symmetric
2004).
timing
replication
enable
nucleus
##ortic
##abs
##ien
##ontin
adequate
##9),
potenti
rc
precise
atoms
tract
##ção
##treat
influenced
##ystems
objectives
flat
##pty
suppress
cholesterol
##binding
sar
##bridge
fatty
healthcare
proportional
decay
favor
postoperative
4)
necessarily
##(0)
##journal
depos
emotional
bor
underw
cataly
##________
##rin
canc
##ifer
##atitis
signs
piec
combining
aged
prelim
automatic
imag
live
wur
##,1
portion
dro
zur
para
##+1)
february
##’,
targeted
hat
heavy
overview
[2].
##ordance
##derived
##elled
##iding
##56
perfect
##fc
listed
dl
##heses
inhibited
ana
hipp
##idge
##bb
##81
##analysis
electroph
funding
##forward
##ror
altered
qualitative
generating
##iance
##dd
assembly
##part
mesh
##alia
##cessive
pil
vas
enab
preliminary
bin
appearance
plastic
##nel
competition
investment
##udinal
dy
cytoplas
infants
satisfies
ban
route
phosphate
pn
languages
diverse
2010).
nicht
https
##ya
cortical
##isp
secretion
1;
##ornia
feasible
excess
understood
2003).
ck
lattice
fine
≡
##ava
underwent
##ester
[9]
##jection
##82
##ondon
communications
##aine
possess
anesthe
##tri
##iger
enhancement
turb
⊆
calibration
##71
detector
crystall
##agonal
book
oct
##.2)
remove
cond
11,
minimize
##gly
participant
nod
nh
##bn
retrieval
peptides
reactive
processed
contract
mhz
options
combinations
antagon
sea
failed
approximate
centers
sperm
̄
bench
composite
2001;
spinal
prostate
##−1,
tion
inhibitory
disper
distances
##ritis
integer
travel
respondents
ger
extracellular
[0,
obst
##tained
##wards
##unk
##versely
∪
evolutionary
##fall
cro
pu
oxidation
##amic
symmetry
shock
##inflamm
##sr
remote
valu
cultural
elect
ultim
revised
##lets
##ards
##ophag
cold
packets
electrode
india
longit
superv
briefly
consent
##outh
reag
hous
outer
##ensive
##ochemistry
lost
oxide
terminal
placebo
à
##reme
clar
##tem
##dri
vitamin
##tl
##eck
2000;
195
##ectomy
domin
artificial
exception
separately
fluor
west
##ocamp
2002).
##lectric
centrifug
controlling
replaced
promising
##oglob
2004
produces
conceptual
##gd
##ike
(10)
-1
##ulty
learn
1),
plos
##fit
##path
##osin
##ellar
topic
excellent
gc
companies
quantity
##02
##hyth
became
63
ih
##91
earth
risks
occurring
satisfaction
plates
##oked
##9%
california
##isa
institutional
directed
abundance
utilized
##ensor
rhe
##(3)
license
ib
##amb
##gers
fragments
contributed
flows
predictions
cerebral
react
epis
prices
##etric
recruit
2012;
reconstruc
restriction
##mc
(0,
sf
spaces
dp
format
capability
instructions
segmentation
started
slope
##top
volum
pixels
lact
evol
[3].
ei
##eled
plots
evaluating
smart
##uristic
250
equipment
##.[
innovation
hd
france
null
frames
iteration
arc
##oul
15,
1%
##oney
##wer
##etry
myel
haem
consec
df
ny
adhesion
##ahl
##ience
injected
ki
analysed
projection
professional
##vered
views
repeat
##nes
indices
##akes
derivatives
perme
##was
##dered
##aven
safe
permission
partners
bulk
encoun
##oplas
##step
##izer
alignment
ja
##gfr
affinity
##és
informed
mich
##ught
induces
elastic
unlike
##ires
##porter
distor
mand
##vance
##**
essentially
3:
convex
Þ
##cons
coordinate
representations
moun
utilization
guide
scaling
preced
regen
ethn
dietary
dram
recommendations
##han
opposite
hop
movements
≈
##6–
##ogenetic
⊂
##sitive
continue
prospective
accompan
waste
##yer
auch
85
dog
continued
him
##bon
kept
##anned
prolong
morphological
foot
2011).
illness
rb
collagen
evident
.5
hf
igg
myocardial
extracts
refr
automatically
washing
raw
nine
doub
solar
hall
egg
losses
##plete
editor
bc
equally
copy
driven
consensus
##appro
[10]
setup
##keletal
##pre
lv
knock
decline
##assi
clock
ifn
predominant
span
comparative
5.2
##ropy
organizations
transitions
barrier
##iber
probabilities
reporting
##orient
##esian
pediatric
targeting
##treatment
acous
discharge
##3:
nanoparticles
wound
ventricular
sind
acknowledgments
vacu
##4–
immediate
##3/
mag
offers
concluded
bits
2001).
primers
genotype
alloc
##za
shorter
[4].
tp
##from
5.1
clon
symb
disk
legal
##values
##department
hippocamp
##dec
feeding
metrics
datasets
spectrom
difficulty
greatly
bs
##aired
arab
2000).
fetal
##idden
gave
##ulative
##chen
sel
##ala
##alities
##opsy
variant
##xx
derive
##public
reproduction
besides
smith
hb
heterogeneous
haz
aj
var
kore
preference
enables
improvements
##athe
arterial
##cing
drive
acts
##1016/
##mia
##inflammatory
##)).
conserved
##acial
anth
salt
definitions
modules
##non
kon
yeast
covered
indicators
expressing
vaccine
##rot
discrim
queries
returns
derm
bd
rural
flexible
choos
ou
river
longitudinal
tn
attribute
macrophages
##rene
##ulates
fif
transplantation
nons
fewer
wet
waves
stack
##rical
##war
##rogen
consisted
lap
rus
scanning
conditional
lp
paradig
pump
excitation
comes
constants
##activation
68
##journals
zn
.3
imped
##page
##methyl
##opathy
4.5
##flu
##ault
impaired
collis
##ozy
enrol
sufficiently
infrastructure
micros
##wt
ee
ker
##mental
nloaded
20,
##mol
rg
##.3)
##tious
66
##dominal
prost
sav
##weight
rain
clean
12.
antioxid
saline
precurs
##ja
nk
degen
today
connections
##ading
##ulum
trop
pin
compati
scope
interfaces
##pressive
##onym
efficiently
supern
##′)
rp
transformed
matched
transcript
62
##idi
stronger
union
##ira
aggregation
allele
deposition
eb
london
pathology
optimized
##grade
5).
creative
2013;
##ago
##tery
intrinsic
##ceptions
hormone
surrounding
regardless
##essor
released
##itary
clinically
94
aber
##onom
heterogeneity
tetr
##03
fibers
actin
organized
retros
consistency
antim
subjected
(100
modeled
##ondition
##:5
macro
surprising
##vial
modelling
##mem
physicians
positively
##′,
##pase
derivative
##osity
##ono
substrates
ure
cytokines
summarized
vulner
solvent
##hu
indicator
##amy
regulated
##ione
recombinant
explicitly
files
overlap
[11]
##sn
fourth
tip
##aki
́
1(
tab
manual
writing
##tra
hepatic
trained
##det
[5].
##ologists
ranges
acm
scho
mu
dn
(11)
##rought
##acer
clinic
biochemical
benchmark
cdna
institutions
##dehy
solved
corp
[1,
held
dors
##heric
relevance
interpreted
expert
faculty
defic
sequential
instruments
§
leak
routine
##henyl
hydroph
braz
lot
stere
normally
customer
gastric
##oprotein
assignment
australia
##tention
donor
competing
capabilities
processor
##illed
^
counts
theories
##typ
##operation
replacement
entit
luc
##anth
distr
accurately
##unately
transactions
feel
operational
syst
intu
driving
##oo
reviews
explored
ry
picture
satisfied
medication
##8–
chains
resol
interested
cord
transmitted
##otropic
##db
awa
assistance
heuristic
1999;
##ership
##rench
logistic
cathe
persons
consecutive
##isely
runs
##ptive
67
synthesized
14,
sensory
##ette
##ipped
##istrib
dut
##size
elder
creating
##enter
valuable
limitation
requests
took
##.),
opportunity
kinds
##dh
recurrence
##olds
bund
suppression
giving
dead
ru
##ony
filters
wiley
downstream
throughput
##oke
sole
tang
hos
usual
impairment
trajectory
cleav
plasmid
##je
preferred
sugges
##osomes
chip
acces
verify
inters
fracture
ideas
invariant
conservation
geometric
##9],
##inder
.4
##life
multim
traits
##plicity
96
productivity
fluctu
6-
initiation
##df
dar
cytos
primer
##uli
##ques
drawn
collaboration
##respon
gab
coordination
##atch
deple
generic
##04
cx
##lated
kar
##anese
##hentic
finger
applicable
pref
.00
[6].
emergency
deficiency
compil
cis
complicated
aims
illustrate
hypox
chi
dend
##1],
tumour
##kb
films
extreme
economy
stained
accordingly
producing
##itin
intestinal
##igation
##bes
susceptibility
train
milk
##len
yang
##rp
lists
hour
worth
##urations
2012).
##00,
boundaries
beneficial
tio
downloaded
[12]
cub
databases
bip
thread
##itig
latency
##reness
##yth
##comm
deletion
##eh
delayed
amplification
##ellite
wir
defect
77
chamber
marginal
fro
(95%
##agement
##.11
lens
(12)
template
hospit
entropy
##haus
atomic
dispersion
bmi
monit
homogeneous
increasingly
investigations
notation
anne
somewhat
aimed
##osomal
2018
ζ
quickly
##adder
##mt
##ulties
##ozyg
##.5)
demonstrates
elsevier
13,
cultiv
polyp
cytotox
overcome
rom
cache
cad
comments
columns
motivation
admission
##ostic
circuits
willi
king
psychology
##then
##bro
coinc
1.4
store
##elec
opportunities
20%
package
1.3
currents
##queous
ith
priority
##after
lt
[7].
##acturing
displacement
biomass
exponential
##inn
hierarchical
##137
obser
foreign
neon
pla
1998;
trigger
ubiqu
biomed
neurosci
modifications
transcriptional
cavity
cerv
bac
regime
advance
adjustment
fractions
localized
##ophys
carrier
##poin
periodic
surge
mining
locally
biomark
resistant
bow
hg
##eds
xx
relaxation
freed
bounds
distal
##defined
##gfp
##van
teachers
##.).
100%
reasoning
impos
affecting
2003
organisms
##ancies
burden
meeting
cyp
##ergies
##ische
thesis
##orrh
(1,
##ynt
diabetic
##9/
occl
emerging
roots
##gue
für
filtering
xn
african
##requency
61
africa
##hma
##cre
bad
cation
prev
competitive
documented
##.9
scr
suspension
...,
##.4)
##sol
conform
notes
##uity
precisely
##lecular
accordance
##illing
mature
monitored
##])
##iner
oce
preferences
office
##ellen
##produc
17.
multivariate
rod
implicit
##body
unclear
##51
refers
##structure
ranged
0:
attacks
##add
overhead
##ulatory
sessions
dab
provision
elic
tet
asc
##inte
southern
vessels
##onin
##.10
74
##du
powerful
augment
defining
##azole
insight
universal
agricultural
##ota
illustrates
##actory
##scs
∣∣
impacts
##onch
cha
fitness
ji
participate
##tors
creation
brazil
ft
colleag
##night
generator
intensive
reflected
##-(
publish
4.4
aging
cros
attached
passive
aqueous
correctly
authentic
##-12
##adj
oder
##uple
consumer
.7
rect
park
##asp
orthog
hex
secret
cancers
##incl
tg
##atr
[8].
behind
arrow
galax
intended
##nl
seconds
##opic
##adic
elderly
maintaining
##odynamic
##print
signature
##ologous
newly
##helium
providers
##mr
##atur
asthma
##stage
margin
##58
tf
##--------
angles
##⁄2
##tg
69
##rimin
atom
polarization
alterations
nuclei
sampled
##yal
##iliar
##lag
conformation
##xn
rv
difficulties
interpol
dental
neighborhood
##perf
hydr
##gel
automated
residue
##onucle
##............
hospitals
[13]
abdominal
##hg
spectroscopy
##oli
neuron
##2],
##thern
##hum
##usc
acceptable
##del
embryos
professor
substantially
##cam
##bilities
##oming
influences
mixing
16,
verte
insertion
##eller
##aceu
ultrasound
kne
characterize
##1/2
east
tight
insuff
outputs
recording
##,"
##zero
manufacturer
describing
##ogens
amy
semantics
manifest
varies
challenging
interfer
inherent
nursing
##ocar
aqu
employment
microscope
bri
subsc
sediment
##iling
visualization
chromatography
discrimin
attempts
lev
assessing
penetr
markets
ah
##achment
##irable
##bac
season
enterpr
facilities
speci
gir
##supplement
nitr
##dehyde
helpful
aid
properly
vesic
cox
som
importantly
urine
##pler
morb
whom
invasive
malignant
coc
proven
##cents
wu
stay
......
yes
98
trauma
supernat
radial
abnormalities
merg
prin
unfort
causing
infusion
gut
1999).
undergo
##opl
##tron
hund
manufacturing
bov
wird
##totic
copies
biopsy
candidates
analyzing
.8
##usi
jr
78
reader
##patient
reh
fibrobl
eyes
shear
validated
##resist
fract
structured
machines
##enty
marrow
##keit
##sing
send
2014;
84
orb
metall
##istration
judg
mineral
##edia
kb
[9].
1997;
northern
commons
quar
generates
ray
inoc
probes
infinite
updated
##ames
##ora
formul
choices
schools
patch
counc
##anger
##ima
awareness
master
##ower
##aut
nucleotide
phone
##book
nn
##ito
connectivity
protective
constructs
incident
inference
##."
.6
##tization
perman
##iliary
colleagues
yu
##infected
fold
flexibility
america
10-
cg
phd
##eta
(13)
email
##ief
microbial
bring
##.2.
105
neck
##called
unless
##ilton
arise
neph
cohe
requiring
vag
discontin
intact
constitu
mad
##activated
##sam
##iro
sds
##oriented
organizational
recurrent
[14]
socio
##aper
fc
##7/
placement
swed
hm
cervical
demographic
agon
##lan
federal
##wan
proximal
##olip
reflects
2013).
pancreatic
##usp
discussions
2008,
italy
triple
schiz
gon
captured
designs
##.5%
substitution
adapted
kinetic
retention
hidden
coroll
symbols
600
##08
##clin
classifier
athe
optimum
reproductive
wie
##ola
21.
unter
locus
gall
lifetime
emissions
##iotics
hydroly
##psych
advances
##iversity
infec
threat
rice
lex
regulate
ecos
shr
2002
angular
accompl
concurrent
configurations
##such
##06
domestic
viewed
historical
averaged
##52
going
redund
##bu
dh
empty
laborator
##wi
##ige
infil
rub
harv
fuel
gray
adolescents
integrity
##nk
interactive
##ivered
##auge
##ander
73
##zt
(%)
urinary
flav
circulation
nad
readily
##uries
chol
##asm
ovari
##ycl
aggregate
obviously
[10].
concerned
improves
eventually
##erative
bill
76
##@@@@
agency
##itone
13.
sinus
1998).
##pk
##acchar
2010,
(20
ontology
##ynthesis
##arget
##loid
.9
##(1,
proton
##dy
##optim
2009,
consistently
hypotheses
##′′
recruitment
##.1,
hip
thyroid
##rep
##emble
cytokine
lib
decades
instruction
univ
instant
##icro
things
eryth
functioning
promin
stimulated
arguments
detecting
##unic
##aceutical
cyl
methylation
consult
une
##+)
##card
win
##enh
gy
0.25
∥
##aka
casc
stationary
dimensional
terr
econom
persistent
##month
##frequency
ect
anova
ay
densities
##squ
arrang
fourier
manager
aux
##gent
unfortunately
caps
occas
ocean
lps
##func
bodies
†
##using
(50
kle
88
4:
2007,
##economic
##hydr
privacy
##ohist
phenomena
bon
##oa
##ophy
##roscopic
intelligence
mw
cumulative
histological
verified
##plicate
branc
considerably
drink
##oidal
verification
##ipl
##stable
gn
resection
univer
hundred
offered
##alk
reveals
fruit
))
##ional
transgenic
subjective
webs
hair
math
diges
freedom
##erge
##rele
##plc
##59
absorb
##formed
∇
council
quantities
stret
excit
venti
##∣∣
cambridge
5)
##restim
electrom
tgf
##tub
##hor
depicted
corollary
quantification
invasion
##ami
contex
##anz
satisfying
fluorescent
spr
guest
97
customers
##otal
schedule
##mn
##ios
dimin
paradigm
incorporated
##07
invent
vehicles
##amination
entities
defines
conserv
fire
2001
logical
lr
##alog
artif
agree
delivered
##rete
Å
submitted
visit
acoustic
##uis
younger
negatively
bol
circular
nacl
##–10
##illance
viruses
physician
dd
symptom
determines
##gens
000
prolonged
##this
##ercul
##onomy
5.3
predictor
##kn
encr
doing
naturally
##rected
absent
##=2
##ropath
energies
2011,
##apor
##containing
worksh
##risk
fitting
reserv
rst
bars
fulf
1996;
##oted
##points
consumers
viability
2006,
myc
##0.01
##prot
##ime
##atum
##has
completion
adsorption
##itudes
calls
unre
auc
[15]
metastasis
##ohy
sant
ppm
##icated
110
##prin
##icians
##-,
##iders
paul
##fam
insights
##3],
gar
neutroph
stiff
progressive
##+,
##likely
ecological
##.5,
immunohist
glyc
credit
##open
recover
kinetics
spot
##fir
apart
##otr
estimating
##uated
copper
(14)
##tm
bleeding
shifts
##pet
johns
converted
##eren
14.
limiting
causal
alkal
##aken
cited
volati
##illin
##cutaneous
presum
##veness
laboratories
prognosis
##10,
hind
discrimination
##otypic
overexpression
plasm
curv
looking
childhood
##phone
##osome
gram
catalyst
muscles
twenty
2005,
18,
forming
electrodes
handle
subunit
highlight
ui
##onti
##onsist
lies
secure
comprom
##/201
volumes
[11].
##mar
##cap
singular
0.02
79
##pted
##reci
heating
##ishes
purchased
##qi
83
##otion
publications
##opes
##heres
studying
87
orthogonal
abuse
##ylated
games
organs
cast
try
genetics
##adian
blind
subsets
##draw
nervous
probabil
orders
##high
##that
##cious
complementary
marine
scienti
sb
yi
soluble
##exist
entity
##0.5
vl
##independent
recovered
fluctuations
##plex
crop
springer
strictly
uniformly
dense
cow
ethics
##4/
##har
progen
considerations
focal
ongoing
race
demands
facility
sentence
pathological
reflection
rely
17,
reality
fs
##present
iterations
contributes
lag
strati
##ewise
##(4)
##arest
crow
tris
fisher
snr
endocr
##ask
realistic
##itance
##’.
names
synaptic
retro
scene
constrained
lengths
programme
plotted
##oder
##aylor
infectious
tension
starts
vessel
##enza
nutrition
sud
academ
continuously
##meas
potentials
straightforward
##omycin
insurance
surveys
isot
ethical
##gp
surveillance
dissolved
prototype
interviews
saturation
intraven
tam
unable
##onical
functionality
pilot
compliance
players
facial
raised
##sig
##wood
##09
gang
destination
lingu
##inol
warm
##itus
manage
##cu
serial
quantified
##herlands
[12].
##ael
##7-
##protein
##ere
loci
##rn
silicon
##empor
##mill
##mes
versions
court
please
##unced
+/-
standardized
polymerase
15.
transaction
ik
mammalian
##urable
71
prognostic
93
infarc
(15)
##ucl
unlikely
obtaining
performs
impedance
bayesian
1990
rehabil
##gluc
closer
yellow
##echnology
ghz
##:4
mathematics
aortic
##iers
##gene
labeling
bronch
guidance
dv
wol
##hard
##making
antimicro
hamilton
contexts
thi
2012,
robustness
searc
##ram
mothers
overnight
experts
1997).
##ishing
pathogenesis
##atz
##ashion
argue
##okine
undergoing
strept
##olym
contrary
caro
ae
netherlands
86
circumst
elevation
##partic
106
fax
30,
mf
compensation
##troph
ordered
##labeled
unters
antioxidant
texture
##reduc
##inate
chest
##cg
endoscop
##icular
bilateral
92
experimentally
diagonal
fibrosis
##vation
##sip
examining
beliefs
epile
82
transfected
learned
knee
vot
imply
##sche
ages
initiated
[16]
ultimately
regarded
barriers
##dna
bovine
ud
##pin
##sten
##ulose
physiol
indian
default
momentum
##4],
handling
blocking
sparse
outl
##500
##word
exclusion
cry
##fil
##bel
catalytic
realized
ǫ
schizoph
pharmaceutical
topics
dissoci
##ococc
mj
disclos
deviations
truth
##orous
##right
fati
##ucid
plans
predictors
retrospective
island
instability
relig
rl
##acting
89
pick
Ψ
##rocytes
neglig
ellip
##case
reward
21,
player
queue
protected
skeletal
[30
supplemented
acs
gauge
22.
cyclic
expectations
collaborative
bot
monot
##omething
conflicts
accounts
sj
diffr
2004,
##omorphic
##including
##3(
technological
##sign
nutrient
deformation
1995;
ans
##cir
##cha
coast
td
##-1)
focusing
choosing
##110
##inement
bic
fashion
limb
encryp
inconsist
seiz
familiar
anomal
##rosine
nurses
guarantee
ovarian
aspir
mcc
attitudes
employees
covariance
vein
photo
gamma
named
bab
##hene
jac
##oman
predicting
##etary
charged
##tish
##brevi
platelet
##driven
##tification
sustained
crypt
discovered
intel
corrected
##bas
substance
qi
subtr
comment
labels
figs
##||
##ación
##vin
morbidity
accompanied
century
rock
##dem
##itter
##alling
ku
nit
##nis
##.00
##agged
iterative
precipitation
##hom
aware
therapies
nj
focuses
##bh
mann
music
##ials
publis
multipl
##model
potent
(−
elucid
quasi
##idel
citation
##ona
2008.
faces
satellite
irradiation
##oot
##osh
concentrated
lg
##house
##1371/
##bles
dorsal
belief
han
ambig
fear
anticip
civ
##.200
##actin
##omers
retinal
operate
markov
##uss
genotypes
##orbed
probabilistic
10.10
ligands
##omorphism
##nh
sharp
abundant
tac
##akers
[13].
selecting
tomography
bright
##gestion
##asive
phylogenetic
graft
##ensis
exploration
##4:
landsc
6).
sigma
poorly
hierarchy
schw
worse
gross
acceler
schizophren
##aped
tx
ends
pseudo
##renal
discrep
bh
trunc
catheter
81
##yi
hydrox
bonds
antibiotic
30.
putative
ug
180
rheum
transpa
hepatitis
cleavage
##opsis
something
recognize
##rad
forecast
##las
helps
##imination
##.2,
(196
entries
permits
2009.
emotion
protect
interconn
##olytic
##elfare
expanded
filtered
##advant
##regular
cereb
corpus
##acle
##isti
##artments
##text
ks
simplicity
2007.
19,
vill
tes
##chlor
##ifiers
philos
##amate
franc
transcripts
##afts
ran
chance
##map
arrest
##isch
##oglobin
Π
##aint
deter
(1−
trajectories
25.
battery
##∗(
##gov
hl
7.4
purs
##syn
2010.
clones
hill
inher
##pf
##eto
arrays
80%
fixation
gains
valve
tubercul
harmonic
scalar
91
profit
neurological
gradually
##ming
roughly
([
##-2-
gfp
[17]
1.6
nanos
dg
believed
##length
ambi
2014).
##ectin
acting
adver
closure
##uited
jm
rabbit
alt
##ourse
blocked
vacuum
dot
30%
deut
oriented
welfare
##8-
strategic
##array
wavelet
2003,
2006.
##lices
(2.1
##0/
##ocom
##ographical
abbrevi
cooling
opinion
presenting
##′(
##...,
linguistic
##)),
resolved
##ocial
injuries
##lings
phon
fd
##enses
drain
##uing
inserted
whenever
conce
2005.
##mb
korea
permanent
offset
##orth
##-200
##ulence
##-1-
##pen
##,,
##orec
parental
metastatic
erg
metabolites
opt
rip
impossible
restrictions
smallest
16.
1]
pup
##cation
1999
spher
tendency
partner
##tified
##week
amplified
##rared
##immun
##loop
greatest
thir
##rophic
alleles
##ograms
depletion
hole
##oxyl
achieving
addresses
japanese
##eme
##km
displays
##teen
exhibits
fet
lacking
[14].
biof
##zh
##eptide
quadratic
##resistant
immunity
mitochondria
eur
anatom
##ifies
ok
##spring
photon
##bur
dispers
##",
impul
spent
seeds
nano
(0)
(16)
worst
evid
extensively
cooperative
cues
necrosis
mapped
incomplete
##-15
encoded
5:
22,
90%
##rew
fn
antimicrobial
##−1(
applies
##annel
tensor
executed
characters
converter
concrete
##zes
cpu
bt
1996).
ace
calculating
laws
expensive
adm
diluted
disadvant
acceptance
##tail
intersection
washington
eliminate
cooperation
penal
revision
estimator
windows
mutual
##processing
inhibits
acceleration
grain
##ococcus
fas
relay
((
synchronization
##auf
lymphocytes
upstream
25,
untreated
##obs
easier
splic
caspase
##while
places
##cks
##avail
sap
23.
##cher
##ey
##7:
fatigue
claims
24,
manipulation
ammon
practition
adopt
##perform
deaths
jo
##idin
##rr
sul
##room
originally
transformations
##enden
##oni
##md
##ados
david
geomet
ˆ
##auer
hazard
##venue
compatible
##unte
##eur
additive
goes
##world
##resolution
detectable
pathogen
german
prominent
##.01
##rency
statements
waters
commission
gli
%)
wit
##mitt
winter
swe
antibiotics
equipped
##ovirus
##+1,
1–
##pred
phr
accounting
||
2015;
2),
enrich
prime
##win
2004.
##aden
##riched
economics
appreci
gs
envelop
disability
ment
##gered
##pv
began
psychiatric
served
controll
##)=
##ogly
thorac
##hydroxy
news
ordering
ity
mitig
introducing
anis
##xk
7.5
##/$
letters
##linked
##ificant
elig
symp
photos
habitat
##tin
equivalence
##pn
clients
carrying
##,2
permit
alex
withdraw
electrons
lept
##erman
auditory
musc
conductivity
##arian
##ashi
mell
##sectional
expend
##6],
williams
yielded
0.000
implementing
##lux
acetate
##sur
treating
bladder
belonging
##aryn
lake
colour
alternatively
moist
canonical
##domain
hybridization
24.
igf
zinc
border
lith
summer
##-20
personality
##.15
desirable
sides
contrac
discipl
party
ischemia
##through
ambient
##anial
##intestinal
##-201
##ohydr
disturbance
##aten
##beit
##transfer
ischemic
bid
##iffiffiffiff
##++
##ferenti
##<0.0
voc
thym
##plane
##selec
taylor
entirely
audio
registration
exogenous
methanol
##:3
##roscl
stars
rarely
##5],
[18]
torque
##gm
pj
hypothesized
predominantly
peri
satur
asymptotic
replace
##anine
interle
##tized
quantify
recombination
0.03
kh
attachment
,,
##atase
ras
genus
##ql
designing
[15].
##oclonal
rectang
infant
reaching
dilution
(17)
managers
meaningful
##kh
simplified
978
tryp
dried
##oresis
cortic
##ulsion
curvature
thinking
vegf
returned
susceptible
##romatic
kda
filled
2000,
trait
02
##.12
##/3
##glut
##vo
##ods
//
loaded
##ryst
(2005)
##pread
(2006)
##angi
1994;
monol
##dif
unch
##atry
##.(
1.8
##sour
##orectal
pore
negligible
##siveness
##)}
scler
hearing
pneumonia
publishing
##hex
fox
xu
defense
2013,
##controlled
##aga
universit
##itely
##ymmet
23,
atmospheric
##anner
hsp
##istribution
##factor
soon
rehabilitation
sac
##chemical
rpm
medial
grap
moves
2002,
demonstrating
combine
##4+
125
perspec
sure
xen
paired
1998
##comput
##bec
circle
aw
##ny
reform
opening
distortion
volunte
dj
axial
rhyth
##tise
104
chic
precursor
−0.
keeping
pulses
##pon
monte
carefully
##auc
##dose
deterministic
emphasis
workshop
collision
letter
fertil
##wal
hoc
frontal
##01,
##ologist
##ommod
##usively
computers
nos
attractive
2003.
##ende
elimination
lapa
budget
gew
##idae
dex
##otides
becoming
orbit
venous
##rc
expendit
membership
bj
vital
reaches
2%
##rous
##)+
##vic
supers
infarction
##recip
3.0
scaff
##ua
##idespread
gle
render
##oz
(12
##inator
circulating
gib
partly
argued
##iton
##osterone
tai
##apol
veter
mism
reads
##version
benz
##plo
condens
kal
dogs
2011.
anch
##arith
##num
managed
physiology
branches
households
(2007)
conversely
latent
##mul
##ela
posi
##vae
(2008)
hit
##kle
shell
asser
undert
money
enl
mex
widespread
##loc
8-
##isson
delays
modify
tends
0.04
banks
atmosphere
mere
##oir
command
influenza
##rane
masses
##/~
##bf
leave
coch
dent
##core
firstly
##ru
really
chloride
provider
gland
academy
##ele
##pone
style
##itant
walking
##pecific
thresholds
##ressed
tot
slot
chick
atheroscl
##mut
##osine
adoption
jun
professionals
##clinical
descript
odds
intention
flag
airway
vegetation
johnson
##ophila
##mentioned
dans
circumstances
wel
##isen
harves
feasibility
(2004)
martin
##(1−
##7],
128
accommod
##obil
teacher
##bacco
ratings
monoclonal
(18)
5.4
clearance
10−
##0000
##osal
##iry
##soft
recruited
specify
coating
adherence
pathogens
tuberculosis
shad
overlapping
[16].
died
##1.0
thorough
##lichen
##.13
(2009)
arthritis
##benz
voice
elong
1995).
illum
##pressing
covers
expectation
driver
flood
preventing
workload
##11,
elsewhere
stiffness
##she
peroxid
##forcement
night
eti
perspectives
republic
arrival
diese
processors
##ena
register
ministry
servers
thanks
##-17
##rm
2000.
##umar
5.5
wurde
albumin
0;
specifications
neighbors
activate
cytoplasmic
verb
dominated
dye
lb
schizophrenia
thomas
british
birds
polymorphism
discover
worldwide
epiderm
covering
##prop
nominal
unstable
transportation
prono
cooper
intelligent
cot
##relation
leukemia
bases
2002.
##pend
abb
pointed
cris
##–6
##oon
##only
[19]
grants
provin
assessments
healing
mk
notably
attribution
##tur
##pop
spain
topological
Θ
embryonic
born
autophag
##sigma
hope
##html
leakage
##layer
##retion
regeneration
[2,
contrad
##arth
brought
ich
##entia
belongs
tubes
##uclear
(2003)
##iden
sentences
3(
##abe
agriculture
##ritic
kv
tobacco
suppressed
simulate
##brane
ranking
##board
##tn
maximize
##otes
shapes
sep
##jk
##employ
2012.
##12,
oph
##ostasis
confound
##nen
##assium
visits
hypoxia
pronounced
permeability
rewr
pear
stake
2001,
permut
indication
intravenous
##itoneal
diffuse
##stim
nak
##inson
##eman
26.
##cription
collect
preserv
differentiated
violence
tyrosine
##supplementary
##<0.00
trim
-2
passed
800
victim
specimen
18.
jobs
##oline
alternatives
##:2
##300
pad
##illus
gb
larvae
##ozygous
responsibility
silver
##psy
mé
coal
##ativity
purification
##rip
apparently
##opy
0.05).
descriptions
accessible
chromatin
tib
residents
negoti
implicated
evaluations
kur
uniqu
##dig
##omon
rigid
##opo
junction
##ophage
decided
##being
ask
uter
associate
zw
##.3,
##ahr
turns
biomedical
##acs
ric
contamin
linearly
excessive
dé
calibr
alg
##pot
##kinson
sten
linkage
contraction
hla
coherent
##doc
##ias
lec
metals
neonatal
chemicals
dir
issn
navigation
acta
perturbation
possibilities
##uchi
lumin
planar
loads
tlr
preoperative
##expected
aligned
goods
homogen
##holders
crystals
serves
nearest
eeg
geographic
immunos
tell
contributing
decade
dw
normalization
shel
utilizing
medications
murine
##icillin
emerged
title
failures
##‖2
cys
dissem
##block
contro
asymmetric
perfusion
searching
flight
spherical
follic
1/2
merc
actu
zi
##illa
accounted
bern
hil
##ör
bn
##.3%
##cale
breath
tcp
balanced
6)
motif
##pdf
cart
aper
contamination
##-2,
(2010)
squares
##oxin
melanoma
substances
removing
colony
vaccination
transverse
ineff
dielectric
integrating
funded
##nam
##::
fitted
fractures
##static
[17].
asian
##user
##target
wheat
colorectal
−→
grand
markedly
nond
##heim
##jo
grass
0.15
pour
bridge
hemorrh
##((
hapl
viable
⋅
##.14
inferior
phenotypes
1993;
ethyl
bcl
hcv
vibr
insufficient
architectures
sphere
differs
##–12
surviv
analogous
##elli
perceptions
##ript
##-13
decide
4.0
aggressive
massive
grate
retrieved
ips
promotes
##tral
stations
java
##kel
sirna
scans
extending
##ancer
huang
wider
soph
##sensitive
##hab
relies
unchanged
convenient
vp
mission
breeding
certainly
3.1.
28.
odd
##ocytosis
tk
autonom
fec
analytic
zones
cant
##amer
##tree
##ersen
obese
binds
spine
⊕
##odal
##6:
tv
(2001)
##grow
2001.
##versal
og
moder
##thing
##jug
ultra
##+2
fellow
##ieh
antigens
embedding
approval
schol
gps
##rend
interrup
##aled
exhaus
##oflu
##deficient
occlusion
mini
potassium
##itol
exem
##immune
##zz
##valu
participated
scar
investigating
atrial
##bach
40%
optimize
##fm
comorb
loops
michael
##energy
woman
robots
##/6
rk
supernatant
hyd
bub
##sum
percept
##bank
##sv
27.
drinking
biomarkers
registered
##wes
0.05)
retained
observer
##bled
stom
hub
organism
##aceae
dynamical
kir
equality
ken
malaria
slowly
algebraic
sales
interacting
anonym
receives
pall
##8],
couns
congen
(3.1
saw
##jected
divergence
6.2
incorporation
fibroblasts
##vity
protease
counting
blast
dependency
regulating
sple
eigenvalues
cj
modular
contacts
disruption
willing
simil
dich
french
dros
facts
arising
generalization
reductions
tuning
considers
elisa
answers
mmp
##:1
##human
solub
←
##rophy
floor
supra
traces
dust
promoting
##chi
##ao
royal
kd
agar
##paramet
eastern
psychiatry
continues
##itated
una
diffraction
checked
distinction
disj
unde
##arged
natl
##self
crack
̃
2.1.
##born
ix
cns
##uvant
##asty
contour
wish
bif
exclusively
constitute
salmon
−2
assumes
hong
##steine
kann
rup
##ln
##actor
remod
sort
benign
##erent
strom
##two
individually
##±0.
##azine
solely
snps
##ilities
##types
##bus
##ville
regulates
lh
axi
##ario
descriptive
employing
maturation
tap
lipids
enrolled
140
correlate
##metic
##integr
ecology
hon
hydrophobic
##-11
grav
enabled
arises
##div
ws
[18].
sons
neighboring
dedicated
(19)
##.16
##cipl
ange
checking
moved
rows
parties
tin
dementia
##xj
(15
anthrop
egfr
corne
electrophoresis
##hydrogen
suic
courses
collective
bb
(2002)
##lt
6:
sg
amp
oxford
interpolation
wire
differed
2014,
##rex
##.3.
##published
pregnant
##tir
##rences
##drich
##bin
came
##usting
##ench
manually
pollution
ago
dan
##local
##ät
##ymal
song
emergence
##ysiology
bos
encountered
consumed
logarith
commitment
##olysis
accessed
##dynam
stir
##atit
creates
dealing
2013.
participating
[20]
seek
civil
##ér
erk
##fron
##inen
jet
transfection
##idopsis
akt
highlighted
0.0001
inventory
##→∞
conservative
rj
strengthen
pw
##(−
landscape
(1).
##hle
ned
appar
##list
einem
##mentation
favorable
spir
harvested
mh
chromosomes
∅
1.7
friends
streams
lane
falls
sympos
christ
chose
teams
##vable
formulas
##owski
sulfate
sugar
19.
recommendation
cores
iod
##-01
##umab
7.2
deposited
comprised
##lp
frozen
soils
story
xt
apoptotic
inversion
nb
deficits
##mac
powder
dissip
##umb
[3,
##icious
deployment
##far
##–7
##heimer
##kyo
##zn
graduate
burst
epithelium
specialized
coil
##lc
cong
attenuation
validate
##cycl
louis
subunits
fairly
afford
gd
gt
pca
granul
##|2
##left
formulated
fever
patent
colonies
##-3-
##place
{1,
aids
libraries
pharmacological
bag
xml
ethnic
official
walls
integrate
lind
##imal
##adequ
##-18
lac
##wall
##ians
(2000)
##iae
##optimal
tropical
establishment
lf
forced
yr
distress
(2.
##pur
##channel
unus
incorporate
mot
rms
youth
##′-
##zel
acetyl
carriers
##cb
##oblast
legis
brand
ü
##iable
dk
##fen
##iaz
##overty
proposal
tj
damp
##istor
silica
##–8
electromagnetic
##5.0
##ido
cognition
carbohydr
extends
##chr
berg
magnet
enabling
##1−
##ried
gf
ensemble
deform
##review
computations
dramatically
ces
pooled
##(1):
##bling
coherence
##stud
##ceptor
proximity
signalling
sought
owing
scientists
thous
##jan
(2011)
uncertainties
marketing
##how
introduces
##aux
bath
##liche
gets
70%
moments
aust
miller
conscious
##phyl
28,
layout
##-100
nie
##eq
arteries
preceding
103
cone
gramm
##-14
##acht
##/1
pressures
stent
distinguished
pitch
##inge
##keleton
dopamine
enterprise
osm
antennas
##sal
##orescence
ue
##ferential
infrared
##ju
reagent
determinants
declare
district
1994).
##ails
relate
pose
##nec
(1),
mention
##site
spp
##discipl
slower
29.
doctor
herb
xk
asia
moisture
intensities
##icking
fungal
[1],
##199
isolate
patches
acknowledge
broadcast
viscos
(4.
arabidopsis
harvest
##stricted
regulator
##standing
7:
100,
partitioning
derivation
advertis
##tia
##health
stands
hun
anuscript
inflation
##agm
steel
opposed
trivial
minimizing
conjunction
passing
planned
developments
0.12
motivated
##cht
##sky
vertebr
hemisp
unexpected
##ett
##/(
##-1.
lymphoma
rol
tow
dic
##2.0
ordinary
anesthesia
drosophila
episodes
##appear
hash
05
##amino
utilize
##light
faults
citi
walk
(2012)
eh
##weighted
verbal
hypoth
eliminated
##∗,
radar
played
vox
hpv
plaus
160
26,
fractional
enhancing
biop
selectivity
##gram
cartil
##cerol
housing
galaxies
##gin
formally
phy
0.001
[19].
1.00
ek
##rate
assets
##pol
thr
scoring
reporter
3.2.
##oderm
##ação
seasonal
allocated
1997
##okers
labour
vm
oz
gaps
likewise
destruc
embryo
corporation
2.2.
corn
symposium
sweden
[21]
oscillations
spectrometry
##pes
##pson
dieser
ej
street
##rey
enzymatic
##ocor
rac
clinicians
〉
⎥
##oside
donors
corro
weather
gained
##py
hplc
poisson
sad
peg
burn
drople
matches
##9-
##circ
2.6
##utable
##ilic
investigators
jones
ophthal
##ochrome
yam
industries
sow
##index
##paign
(20)
leaving
##vd
establishing
##adap
##uclide
##ete
##break
##onds
felt
metastases
enriched
##lock
##ographs
cities
incorrect
poverty
endomet
sustainable
interior
##9:
##iert
nest
prescribed
1992;
##ophageal
##ocardi
coded
##onn
##ocarcin
weakly
gravity
kj
##sey
dal
##romy
preserved
2015).
exon
##green
##cost
reservoir
carlo
deterior
hosts
##1+
##fin
ldl
##fu
vt
careg
pod
similarities
electronics
authentication
coming
attitude
inadequ
compartment
##(·
##ager
needle
##én
zo
platforms
##tica
antis
##arded
warr
nanot
elabor
(11
##roc
##otomy
##ilateral
extinc
##putation
military
vast
##(0,
27,
implantation
##]).
anatomical
glutamate
cutoff
refinement
paid
ubiquit
##truct
hippocampus
renew
england
jack
##hai
offic
supplemental
##pb
##nan
##idation
enrichment
reagents
##change
nation
##odic
correlates
##figs
rejection
##response
##cou
cann
mixtures
engagement
diagrams
excited
tour
##0.1
concom
25%
##ticed
independence
##anal
##nings
deduc
moral
cab
4(
##________________
bearing
emit
1980
inspection
snp
##shaped
girls
microm
ease
operated
duc
counted
108
semicon
biofil
brom
careful
cytoplasm
##pal
hydrolysis
crude
recordings
##cephal
##otyping
ky
##ulent
##-16
website
##pyr
®
successive
12-
eggs
##uria
rearr
##ran
##olin
phyt
sic
fun
shifted
nasal
(30
slices
polymers
differentiate
##ée
##acin
capillary
apparatus
ket
##10)
bell
##0,000
splitting
##ois
opi
synth
biotechnology
decoding
##ynchron
pren
undertaken
##base
##ductor
epidemiology
frank
hn
##yll
##fd
intense
distant
(<
occupational
##west
biochem
imposed
nutritional
speaker
fronti
[4,
##lr
blockin
##vision
aberr
##vian
hcc
##dam
aneur
cite
bundle
extensions
oncology
phenotypic
##ophosph
exploit
positioning
##idad
kinem
[20].
turned
nu
batch
spor
complication
nem
ferm
broader
##eterm
cyst
graphene
foods
aure
amplitudes
##erosis
##utor
##ysiological
##ube
offspring
##ologie
annotation
hay
histone
dum
##atology
abbreviations
concomitant
graphical
quarter
##phys
resting
1999,
simulator
##obi
##functional
dialog
##otrans
##/200
francis
hin
histopath
##0.4
delta
##lam
##mode
prohib
##gar
107
glomer
prevented
ers
irregular
fails
31.
evolved
switches
systolic
##under
wk
performances
transmitter
reactivity
disturbances
##rectional
communicate
strand
##rology
minute
outlined
wrong
(1999)
##iciencies
radiotherapy
##environ
managing
centrifuged
equals
pull
phe
explains
##tran
##icing
berlin
scholars
projections
reconstructed
worked
##ischer
##dim
promotion
2014.
pent
exer
immunol
funds
tone
60%
dass
accumulated
genomes
glycos
##isy
##inine
nps
nicot
leadership
1999.
skew
jed
subgroups
##ueh
inactivation
##600
194
addressing
gem
viscosity
ventilation
magne
pun
ash
tags
dendritic
6.1
observational
£
130
(“
ensures
##lity
authority
lamin
##hyper
reflex
spleen
hippocampal
microscopic
stabilization
##jun
charges
multimedia
kan
replacing
sports
##.2%
##ocyt
##400
##zyme
narr
##leg
anc
##lung
antagonist
pep
velocities
ether
parametric
##7%)
differently
##craft
immobil
manifold
democr
microarray
##turing
histogram
##atid
zum
6.5
arrangement
##aca
aneurys
got
blo
sheet
enhances
sophistic
##-30
##icin
chim
eating
##run
##tase
##6%)
##worth
pairwise
##ante
autonomous
##omed
1995
gangl
(1998)
tar
neglec
##hao
##peg
03
waiting
29,
admitted
attend
biosynthesis
##enen
orthop
triggered
##lm
happens
[22]
eosin
##8%)
xj
##lat
signi
spik
secondly
einen
8:
##38/
qos
sudden
reflecting
neighbour
teeth
cardiomy
##án
bowel
##artz
inhal
sas
##.25
(>
tic
rated
sectors
##kal
##vector
wage
##(5)
##titude
##ocytic
remainder
practitioners
taiwan
##vascular
phosphor
##qr
1996
neuropath
##.4,
##rob
##emann
vesicles
##wick
##polar
##reported
##tk
clone
ester
0.10
##',
drift
envelope
##generation
vr
connecting
convers
presumably
supplementation
declar
alz
differentially
depressive
priori
firing
updates
##sci
##figures
hamiltonian
lagr
doppler
artifacts
perceptual
jc
##power
##umor
##aud
(21)
centrifugation
electricity
pec
attempted
ses
4%
predicts
##correspond
##quality
nothing
chicago
emotions
##ixed
##aver
injections
##osion
##cas
##/10.1016/
echocardi
advice
bypass
##nia
entered
congestion
zus
##:10.10
ré
##brain
contempor
bf
retin
7).
begins
##deg
suspected
##aeh
remarkable
##bul
##elles
svm
##aldehyde
##sil
polymorphisms
chron
##play
khz
##mir
implementations
resem
[21].
immigr
abor
verm
##ez
##0.2
##oden
[2],
advers
##eb
##iao
##/10
##rote
hepar
##disciplinary
1998.
cascade
ile
dynamically
##zens
journals
1998,
##amycin
geographical
plain
polynomials
termination
punc
prophyl
preparations
posts
sib
tie
1970
wells
##itch
relating
stimulate
##relevant
ventral
08
segreg
##oler
statistic
##()
hh
##umps
workflow
102
vibration
payment
##rine
export
jj
##eper
cytometry
nag
prevalent
unf
crisis
conduction
##:10.1371/
continuum
##agulation
rings
##oprecip
##cellular
stan
corporate
gels
microwave
abilities
##ieties
hir
touch
shortest
cartilage
relational
##bits
##ku
elementary
##31.
##ococ
noc
##lang
##∗)
vii
csf
[5,
##cient
curric
##.17
transduc
##su
vc
##aphyl
panels
rotor
bran
##bone
incremental
repeti
award
##3+
ionic
##exper
gradients
homeostasis
matlab
cath
[3],
subspace
##mu
##stat
turnover
carotid
##sies
ecosystem
##uses
abstraction
##uron
∏
##pers
intellect
##ese
glu
averaging
tokyo
##phosphate
agonist
repos
##120
sends
##chied
illumination
routes
drawback
engage
adjusting
tumours
femoral
##*,
fabrication
##igan
##achy
innovative
##.20
##psis
prevents
2016;
##rst
persistence
##station
##mas
31,
##plasia
acquire
##rank
visualized
##ionic
wen
##ometh
arith
##.1%
8)
##azol
retain
homolog
homology
##cel
exclude
iner
##access
transduction
proposes
##gh
nurse
##oscopy
arms
campaign
cit
debate
jur
##-19
achieves
physically
diction
„
1991;
multil
fort
personnel
schema
##idase
##akt
recipients
incorporating
##ius
##parts
##acryl
wilson
##rotein
##igene
##uge
attain
[4],
##olean
trap
estrogen
neuroscience
2;
projected
adolescent
modest
##ðt
encryption
##wis
lipoprotein
##/4
##uclidean
##gb
slides
##tism
##rile
##cus
getting
translocation
amph
mask
##roy
⎢
grouped
cz
##zerland
mirna
thal
##oston
gol
increment
##aid
nih
primitive
proxy
satisfactory
sucrose
109
anderson
texas
0.99
##membrane
questionnaires
##aware
##fund
regimen
##(2):
suffer
weakness
mounted
boot
##plan
polys
absorbance
accomplished
contextual
tooth
mellitus
surprisingly
##iac
keys
(2013)
flor
mobil
australian
##idium
peers
##ía
##prec
classify
##ascul
stresses
encaps
reversed
stores
penetration
##izable
underestim
##hea
##organic
cytotoxic
dehydrogen
##ician
aureus
nonet
(13
37°
1993).
executive
##ender
hur
expertise
inducing
aeros
##timate
slice
occasion
ulcer
##lines
actors
lobe
organis
translated
##aire
##het
##=0.0
kw
##radi
##valued
2015,
worker
striking
saliv
designated
[23]
##edy
strengths
mab
jump
agreed
advoc
conject
monthly
iu
din
##hop
digestion
asymmetry
province
##heless
##strand
supplied
brid
js
classic
congenital
roc
bull
buck
##kar
eligible
aggregates
resc
orbital
iz
actively
portfol
pretreatment
oblig
norms
##ynthe
chart
##rf
7-
biophys
##olecular
pieces
##lox
##.18
sham
##iments
kom
achievement
holding
##angle
##ylase
##tific
##vc
##chain
steroid
systematically
inferred
huge
##.4%
shed
pdf
##eless
wealth
interfe
cw
ablation
nonetheless
finds
##assem
multiplex
spatially
spike
passage
cig
cutting
dutch
##kes
suggestions
dissociation
retic
cruz
scored
generations
##heit
##rens
##gle
[5],
conducting
##1,2
##onc
connect
mood
##olymer
##idade
dens
autophagy
eqs
##(6)
centered
paris
incenti
##family
##cells
∨
##dist
##ball
cloned
drawing
cdc
##ukin
weaker
##plements
##coma
##etts
24-
##system
piece
bere
parasite
##aments
##urch
(22)
realize
highlights
alzheimer
[22].
corner
##(3
wurden
developers
′′
##teness
citr
##density
##oor
saturated
bk
affili
⇒
horizon
cue
##ogle
##berts
Ø
attenuated
##uler
##ea
zer
##dn
phosphatase
(3.
switzerland
hypertroph
microorgan
apical
fits
##square
##ensin
friction
pts
##0.3
accession
##illi
##platin
coarse
[6,
stain
proportions
schematic
(195
plasticity
iff
2.7
analges
##coming
##apses
##ener
##isor
##ston
agencies
##conjug
##were
lives
coated
fb
capacitance
cytotoxicity
##tb
##real
##mor
##ermark
unemploy
##inin
angiogenesis
##arti
##invasive
##nit
james
##erk
##iph
soy
epilepsy
multiplication
richard
(25
constructing
fragmentation
heavily
weighting
shorten
##edge
##enger
kingdom
pigs
somatic
learners
7.3
##astolic
wavegu
restoration
##cho
glycol
oligonucle
fly
##jp
immer
discusses
##anda
alumin
infiltration
shares
modulus
isoforms
vice
pole
##role
beads
##plus
##porters
bile
resolve
nac
seeking
##uel
klin
pros
god
autoimmune
euclidean
imper
syntax
##fo
(14
fifth
raman
{0,
6.3
avoidance
wm
##forming
##atinine
##okes
basin
##molecular
##uy
mono
##heng
dox
robert
##rna
erent
taxa
##ichia
circles
subcutaneous
iran
era
triangle
¬
drivers
[6],
(2),
##ulators
exploring
biochemistry
annealing
##fied
savings
##prints
chond
wear
::
##analy
echo
institutes
##”)
5.0
avoided
hands
mirnas
2.8
##feld
##nic
extinction
##ensen
synchronous
lecture
definite
conditioning
boolean
kol
##.19
mediate
3),
solv
##arity
director
bear
##pendicular
neoplas
continuity
##lection
mechanics
patienten
mary
helped
##5:
##+(
outbreak
04
(2,
portal
15%
modulated
sophisticated
intest
minimization
clark
classroom
snap
##first
##his
##long
approximated
reuse
(1997)
##ophilic
merely
install
symptomatic
##aul
plug
crim
«
##anging
biosci
weekly
1997,
ew
juven
lineage
electroly
193
aircraft
##gas
##];
formulations
##develop
##lv
fabricated
volunteers
holes
exit
##accharide
2015.
plasmids
##1.4
##rac
##omeric
##idents
##orf
mang
##dic
theoretically
(2).
filtration
##mus
tier
metaph
vulnerable
##acerb
##aldrich
closest
percentages
##chip
spacing
indirectly
realization
print
edition
microtub
reversible
wnt
##sitivity
cylind
deployed
1.9
pes
##jective
knockdown
uncom
diam
sorting
##ders
##report
inhibiting
##bow
kinases
gait
)2
retail
converges
##geal
signatures
[24]
redox
##bell
kong
asset
##bia
runtime
##beta
regulations
##fish
##ship
##condition
[(
disag
pacific
pathogenic
##adjusted
32.
camer
subtypes
trying
[23].
comprising
administrative
##3.0
1990;
inadequate
favour
pathoph
##rian
bonding
##rez
##viral
dimer
behavioural
hear
gyr
screened
##standard
polyg
##represent
##orge
##alpha
##los
mirror
3.6
##coprotein
foss
unusual
1997.
[7],
totally
##uda
##veolar
disappear
##itic
exacerb
breakdown
##ausal
##8:
suit
zhou
thoracic
synthase
##aton
##~~
submit
##ipping
stenosis
##aya
amyloid
sag
##amming
##contin
##imp
instantaneous
fungi
purely
7)
mari
accelerated
9:
graphics
##··
gyn
boston
broken
##iee
sepsis
##9%)
relapse
##athetic
harmon
recursive
mountain
##rier
1⁄2
phospholip
mast
##compass
augmented
##enin
perpendicular
##ilation
30-
backward
anomalies
books
reserve
farmers
cav
intellectual
(23)
comprises
simpler
corrections
telec
##cad
aga
noisy
##−1.
volunt
licens
biased
##mass
junc
adjuvant
anaesthe
##(1),
tended
inequalities
gaba
neutrophils
effector
critically
diets
linking
resonant
##csf
pus
##20,
##xr
##xl
+1
analyse
sterile
##drug
##nah
edta
vent
##multi
##iferase
county
discrepancy
amin
termed
flash
severely
spots
redundant
conjugate
06
dosage
adipose
##tifs
ready
nitric
snow
{(
##learning
6.4
mucosa
##phenyl
toxin
##ece
##gest
##var
##ité
yielding
##spe
sz
lifest
surgeons
##borne
3%
##uns
cattle
inconsistent
governance
athle
identifies
generators
debt
##plasty
##ietic
0.001).
chair
qui
psychos
abd
parkinson
divide
deficit
explanations
##americ
##nut
compares
##sf
##neu
vom
##ijing
nutrients
##don
determinant
encompass
##ventive
dmso
##otics
plausible
cytochrome
powers
classifiers
observing
##unch
phag
speaking
dramatic
permitted
##rael
vig
##ilst
depri
##ichen
mammals
says
neuropsych
demonstration
##adata
jl
##ynaptic
bent
iq
automation
degeneration
microbiology
senior
wavelengths
insert
##contr
jah
##acles
##rid
##+/
cyan
euk
##än
fle
ao
vn
##total
trib
aromatic
seemed
avoiding
auxiliary
inactive
##period
intram
noch
arithmetic
##via
##cur
transparent
tried
1992).
canadian
##hf
fk
documentation
##perfusion
pict
##aryngeal
shadow
premature
til
pharmacokine
##plates
##pg
##dop
##sem
##athione
75%
0.1%
humidity
proto
##hb
hans
diarr
emb
jose
embol
atherosclerosis
boy
religious
insect
##entive
(~
fan
##expression
##.22
trich
##stone
remodeling
gg
incentives
##appropri
##4.0
perfor
amplifier
thirty
meanwhile
methodological
##elson
gather
joints
converge
astr
[7,
##6.0
fertility
nitrate
perc
##ums
lid
lesser
forests
##oxic
untersuch
raise
##conduc
vaccines
##affected
lungs
##carbon
##aved
convolution
##0.8
quark
##osphere
##necess
##inely
crossing
selectively
scaled
nv
competence
happen
̈
(1996)
##may
nucleic
##kov
gst
leader
collecting
##half
heparin
implants
plaque
350
adenocarcin
genet
researcher
[24].
(2014)
##agent
innate
dialysis
0.06
confocal
##vir
##both
##balance
##bean
copd
##aterials
##invitrogen
exceeds
controllers
##four
07
initiative
rupture
##lycer
sche
boost
2016,
fasting
interleukin
gaz
conductance
danger
##iest
discourse
eigenvalue
â
##enic
##bio
##fn
##'-
##ups
combinator
##2.5
escher
dehydrogenase
afore
##inescence
immunobl
##bour
alph
planes
waveform
transfusion
phosphorylated
kill
commercially
buy
##trivial
##13,
##15,
##5.00
contemporary
clarify
dcs
canal
##oxygen
##identif
##/10.10
lexical
)]
hdl
stakeholders
pyl
categorized
penalty
probable
boys
kp
creatinine
voltages
##offs
eds
##ocon
bioin
zhao
herein
readers
■
[8],
[25]
##nat
nin
styl
bipolar
kt
synerg
115
##accur
unrelated
##–20
guarantees
virtually
sick
bw
zhu
##ocket
##sover
cohen
influencing
modulate
##alt
rainfall
##ayers
talk
##opor
(18
##ania
obstruction
expenditure
eukary
gil
##opoietic
##uster
##rb
mucosal
zwe
sacr
(-
##ecs
aort
hed
vulnerability
minority
neutr
##output
##versi
dividing
nested
resin
wing
incoming
....
(24)
++
1996.
stic
##performance
equity
sliding
modalities
##hp
arrows
##−→
##iop
justice
problematic
observable
##01.
0.14
execute
(2008).
hemoglobin
unrestricted
emphasize
epidemiological
pipeline
obstruc
##speed
endoscopic
immunosup
##eps
wheel
1996,
colors
freely
spirit
0.13
substituting
whilst
eleg
jp
ensuring
ownership
mismatch
globally
immunore
explor
rotational
##1|
referen
macrophage
wrote
operative
##earch
##vt
deeper
##law
optic
kel
pubmed
summarizes
##pubmed
withdrawal
granular
guided
summarize
ward
ferr
##shift
##operatively
##noise
crops
##source
##aret
davis
##sile
escherichia
vapor
critic
redistribution
##paired
recipient
33.
##ulo
preservation
comfort
pricing
[8,
munic
700
grey
2.3.
facilitates
meat
usefulness
09
##coated
##serv
seizures
(2007).
hormones
##igt
asymptomatic
##schen
##cycle
duct
##21/
jiang
diagnoses
anatomy
##iser
[40
extrapol
(1.
aforementioned
alteration
##ymmetric
adds
disclosure
drainage
smokers
##ospor
gdp
##abolic
asynchron
cac
tau
standing
##ohl
##!.
dub
(2006).
##gebras
motifs
##0.9
univariate
revenue
##wend
##tilled
dissection
restrict
##ignificant
coordinated
##design
##virus
acidic
alkaline
metadata
##zu
locom
homologous
mmhg
gastroenter
eps
checks
axes
##21,
preserve
hus
##rox
##14,
secreted
̧
filling
##7.0
fading
##determ
generality
##–11
notch
##–15
mouth
##4(
##ason
nitro
##cemia
(2009).
##tance
##depend
outline
0.001)
(2005).
noting
##ocular
adrenal
conformational
##uer
##tier
##tium
ecg
responded
rrna
##iol
chromosomal
permutation
##termin
##".
encode
scatter
registry
##structured
reinfor
installed
##-00
##frame
##kk
##opol
##ether
entering
##ofluorescence
ccr
remarks
piv
encourage
suspended
islands
mist
##luc
##ensch
0.11
sending
[9],
kil
##nik
2/
temporary
glutathione
volatility
counterparts
liv
omitted
##pat
coastal
download
bootstr
exempl
##–[
cloning
declared
oo
mexico
cass
##parametric
##(3):
sequenced
anaer
molar
(1995)
##ais
##uscular
epigene
chir
regulators
mhc
infect
rendering
##:10.1016/
hap
translational
##earing
diminished
##112
analyzer
##mel
##oplastic
rose
##ommen
##itate
motility
##×10
traditionally
##seq
##zw
retina
[25].
##.23
##onto
##tag
sto
##ynthetic
truncated
networking
phenyl
proofs
##enia
combines
serot
drops
##ochrom
sera
supposed
spreading
speeds
guaranteed
pyram
##uls
kre
##vm
edema
chl
0.16
##cz
examinations
opinions
outper
mening
##blast
##instit
1995.
spanish
institut
##random
branching
monocytes
pearson
##tu
israel
nal
tong
threads
##omonas
grateful
fibrin
couple
acknowledgment
citizens
##university
978-1
##achus
balancing
folding
interacts
##ention
suited
lysis
lis
detectors
resusp
##berger
trading
monetary
engaged
scheduled
##isters
sheep
symbolic
qt
pie
dropped
mehr
10:
##cine
pictures
##imeter
sevent
socioeconomic
glycerol
34.
##about
prey
##reprene
dictionary
cel
peter
##gap
192
dun
santa
bare
confined
responding
requested
50,
viewing
##sson
fried
blotting
##rab
searches
##tensive
landmark
hart
dominance
desire
##utter
terti
till
##kd
lect
push
jacob
mutagen
rhythm
prepare
##inos
##xs
##ando
genetically
transporter
lj
catch
¡
##orer
grains
111
feb
suite
noticed
oncol
##also
intestine
129
##echanical
##bild
##opathic
fluids
##-25
explaining
##anges
##amous
indications
##expl
##joy
municip
eines
[26]
cohorts
##.24
##wang
incentive
##8/
hbv
##approxim
(2010).
##ulos
##assay
##onectin
constitutes
disjoint
å
(25)
laparoscopic
quin
##transferase
##ichi
1}
confirms
(2004).
##aints
microorganisms
pigment
rheumat
##.21
methodologies
helic
infiltr
luciferase
##eties
expanding
##-22
pollen
##odon
evoked
hk
##name
##reat
departments
maize
microbiol
suffering
(3).
##wind
##cox
##erating
atyp
##uki
0.75
integers
oscillation
cycling
##una
35.
##inery
allevi
##ailing
aliqu
##best
##ieren
mü
positioned
appropriately
ua
consol
jul
hemorrhage
universities
predicate
##small
##acetyl
hv
leaders
enum
3.3.
comorbid
vocab
802
##,(
telephone
congr
impulse
updating
crossover
earnings
organisation
[9
spectrometer
##eno
##:10
zeit
##calc
##cession
surfact
dq
##tisol
electrochemical
applicability
##etz
friend
informal
(0.0
dispar
##nb
simplify
anom
190
idi
##tel
sket
beijing
knockout
covariates
∣∣∣∣
refined
exposures
xy
mating
##cv
carol
rw
redundancy
1994
biod
spons
bold
##note
unity
shocks
parasites
destruction
##imb
′)
preventive
##hour
##iques
0.18
convert
##uthor
forth
collections
printed
vaginal
dipole
trache
speakers
profiling
collapse
texts
##ieder
[9,
lanc
stopped
cirrh
subsection
numerically
tand
##amus
crc
thrombosis
basically
ionization
unnecess
surgeon
functionally
##8.0
ocular
36.
##isse
##when
##existing
gan
50-
entreprene
metam
##luent
edited
exploited
##ambig
pelle
contradiction
coping
upregulated
descriptors
8).
allen
spss
##rically
(16
assembl
xp
##omat
1995,
##atitude
georg
##(2,
fluxes
thereafter
##.33
convention
continuing
motions
identifier
##variant
##oulder
hypothal
bending
capacitor
##==
exponentially
affective
ict
##yan
playing
##opter
1989;
computationally
subtype
##rophot
survivors
##uning
justif
##luor
##bolic
sink
##uter
estr
##achusetts
##ocyan
##conjugated
##code
codon
##loss
##ankton
##image
perturbations
##:10.11
ton
approximations
haben
##plos
leptin
antit
##burgh
1991).
aq
##rupt
career
fee
rearrang
##lar
mda
escape
activating
##ophyll
peroxidase
amongst
repeats
watermark
##hedral
jh
##disc
lifestyle
##nnen
xyl
urea
cyclin
[10],
relates
##prom
google
dependencies
compensate
promoted
precursors
##idirectional
reactor
immunoprecip
percenti
leuc
categorical
seh
##phy
[26].
##black
conditioned
denti
7→
cash
ents
stark
strings
instrum
stomach
diastolic
##phen
##graduate
##otensin
dup
-0.0
##keys
fj
api
porous
##compon
editing
routinely
##ague
spite
scattered
20-
scaffold
##number
tok
ys
##hcl
##sided
»
##theore
grammar
labelled
unpublished
occupied
regimes
-3
computes
(4.1
locate
encodes
save
ignored
utter
brack
chiral
##ðx
perfectly
##white
##TM
inverted
gmbh
##anta
40.
transpl
dermat
suicide
indicative
adequately
microgl
##dg
##enth
unw
dashed
##vie
obl
##phot
breaking
##uitary
##%;
sehr
dap
##micro
##1⁄2
photons
judgment
123
##-23
angel
excluding
hors
##avirus
##dynamic
##----------------
endocrine
##pack
wein
worm
succeed
ranked
shallow
##baum
exclusive
##16,
degraded
activates
##directed
##coding
##5/
##aded
portions
scholar
intersti
subtle
drought
syntactic
##hrt
graf
dz
inspired
(2003).
##blue
##agul
##otropy
##itos
reasonably
sect
##cant
ship
sell
signed
carboxyl
electrostatic
##poly
ours
excretion
##iration
##oi
wc
curriculum
##apop
##ali
lactate
##rocyte
0.08
##olec
⎤
[10,
purchase
doctors
##fed
##issible
recons
ove
calibrated
220
##ressively
relief
##.26
##limited
apr
##–13
programmes
##yd
portfolio
##umn
resultant
mesench
rising
anomaly
rectangular
4.1.
silencing
kor
switched
arranged
constitution
videos
##stry
bsa
##opausal
billion
catalog
platelets
##midt
##ket
biopsies
##natal
smoothing
##unit
convenience
biases
##ativec
tetra
dock
##nature
sustainability
neglected
fibrill
5(
remission
terminals
legi
##onald
niger
varieties
solubility
##.30
##obacteria
gard
ét
immunoblot
replicates
##terms
manifestations
##plying
##–14
contracts
##sel
##item
elicited
bioinform
galaxy
irre
andre
##glob
pointing
notable
inqu
##heme
##track
grows
initiate
thing
kam
precondition
cellulose
10.11
duty
##1.5
bras
plac
##bir
##child
##aturated
beams
simplest
xxx
##holder
draft
neurology
christi
shoulder
swelling
##inear
(0.5
implied
bib
massachusetts
2017,
assim
uthor
ross
blank
##vp
spectrophot
inject
hj
##vii
##)‖
##affin
##appropriate
sein
confer
##strained
dots
jk
##1,2,
##ofl
modality
buildings
(3),
##nea
necessity
##:12
##assisted
metabolite
emphasized
nick
lign
boxes
moderately
naive
remarkably
yt
gynec
##][
[27]
profound
1990).
staphyl
##anghai
rosen
clustered
##seg
##amoto
virulence
carbohydrate
marks
gev
shield
##oelectric
pelvic
##ectic
##uniform
rationale
wors
oxidase
sab
corneal
##airs
##@@@@@@@@
##izers
splicing
′(
##infection
abol
empirically
sho
2007)
##apsed
##rectomy
unfold
hif
##rection
settle
##ées
evap
respiration
indoor
triglycer
fgf
mcf
##itives
centres
ammonium
##content
bart
parity
##iler
unified
prone
pestic
##,3
supervised
universe
anonymous
##ierung
(2.2
yn
cylinder
##expressing
##assen
backbone
##bond
intuition
zusamm
ultimate
##kit
##fat
behaviours
##bra
clause
squared
##xin
[11],
broadly
frameworks
costly
##ulary
wait
semiconductor
##blind
spind
hung
interfere
##icz
transfers
annotated
(26)
subm
anemia
40,
##proble
uniquely
ê
hes
absorbed
cosm
nearby
##environment
fused
aperture
wash
prescription
confirming
dod
##tf
##8+
philosophy
repository
belg
raises
commut
overweight
##sor
##imetric
templates
elongation
##hydrox
vortex
resident
##icine
/2
upregulation
intermitt
arsen
declined
tcr
melting
incision
conjecture
lewis
135
##growth
trypsin
gill
bifur
##ivalent
captures
horn
pollut
##)[
##division
##450
quantization
depolar
token
hemisphere
outpatient
knowing
anticipated
##otically
##oct
(2011).
inverter
biofilm
ascertain
37.
##rium
450
cameras
fulfill
aggregated
##oform
publishers
##alc
##01)
##är
habitats
antiv
editors
metallic
concludes
deficient
[27].
##atg
damping
saving
##eda
transm
##igkeit
cement
##uma
cubic
aller
starch
slo
(5.
ari
propri
mimic
##national
sacrific
##ðtÞ
(1994)
4.6
oocytes
diego
angiography
scalability
stone
##rod
wenn
##atom
##aids
compressed
enjoy
nar
emerge
latest
transmembrane
replicate
cdcl
(2002).
240
cardinal
seedlings
##ocortic
spanning
bim
foster
##4.7
denmark
(40
cortisol
##2−
minimized
goat
mik
biomarker
##yo
##network
##–9
127
radicals
0.20
roll
machinery
pare
gent
sut
heated
##ethylene
repeatedly
##techn
whereby
210
##initi
0.17
entre
nonzero
fasc
intuitive
mcm
dani
##atp
crime
##stell
operates
cysteine
recycl
##aland
mediators
reproduce
breaks
partnership
2016).
reversal
analogue
##ommons
serine
##ubation
necro
##herin
##cross
voluntary
hospitalization
##:6
distilled
damaged
##etin
sediments
##oprop
aerosol
sclerosis
##ugin
deals
##predic
2017.
inorganic
ingred
rotating
##median
(2001).
1994.
caud
preterm
lumbar
rejected
vascul
##means
wo
##prim
##post
##⎪⎪
##roll
##clonal
stratified
completeness
##elian
nicotine
##extr
attributable
cup
rul
(2015)
256
##ospital
##ploid
##mw
##bott
paren
##vary
antico
responsiveness
38.
ecosystems
interf
tertiary
##catenin
gtp
param
##ubes
(4).
novo
measurable
##12.
##abstr
tunnel
hcl
rnas
##pel
faced
peric
filament
##rocal
##vive
employee
lysates
uterine
##abl
visually
strongest
neutron
graded
0%
##aturation
sounds
observers
transforming
##versial
blockade
unaffected
##respective
shoot
##gaa
directional
##-[
differing
bord
pak
triangular
bure
##acies
feelings
isomorphism
offering
allergy
immunization
##ões
##ingen
thom
implication
aorta
##western
mapk
regularly
cocaine
episode
##001
conjugated
finance
##missions
inability
tape
adenocarcinoma
bang
atrophy
epidermal
##−(
robotic
scre
osteopor
accessibility
nucleotides
turning
corticoster
##buff
alveolar
39.
##graphs
##ila
won
2008)
##factory
theorems
kö
sq
sieh
publisher
digit
##pic
3.7
sulph
cisplatin
agarose
##rition
dissipation
dre
resuspended
lapl
malignancy
##ativecommons
##encia
vocal
##online
bug
assisted
tech
assayed
randomised
##umann
##=0.00
##node
versa
mev
ecc
optimizing
##anium
©201
polarized
##elastic
cient
##ieee
adhd
icu
predis
confusion
epist
##grid
epigenetic
unemployment
koh
sulfur
∥∥
##agic
##38;
##clc
correctness
multicast
(1.1
##rystall
##dv
##rig
regimens
(27)
2004)
kk
##0.7
##atio
quantitatively
etiology
handled
newton
informative
lock
rech
##empty
##tible
margins
hyste
evolving
pon
##matrix
reject
##feeding
(2000).
fibre
lon
ibm
##tempor
maintains
ole
##vac
frontiers
##teil
nil
deposits
[28].
optics
##bj
illustration
4°
pkc
shen
##sex
##adiol
##uh
nash
arrive
##sie
helix
[12],
roberts
traumatic
##sets
##glich
[28]
##rontal
##ст
2005)
dsm
congru
indexes
##nih
meant
##ald
evolve
900
infin
inoculated
##alis
plateau
gj
moi
##sample
waveguide
##axial
##axel
##auses
feeling
sympathetic
##})
##agging
tens
##corresponding
assignments
##wered
32,
mun
##gam
126
exponent
fus
shop
##0.6
##athered
##mv
##agraph
dissemination
lup
overestim
wanted
ambiguity
##oelec
enterprises
2006)
conting
1993
##panic
(%
reconfig
##aplan
vin
doll
trab
governments
aerobic
3.8
arrhyth
constituents
sorted
yan
progenitor
acr
[11,
##uri
promoters
dispos
pq
##perature
consuming
drives
centralized
naeh
##xa
obstacles
##utz
0.07
forecasting
10.100
##/2)
spray
##iso
##star
1988;
spending
##quin
##−3
proves
deline
combinatorial
##rl
##ingly
2002)
preserving
exploiting
surrog
veterinary
moore
##-4-
0·
collisions
engineers
witness
unnecessary
partitions
##pine
prompt
pron
##cla
tack
societies
##casts
cyber
elasticity
cess
##matched
##:11
controversial
responsive
neurode
##allow
##.27
8.5
usability
jd
exert
arbitrarily
(1:
depicts
112
conflicting
##ylate
ali
##neys
charging
##lantic
0.05,
initiatives
gad
phrase
testosterone
##ingual
duplicate
1994,
##itney
meal
##average
##−1∑
mammary
##apeu
guess
##stimulated
mosqu
neutrophil
compromise
7.1
seizure
facilitated
##.28
irrespective
##iana
##ersonal
114
gravit
psa
2016.
acknowledged
turkey
smoke
passes
2003)
axons
referring
vocabulary
dyst
tank
guard
diagnostics
topical
##010
##ecd
0-
##three
excision
concentrate
survive
<0.00
epoch
##tructures
̊
##uming
(2012).
endpoint
##2|
2.9
##krank
bird
contracep
msc
lever
searched
über
##angian
malay
phyto
##ente
zwischen
##-21
##fast
technol
0.35
##~,
reinforcement
##oge
116
devoted
origins
grating
macrom
117
cyclo
##atos
fern
crp
##agi
autonomy
nets
##-24
##nung
mete
0.5%
##prof
thousands
nations
##elve
calor
pylori
##current
implying
interferon
confirmation
assembled
undes
racial
meg
(28)
gradual
themes
cutaneous
develops
##organization
refractive
harbor
owner
neurom
glo
arcs
florida
##pert
borrow
jer
alternate
##location
anchor
##score
como
bmp
##wk
grouping
cystic
cancell
anaerobic
grids
granted
##main
##aha
asynchronous
syndrom
dioxide
##carb
lumen
juvenile
4),
antagonists
tric
polarity
anast
vend
certific
##entricular
##’)
crystalline
##asome
##mond
morning
¢
fruits
bra
accident
1992
aquatic
##issen
synergistic
##liers
##ffe
dehydr
polyclonal
occasionally
##inea
modelled
##who
##ograft
##arum
jak
lan
mimo
lowering
rounds
##wir
##onit
modifying
hematopoietic
superficial
glycoprotein
extracting
shrink
(+
resis
##uan
pale
##ylic
stimulating
##tituted
biotin
script
contig
abc
facing
beob
esophageal
##hk
slots
##estab
terminology
bore
unse
autism
capacities
bak
insects
compatibility
elucidate
compiler
dow
cure
fpga
adenosine
repetition
stretch
mapp
##lot
virgin
gk
instrumental
##ensitive
contaminated
##ен
gestational
adam
′,
##mos
grup
architectural
photoc
triggers
fermentation
myeloid
lose
went
170
silic
##available
##]:
abnorm
##peak
2000)
##second
atypical
(3,
##ller
##cancer
len
п
spi
##urgical
⎟
##rick
[12,
activator
immunoglob
scalable
doubt
fundament
supervision
pier
##ophore
vh
##1.1
gw
##plied
##ishment
interpretations
##sy
breathing
polymerization
rid
dissert
##aryng
restored
##tage
##ophen
cope
##acranial
hepatocytes
pari
1,000
##weg
##superv
solvents
##ostatic
russian
rit
##17,
118
##reducible
##otom
ports
phant
rail
cin
##105
father
nition
137
cmos
cable
pharmacy
squamous
scav
stocks
zealand
##aq
gv
⎡
allergic
##ughter
junctions
##fal
(60
repetitive
##nett
keine
⎞
guideline
isotropic
peritoneal
0.19
confid
##varying
cochrane
queen
solver
##research
bob
identities
cvd
census
assistant
graz
##ogenes
##18,
titr
1+
glands
11:
constitutive
280
placing
4.2.
tracks
##iche
encephal
bv
##imilar
inev
##ın
##tailed
-0
energe
accommodate
##stra
garc
olfactory
shifting
decentral
intens
##oides
ecl
authorities
nmol
##oka
##balanced
oscillator
##ocrine
##isk
(5).
purity
quas
##bst
[29].
##ologia
bottlen
[13],
za
pancreas
congress
nw
0.45
stig
criminal
dialogue
(1993)
978-1-4
tions
klein
##riage
##ferentially
tendon
##mouse
reliably
##years
stromal
ubiquitin
##fur
mant
voxel
spars
vow
transforms
chor
interstitial
mec
deng
deleted
##emed
promise
##ample
##opt
##modified
##utely
appearing
##bered
##reland
##onuclear
shaped
##apore
erosion
##atern
41.
flank
epidemic
vk
##induc
investors
##uj
productive
fellowship
imperf
oxidized
##information
##volume
##bearing
##creativecommons
penicillin
obstacle
lk
mutated
dict
sak
tandem
##critical
##accharides
kc
absor
maturity
roughness
##ameters
##udi
##uates
##imming
##arb
##dern
gates
6.0
##admin
rigorous
fx
##uginosa
(4),
1993.
blur
##sivity
124
##uni
disadvantage
##uzz
113
hypertrophy
##agt
impression
ccl
##.50
learner
##ardi
contral
mutually
fate
superoxide
cytosolic
[29]
averages
histology
##.3%)
##heast
clinics
advis
defective
italian
phosphorus
forcing
##dk
stein
##efined
##:8
lean
mosquito
dairy
(29)
helping
homozygous
##(-
kcl
twelve
##hester
immunology
##uber
0.95
mechanistic
economies
lagrangian
gegen
radiology
##tere
2009)
##-3,
##hoc
jf
portug
Ü
vj
asymptotically
##edic
cheng
px
prefix
##wm
##udge
##aug
##gone
##phrine
corrup
reciprocal
##∥∥
##wat
neurotrans
lymphocyte
seism
campus
2010)
##restrial
0.22
119
diode
##choline
fiir
##thood
##opus
cations
caution
angiotensin
##temporal
##esium
##este
encouraging
##adas
exploratory
rabbits
chicken
fist
clamp
(1999).
shanghai
reviewers
colonization
##istors
##26.
scanner
evidenced
##ctt
astrocytes
mpa
hundreds
gestation
psychosocial
##’-
keratin
qualitatively
##arium
mtd
suppressor
##130
reflections
syll
alarm
stellar
hod
bigger
isoform
paradox
##bis
##aham
marsh
##utors
(3.2
##ptic
##enda
collectively
orientations
mtor
agonists
confounding
fos
##abled
immuno
transformer
##esi
aeruginosa
postnatal
unilateral
paragraph
ubiquitous
##aro
pine
regards
1960
curr
tat
inaccur
##jn
mort
hydroxyl
##ello
##3.1
voting
adversary
(17
##adel
mrnas
residential
Ö
visited
vd
affine
##biased
##grams
accumulate
##00.
conception
##invariant
click
stretching
geometrical
someone
heuristics
glauc
police
gathered
##25,
tightly
unders
aluminum
##tik
irrelevant
allo
##ska
##trum
pituitary
earl
inappropriate
##das
9)
##isi
commod
scott
euler
fmri
hela
discarded
dispersed
1987;
2017;
anion
rand
endothelium
==
35,
dol
irrigation
##diagn
finland
implanted
##11.
aml
pom
##amers
hypothetical
modal
engl
##tetr
pill
lakes
##good
##kop
##sulf
(24
##responsive
hilbert
commands
muscular
ventricle
deterioration
##acterial
##brow
##appa
lithium
##fg
são
##reek
42.
router
##plosone
##itan
petri
##onate
facilitating
depar
##qs
clouds
missed
##hospital
sacc
##coupled
elliptic
ireland
##ploys
monkeys
##9.0
##pad
exercises
neo
##oradi
synapses
##(4
twin
##armac
carcinomas
definitive
xm
progressively
rx
grades
##unov
bg
eing
##depth
##2):
selects
outliers
illumin
meetings
flap
clay
larval
##akis
explanatory
##amento
achievable
retr
dosing
##quar
anything
##kung
##tsch
##temperature
##+-
contralateral
magnification
rescue
##coa
relatives
##−−
##osyl
slopes
##tian
(±
##linking
seeded
##vr
serving
##seh
coul
amel
%,
integrin
fg
##bad
##.29
archae
gsh
0.98
hypers
eliminating
##iones
decoder
rins
xl
tubular
looks
quoti
genera
exceeded
swedish
enroll
##fluor
nite
##ographically
meter
pir
##asian
rhod
cotton
fh
bez
[30].
##ersin
korean
6(
[13,
stems
[14],
merging
##([
meteor
looked
cirrhosis
##inase
evaporation
##availability
##reviewed
##3):
##.5%)
##closed
chan
drying
navig
circadian
−−
inversely
salmonella
##*)
amygd
brings
nerves
opioid
encounter
adul
thermodynamic
##iten
investments
narrative
pellet
richness
carries
collo
tuple
mesenchymal
anisotropy
capsule
##ibular
neurol
wei
wn
##oses
##izumab
##server
michigan
attacker
##depress
gun
outperforms
jackson
bioinformatics
##central
gpu
singapore
##hep
ö
dispersal
substituted
##ncia
calculus
##kj
compartments
ald
##–30
consor
##obacterium
wake
telecomm
##complex
trip
inoculation
##hole
##22,
dates
##braf
pcs
judgments
ambiguous
##clim
giant
##visiae
instanti
headache
##ext
##=3
depressed
dissolution
semin
##<0.01
(0.1
2011)
##myc
amorph
1991
##outs
turbulence
##fung
transit
tea
##rell
palli
|=
##rio
phenol
##tip
everyday
ideally
encouraged
columbia
##parameter
##olet
propensity
##algebra
(1998).
lineages
shim
visibility
##–16
gases
storm
serotonin
##igenous
transducer
##0.05
segregation
##(4):
gef
rhiz
combus
##=1,
##plankton
rectal
##hyp
jointly
rum
discriminate
cave
##****
##astically
designers
erge
##supervised
cpg
predefined
adopting
mediating
##arer
##halten
133
syring
##enes
wastewater
reproducibility
##grant
‡
merge
capturing
falling
senti
deprivation
krank
fv
##phosphory
##eptides
trem
simon
3000
tunn
salinity
argues
prescrib
(6).
associates
puls
##asia
shi
##lf
##aba
1993,
george
isotope
ã
##prob
145
mcd
ophthalm
thrombo
irreducible
separating
##istan
residence
estimators
##ocellular
speak
ethnicity
##(~
##reactive
##apes
forty
ecm
bod
kcal
2001)
prenatal
notions
##last
ultrasonic
radiol
ankle
substitutions
lav
referral
zy
senes
wj
equiv
##pss
compositions
12:
##hist
obtains
##tio
0),
1500
theor
pharmacol
subsystem
blut
(−1)
orange
##iratory
aur
vicinity
##electro
brains
psi
##bet
atlantic
##125
##lact
##idelity
floating
##19,
stabilized
truly
subt
##rk
claimed
##occur
chel
##1.2
##/−
##.32
].
##suppl
##asy
###38;
##js
caregivers
##owa
vaccin
##iscal
cylindrical
behand
compromised
immature
exhibiting
Ó
##oreg
practically
##lower
ppar
ahead
kaplan
malicious
mail
familial
##patients
##ococcal
##oblasts
transported
incur
packing
consciousness
meters
herit
litter
fatal
cerevisiae
##ellum
genomics
sender
asd
preferentially
##rev
##degree
mediates
streaming
mars
],
irradiated
regressions
##.4.
(30)
evapor
threats
convey
##acycl
prism
logarithmic
##но
refractory
##wb
behave
hydroxy
coalition
inheritance
declaration
##31.00
altitude
viewpoint
matters
adc
annotations
wik
formalism
impose
##-29
144
1989).
alternating
tick
##hot
intermittent
⎛
##-27
sequentially
poorer
killing
##five
brit
weig
##licenses
##article
remember
substitute
fell
##product
axon
nort
immunost
##fre
readings
mercury
comprise
##anova
0.24
disadvantages
judge
122
algebras
360
##rogenic
##ighter
composites
hygi
##cemic
##enberg
regularization
coval
##erts
terrestrial
theme
habits
##atization
revolution
.01
##orthy
##+1(
bootstrap
antiviral
##producing
##?”
biosystems
dick
nap
americans
latin
##.35
##align
overload
##gre
##olecules
indexed
peroxide
aes
##onitrile
thompson
##strong
maximizing
initialization
beck
spur
36,
employs
coff
0.50
doesn
##oscopic
reti
justified
ammonia
eld
kumar
immunode
pharmacology
##sg
##ahn
oi
amaz
##effective
##sink
distinctive
prioriti
valence
priming
disciplines
kernels
cows
43.
lethal
##there
[14,
waveforms
##rosp
opened
subpop
##shot
politics
resili
esp
##acements
antidepress
francisco
proposals
courts
ances
1992.
sheets
##gmail
##apoptotic
##selective
mappings
aggression
##tiveness
proving
translate
coagulation
situated
sport
percentile
originating
##/5
cats
lamp
percutaneous
##abstract
proceeds
distinguishing
##pul
gravitational
classi
chooses
inherited
intrav
##ellt
indexing
ccd
licensed
##)].
editorial
macroscopic
##–19
compilation
##species
##incre
expense
undergone
##income
fluctuation
hug
grund
perox
##transf
possesses
##encephal
violation
##ität
cdk
diameters
##ropol
##vor
##ologically
10)
##din
##ammer
reflux
digested
##area
minus
detrim
nodules
##tronic
##bounded
##gef
##/12
##epit
##lys
singh
specialist
##jj
kev
memories
##alid
155
permissions
gonad
characterizing
##spl
1978
##106
##brafish
##center
0.23
anton
ost
##inhib
bee
twe
triton
occupation
intuitively
gis
##abb
intracranial
replicated
212
angew
33,
nik
##idental
##portive
##ylvan
2+
endpoints
instrumentation
##ecl
obstructive
rut
##)−1
residuals
dial
besch
attracted
neuroph
∃
attained
##fluid
##(|
##menopausal
tuned
experiencing
harmful
##isite
##amen
imagery
##ometers
##lb
##odi
##1⁄41
##component
heterozygous
inductive
fibres
enfor
steep
magnesium
∞∑
##atidyl
perin
lessons
rheumatoid
greedy
preprocessing
producers
packages
spiral
combustion
##eder
relativ
attending
##neur
torsion
##holm
spheres
2007),
sox
gyrus
imbalance
##ghz
deemed
bax
spontaneously
dft
1986;
##cope
jin
##.34
examines
biodiversity
container
spac
##00)
##dip
flavon
cip
##iasis
supernatants
##ims
##odynamics
121
viii
kaw
##olo
(2013).
catalysts
formulate
zebrafish
⎜
subscrib
conceived
discipline
consultation
##eten
manufacturers
##lism
enforcement
##ogether
volatile
cessation
##usions
##/100
dummy
##door
##throm
##="
comprehension
##kon
##atever
aspirin
##lay
counseling
pediatrics
buc
##enna
advertising
metab
triplicate
[31].
lancet
deduced
suffered
##eters
slip
amorphous
biosciences
ridge
##acrylamide
##qol
##arin
earthqu
insignificant
##μν
##essel
glucocortic
transistor
slide
potency
##engine
trunk
##'.
##oven
compe
anastom
##2.1
##fv
##-26
ultrason
prophylaxis
##atile
##ampl
innovations
jt
fibrillation
##fri
##etti
##1):
mse
hemodynamic
##joh
##imaging
##orbent
intraoperative
banking
##mk
##ceived
utilizes
ontologies
transmitting
parench
nich
##arette
##avir
issued
##measure
[15],
bubble
shut
citrate
##stant
##30,
actuator
##enhanced
ozone
raising
sta
earliest
##dw
alloy
mediator
(‘
flies
hydraul
##icks
audit
##toral
elicit
cauc
scin
##,’’
syndromes
2006),
parietal
ish
swarm
injured
##raft
##ynolds
aberrant
##104
debr
monomer
.,
∼=
⊥
filaments
kap
##∞)
##nsylvan
athletes
electrolyte
##gy
qol
wieder
wants
ptsd
transparency
artifact
receivers
##dimethyl
sett
president
sio
monotonic
##ère
honey
##versible
presentations
lob
odor
(1992)
dag
##′.
̂
##astatin
##module
arrangements
dissertation
4.8
elast
##1.6
legislation
biologically
reductase
intent
##002
##beck
##ediatric
2005),
bacteri
##iled
2.4.
payoff
##web
miner
0.05.
(7).
7.0
lyn
stopping
ale
##inent
8%
Æ
poses
relaxed
0.09
pools
##icher
##athan
strip
valley
##otrophic
##olateral
##tique
chaotic
autonomic
apc
##∞,
##comb
brightness
granules
##–18
##.31
spindle
sput
verlag
prefrontal
##ás
harvard
bmd
belgium
exceptions
intim
##ordan
##fet
merged
225
230
dor
cfu
transporters
herm
175
gaze
contours
lastly
134
flip
rud
ted
aster
wl
##uro
##complete
faith
brca
##hh
##scat
summation
##science
##plicates
##rus
##ormal
##kan
skeleton
##ranean
6%
recognizing
aneurysm
##opyr
besond
##electron
dimensionality
monolayer
##culture
##ilibrium
##verlag
enters
carolina
parasitic
##bens
perceive
registers
##cardi
##nucle
progester
ige
knot
##aphr
plex
nir
[31]
34,
implicitly
paraffin
interpersonal
salient
##lee
##-28
hypertensive
intraper
##fem
decomposed
##ensing
sake
189
apple
10,000
counterpart
sonic
##hill
unitary
[15,
scot
##fb
ontario
hardly
mitotic
retrieve
conjunc
pennsylvan
bark
scaffolds
45.
##without
##fas
##inating
haplotype
phage
deletions
##glucose
##11/
clade
##tie
representatives
placent
##nos
wages
existed
##havi
reproduced
##tan
malignancies
##conf
rodr
genotyping
##1000
lacks
##ialysis
competit
excitatory
germination
hormonal
negotiation
analogy
##reno
drag
depths
##close
void
##opoul
styles
2004),
jew
staging
136
tangent
william
tachy
50.
magnitudes
stressed
##plastic
mandatory
couples
##ubin
##functions
farms
##asure
##harm
##meier
colored
1992,
##lett
droplet
##rat
nord
##.36
##eping
occupancy
efflux
fibroblast
timely
##diff
kidneys
15-
autocor
whatever
##gener
##sb
immunodef
##smith
publicly
viscer
nieht
interpreting
brun
hazards
fairness
accomplish
reperfusion
fic
constantly
norway
tyr
steroids
pbm
catech
newborn
sanc
##ofib
##vectors
/1
##input
##date
##iatric
nah
##xp
proinflammatory
dann
nemat
obstetric
##:7
##person
##element
##computer
bytes
##processor
judged
##aran
longest
decou
progesterone
subsid
challenged
infinity
cook
2008),
antisense
groundwater
[30]
imaginary
supportive
occurrences
##ionine
adjustments
visualize
literacy
##ivity
##onium
contradic
euro
lamb
fbs
##ibria
(1997).
soybean
##cein
chambers
transcribed
##acetic
##ectable
executing
cultivation
8.4
restore
cock
##dat
transistors
##bottom
1990.
##posing
##ographics
##cip
restr
ligament
##stro
bundles
##ugg
victor
bread
destroy
cage
normative
myosin
##character
ohne
renewable
##due
##emp
gesch
##particle
asper
emitted
bild
inhab
##omerase
automata
bayes
215
spend
##avor
##resolved
[32].
variances
(22
procedural
designer
harris
##/.
##ishi
##yc
131
configure
138
legisl
##005
##ifen
ging
##uti
kat
tensile
upward
9).
hearts
esophag
##mato
##service
spectroscopic
ofdm
mediter
osteoporosis
45,
##weise
told
nanow
specifying
constituent
##oprot
url
konn
##uminescence
##romycin
forens
eo
0.30
cole
##acid
homes
lowered
##pit
droplets
##dez
governing
##ulsive
48,
concaten
4.7
##apunov
sher
##renz
surfactant
##tof
3.9
minimally
##econd
compress
fifty
##inois
answered
##oken
##cov
##uts
programmed
killed
repression
topologies
##......
##american
priorities
accompanying
##idis
(31)
ß
pennsylvania
0.01).
##003
fel
thoroughly
##urities
##amura
0.26
duplication
minimizes
##stad
descent
##evalu
fda
##elsen
trav
assigning
roman
taxonomy
##–22
jn
0.28
##wc
beim
##overn
##vn
##lass
jeff
lanes
reputation
mitral
##sat
equivalently
charles
##aterial
revealing
invariance
clot
protons
yk
tries
1999)
##140
##pbs
grafts
unequ
adulthood
proliferative
##rett
##connected
cerebellar
pand
durations
##tagged
##ersed
##-36
liberal
taste
reflectance
stanford
##effect
37,
enorm
##004
##full
##drop
potato
##hetic
stimulates
leukocyte
##mmas
intron
infl
##assembly
characterised
bam
##ubicin
microsoft
##andon
installation
chief
mosa
balloon
##..........
##-34
zno
##sterdam
mcp
8.0
##ierten
diamond
outflow
##rison
0.01)
indigenous
trail
2003),
tracing
0).
epic
foci
##eworthy
##otoxicity
igm
downregulation
##resis
⎠
##gic
selen
##kp
sludge
corrobor
organisations
scanned
##whitney
immunoglobulin
faec
tent
isomorphic
##galact
##applied
moiety
assertion
bibli
stories
tolerated
anomalous
surrogate
lub
inos
walker
schr
concluding
broadband
##cit
##aman
isother
tracer
##-40
paragon
##intern
nonspecific
38,
diarrhea
structurally
acetic
emg
descending
rif
(5),
##tebr
[16],
consortium
simulating
spikes
locality
##similar
incorporates
stirred
androgen
amygdala
ckd
##ogeny
##urgery
mgcl
[32]
##/$31.00
olive
albeit
pathophysiology
telome
clarity
##anne
alphab
chemother
morphine
periodically
##acity
compensated
##ibly
xa
muse
##ensory
aueh
suggestion
poles
##nov
precl
pulsed
payments
##23,
##ções
(8).
##inj
-4
harvesting
disks
nanoc
scenes
##agog
signifi
##elen
guinea
interfering
memor
attract
##zk
##cis
##ej
##yk
##fronti
(2016)
multiplic
##lemma
2009),
neurot
##sea
⎦
upl
disabilities
coincide
premium
experimentation
parallelism
##gia
##rof
anticancer
engines
##some
suture
##ika
##commerc
multiplied
appra
auction
valuation
##-)
##adays
uncor
##iant
intrig
5.6
##aque
tomato
verschied
##tv
apt
elegans
divergent
turbulent
##1.8
mutagenesis
1988).
glycine
##]]
avenue
̇
chips
##:13
yj
(6.
##dar
##iab
nmda
triangles
##asse
lq
evans
adsorbed
cardiology
##lipid
palm
1998)
prohibited
pairing
cuts
equilibria
optimality
##whe
##appe
micr
shot
##1.7
##coll
hek
##arct
leu
260
##eut
lighting
##mil
nodal
##hler
eukaryotic
pam
);
oracle
knows
û
##24,
endow
##yrin
retard
##lieh
rio
pareto
seaw
##aminergic
46.
##alyzed
barg
vinc
trapped
workplace
efficiencies
haemat
cannab
phantom
weigh
##=4
##20.
mitigate
iw
stator
bmc
qs
##mf
legs
##150
diagnose
##lev
rho
188
heads
##aur
hydraulic
phrases
pores
tumorigen
pathologic
##arial
buffers
(4,
##rv
affairs
cen
eluted
committed
Ò
qn
salts
##nmr
nowadays
coincides
##edent
##upta
noteworthy
iris
rnase
segmented
benchmarks
solids
##ubs
##oting
ware
subsp
love
makers
jb
(1991)
##idelberg
##uren
ribosomal
##vey
formats
##arcoma
listen
##ctg
##paralle
1975
glomerular
##constrained
medicinal
specifies
##inic
prod
cep
typing
293
hered
##tiles
kinematic
defend
##prov
staphylococcus
egf
##–17
1991.
brad
afterwards
sont
##hens
antibacterial
(32)
homogeneity
fing
overlay
44.
##eln
ligation
##sage
schedules
robotics
trafficking
##.38
deduce
protr
fred
##(2),
##unications
fuj
bins
expresses
arteri
##)1
##neut
##frontiersin
anisotropic
##inski
descriptor
originated
coupl
##achi
hypogly
hoff
##ahy
##odil
##abine
luminosity
modulating
tz
discharg
preclinical
##dev
##lit
##mart
2002),
##estr
supplier
##ilin
vesicle
resilience
profits
azim
bifurcation
mscs
schmidt
freshwater
apex
(1.0
canopy
discussing
harmonics
##ontrol
##emporal
##alo
[16,
##aggreg
jos
(1996).
lyapunov
disparity
39,
roi
##ropathy
denom
audi
aesthe
mack
##keley
##ividual
(33)
hsc
valued
stabilize
interoper
keeps
reynolds
##––
##loxacin
##oda
sah
altering
##usa
estud
##ears
132
##ffl
165
211
##osidase
epitope
bullet
disagre
5′-
reset
##acon
idle
dmem
##relations
poland
marriage
xs
[33].
guo
ending
detrimental
ignore
disconn
wong
rfid
eigh
src
##athy
seat
##stained
flexion
thoughts
enrollment
##cmv
##ularities
99.
paulo
orf
##statis
pseudomonas
##isal
consul
saved
##guided
button
##160
audience
heme
rim
1997)
generalize
quotient
##foc
joseph
512
acetone
##urface
axonal
volumetric
##osed
waren
debris
##wf
veins
##ocene
##strom
##yes
##between
downward
christian
##bene
inhom
histograms
##centered
1985;
turbine
partitioned
steril
pth
impairments
lute
85%
cigarette
protecting
##falls
##surface
integrals
clauses
##receptor
subscri
##eri
##objective
pediatr
##3.6
[17],
hsv
##ocin
pcd
##ceptors
differentiating
mtdna
##san
(9).
subd
##onset
##3%)
beat
adhesive
147
cultivars
asking
##mhz
antitumor
dong
docking
##(7)
16-
hrs
##〉,
##itosan
alkyl
##vile
gag
gesture
##iva
actor
convinc
9-
diag
plated
triggering
##onen
amend
cysts
10.110
recycling
zheng
##grained
ergebn
erfol
immunological
##titution
stereo
synchronized
##essen
erp
ganglion
nanoparticle
aspiration
47.
tokens
chlorophyll
##renergic
vertebral
##ocol
discrepancies
victims
ancient
disaster
##---
illinois
weighed
infe
##scan
ced
jw
##ican
radiographic
##okines
270
compete
2010),
ome
42,
##stre
##/2,
amsterdam
143
5000
cipher
dendr
ç
sid
mediterranean
russia
##geme
##∞(
plaques
stratification
##tidine
##check
0.5,
histories
completing
##mri
recre
xr
60,
lymphoid
uncommon
##hig
tailored
atl
lysine
##obe
##cadherin
[50
rag
piez
pneumoniae
##udin
whit
##2.6
jnk
salv
##1%
grew
##fixed
##six
46,
ica
scheduler
##izin
pci
12.5
ectopic
axiom
##800
enlarged
##pq
##]),
epa
##object
mö
dure
##ldl
himself
2012)
##pix
185
offline
##apeutic
secretory
1=
weite
plur
everything
tips
##acil
##ordon
##xm
corresponded
wires
##encl
##ycle
steering
bacillus
320
geometries
polymorphic
##atial
hypoxic
##13.
##roni
##commercial
fluoride
indist
willingness
##109
##wand
cube
##.37
arthro
spo
acknowledgement
139
sowie
##uvate
##ittal
##established
immobilized
entwick
accessing
ancest
hba
stepwise
pka
visc
pmc
suppliers
crust
submission
chat
pocket
packaging
socially
48.
##bg
concur
##uccess
##roscopy
##effects
idiopathic
engineered
randomization
haw
lasers
##0:
gao
icd
weld
##yama
##amente
methane
osteocl
##etermined
##2.8
##2=
qualities
atlas
colitis
##.”
inertia
salivary
taxonomic
cards
##scientific
peng
juris
meyer
##-35
palliative
teil
adduc
wright
daniel
uml
freezing
##third
1990,
medicines
nsf
church
irreversible
satis
superconduc
##die
radiative
positivity
kalman
coexist
##(·)
fest
lift
caffe
undet
##exposed
sigm
##pas
predicates
photore
intriguing
##wil
##.....
##21.
##otoxic
pedest
propositions
erm
2001),
endemic
##ponent
alice
popularity
##inib
##assess
marking
##ako
##encedi
##-50
enanti
storing
suggestive
##oxford
##sinki
physic
##toler
7%
linearity
35%
amen
##aceous
##tx
##107
ym
craw
ssc
0.33
duoden
discriminant
##downloaded
lying
liposomes
circumference
##tillation
##vl
##phe
superim
alters
##fan
##voltage
hypergly
forwarding
(10).
capita
##ounted
##:14
overt
carp
microglia
##sym
instructed
analogues
contrasts
endometrial
##ambiguous
≃
qtl
tec
96-
##chrom
3.4.
tween
##inergic
aiming
ties
std
##:15
41,
altogether
##cx
convergent
##regn
##]-
baker
##293
##itories
##111
hydrochlor
demographics
disrupted
0(
displaying
glaucoma
factorization
##ØØ
##solid
transgene
ori
bromide
##imetry
##venues
dress
##hedron
communicating
5),
cleaning
ics
1200
investigator
tourism
mck
loan
magnetization
governed
pid
##nar
##103
yosh
sinusoidal
mrs
glial
periphery
blu
jama
toronto
enlarg
simplex
addiction
mah
##iano
spill
attended
greenhouse
smad
consume
standardization
acuity
putting
notations
freeze
positives
##imoto
medull
formulae
carl
##jm
##encedirect
barb
##ded
##raph
exons
zeros
##scheme
poison
##ograp
constructions
uniqueness
autologous
##idazole
1996)
cough
##inguish
niche
##hasone
##.........
reconstruct
##(8)
osteo
##fib
hull
abortion
##ariable
##hin
fak
##erotic
##leigh
advantageous
##imus
##aser
##ра
pde
biv
oligonucleotide
ids
##method
terrain
3;
distric
mine
##.40
thy
influx
##2%
wb
12%
2000),
exceeding
216
fuk
metropol
nig
genital
##,4
##astern
##alb
##tj
vegetables
##agc
1991,
##odegrad
##–50
abstracts
10).
##agland
##threshold
vanc
exploitation
##nahme
shaping
accidents
multiplier
tall
interplay
dimethyl
[33]
biliary
##sell
discharged
##3%
##244
##tib
##dz
##kinase
187
pellets
##annon
powered
##yang
pmid
##generative
[200
##build
##aska
biometric
##fulness
adp
ree
extern
paste
nox
finished
behalf
abandon
##2.7
shortly
monkey
rq
vibrational
##oyl
nutr
##ows
##ylene
skull
##phia
hygiene
##portion
pax
rays
retrosp
declines
conversation
nucleation
##atc
##ador
kf
screw
atg
microsat
[34].
papill
с
door
##uw
ffir
subtraction
radiological
religion
[17,
##null
##adaptive
##)))
biotechn
0.27
hepes
abscess
clinician
implements
condensation
##0]
##sj
−∞
inherently
##-6,
agn
##estim
histologic
##partum
multiplicity
phospho
##1=
##198
##anyl
betr
##hoe
tons
##atcc
periodontal
reproducible
tongue
amelior
dissimilar
2−
##agmatic
splice
##:00
glioma
lupus
agrees
expenditures
##50,
specialists
dept
в
##amines
regularity
##aktion
meanings
##fah
qd
##pace
(2.5
contradict
##neider
forum
sla
obsc
##thick
districts
##ochen
myocardium
suspensions
##”).
chd
terminated
lod
soll
##itates
pipe
1987).
##distance
postulated
##find
##rov
fossil
ramp
(6),
bones
owners
ascending
##rg
##vex
##itating
/∈
intentions
accelerate
##cardia
opens
married
##late
leukocytes
(1990)
##measured
213
vote
linux
##istent
−=
authorized
0.97
cooled
##efficient
[18],
##.4%)
visceral
##violet
confron
compiled
##rousal
warming
fulfilled
47,
##atation
##')
##ilent
brazilian
##ryp
coffee
laz
intercept
##timm
dove
colonic
furn
##14.
pso
##look
browser
44,
herpes
geophys
##ência
eat
television
nhs
avoids
⁄
microbiota
backgrounds
##obenz
0.65
##1-1
##shif
##gate
leverage
hyperbolic
##eland
warning
portable
##ovic
##ognitive
neurotransmit
doping
##tech
0.90
inferences
splen
(1.5
##wing
village
chemically
##rological
taq
##1*
##ogel
9.5
discretization
##cys
##teries
##hv
inpatient
0.36
musical
swiss
autocorrelation
##–40
imaged
##adelphia
##yroidism
⎝
##zhou
##ijk
bog
rivers
choi
hits
haplotypes
##rea
abdomen
168
detects
##struct
micron
intermediates
##will
multimodal
surveyed
projective
⋃
##cience
relying
malaysia
##amethasone
erw
##unden
pregnancies
grading
perv
foraging
feet
cultivated
surrounded
1984;
ĥ
##uez
kas
##irm
assurance
pharmacokinetic
##diab
packed
##uche
roth
stew
2011),
textual
(2014).
(1995).
drawbacks
melt
##general
sums
prerequ
forecasts
##15.
porcine
supplies
limbs
fertilization
##ufig
rodents
vet
∣∣∣
##</
##label
##count
##ucker
anter
ethylene
clonal
posture
##phil
fecal
0.40
neglect
##road
nelson
nsclc
pyro
invited
##,[
sixth
##addition
##yses
146
jon
##expressed
atr
##116
meets
elemental
(5,
parasit
##0-
teles
qc
##arthritis
(80
##quist
subclass
hydrophilic
⎪
##univers
restrictive
-5
decays
reticulum
##aco
1989
##kv
##patibility
##108
comorbidities
##remia
43,
riemann
##even
cars
mtt
ftir
Ž
quadrup
undergraduate
inductance
catar
##ounce
##oj
convection
##estock
broth
vf
sky
##ellites
fidelity
##chell
chaper
##merc
##ferent
##40,
##aacr
hepatocellular
helsinki
angeles
acceptor
senescence
converters
##.2%)
##(10
tibial
cmv
0.34
seismic
imperfect
dominate
algae
##16.
5.8
foundations
motors
blow
##inology
inset
austria
ovary
##sio
gateway
antec
iodine
photographs
á
aliquots
##[(
flowers
##..............
##wn
##.'
##orubicin
##accept
##groups
cranial
homot
##olith
sold
elucidated
continuation
##apt
uma
abolished
##generated
trapping
148
eryt
encoder
invalid
delivering
##idia
abr
##conver
neighbourhood
platin
##abi
boards
##sibly
ation
piecewise
kos
monop
arte
duplex
logarithm
wafer
pollutants
overw
##prol
4000
microtubule
shunt
##orphism
##stock
##govern
noticeable
##parallel
topography
49.
nigeria
0.80
0.38
gra
completes
multiplying
uro
lars
##lj
##days
phenolic
unambiguous
orbits
##-60
therein
##icate
genu
(34)
217
dysp
¶
interviewed
nonnegative
wp
halo
mononuclear
##17.
maximization
subcellular
wildlife
##miss
##لا
##gang
diffus
##identified
complaints
ganglia
intrusion
sri
(11).
sporadic
tuber
scand
##spr
##10-
meh
attempting
researches
chitosan
cet
##subs
striatum
sof
erythem
##management
dominates
gonz
gestures
anatomic
3/
butter
modulator
sketch
joining
149
isbn
shin
[34]
speculate
stern
demanding
hyperplasia
sheath
warranted
##ovol
marital
##27,
beste
transplanted
()
##bing
##iation
##bk
acetonitrile
dotted
##ét
##halt
ya
buffered
vap
initiating
shortening
##haw
sight
tablets
##error
##(5
100-
listening
0.29
##oured
automaton
##burn
inlet
este
chemot
##-2.
tolu
##brids
carcinogenesis
##gren
trypt
engaging
qr
fiscal
seasons
beet
##asant
alert
approached
##efficacy
[35].
##friend
##atosis
##ahoo
##tige
oak
##essive
disulf
fes
microsp
interfacial
jung
bcr
##region
phill
##else
keyword
oss
arsenic
##usal
pge
sst
##titis
concurrently
tutor
##front
printing
vg
phones
##licher
golgi
##lle
##umes
lived
##asal
neurobi
cleaved
##mented
corrosion
thermo
##iza
vv
gelatin
ito
##retro
carbonate
##на
xe
reper
timed
axioms
kop
einzel
##individual
13:
naf
connective
eben
ageing
##orp
ureth
##math
##ordinate
tidal
joined
##adium
2013)
##oic
sist
tiv
justify
##iters
layered
attraction
aaaa
##ermann
##tnf
(12).
##agner
mobilization
ascorb
cus
[18,
converting
##appeared
consequent
##lym
##nj
guan
##ém
privile
predictable
##vens
launc
ere
##conc
maxima
geodes
##ро
##erving
safely
pms
14:
##apie
ingestion
wf
cxcr
##ogenicity
twist
thrombin
##opoulos
contention
##zin
pathol
thousand
actuators
avec
downregulated
revis
recher
augmentation
inquiry
rewritten
placental
yl
ttp
philadelphia
tilt
##asks
arb
heights
∝
qpcr
##ailand
solves
tagged
nonlinearity
##...........
pyramidal
evaluates
flower
##toc
##)3
fishe
##atinib
##–25
multin
subgraph
##px
##.39
##lishes
iga
##ethanol
morris
phosphatidyl
##sions
##stranded
##feed
zahl
peculi
##odel
ende
calling
214
heidelberg
##/11
##reich
paediatric
ppi
0.70
philosoph
helical
##αβ
neutrino
##102
glycogen
##sibilities
livestock
curved
bottleneck
##awi
##~.
decid
movie
##xia
cq
crosses
##itarian
neuropathy
variational
##](
##iki
##dav
##behavi
accesses
anaesthesia
##180
mold
argent
disposition
incon
rnai
mx
rectif
presently
kang
climatic
indistinguish
##owitz
##enders
cephal
deeply
singlet
rotated
causality
cerebellum
entrepreneurs
##opos
afm
prison
csp
dangerous
7(
153
##correlation
indones
##iri
zt
rewrite
imagine
##oblastoma
gating
##ishman
nickel
157
orally
##shore
##workers
transloc
exhaustive
##ington
##26,
##buffered
medicare
underl
##–24
##1%)
mate
##otemporal
radii
##bri
manipulated
quatern
omit
##.5.
verl
associative
taxes
immunostaining
unbiased
##media
##asa
[19],
0.01,
##hat
156
rinsed
analytically
##|,
##berry
jg
vb
##ethe
degenerate
##2000
##worm
essence
1989.
endors
depleted
##color
admissible
##wl
##oxygenase
comparatively
unim
historically
pacient
##°,
##.......
suz
insol
arginine
chloroform
och
wisc
aaa
##obile
categorization
8.1
unauthor
##wich
bioavailability
[19,
##jiang
jordan
unsupervised
fft
##ista
cec
##dq
##true
photosynthetic
poul
aba
town
##pu
##uities
synthesize
platinum
xia
##entration
ern
crystallization
##fis
##endo
##...............
tbi
abrupt
##+.
##,0
stops
parametri
##significant
stabilizing
##acyl
##ostat
mov
posed
##utr
bzw
rotations
deposit
deciding
##[0,
##sit
##ardial
virginia
tuples
##aemia
conformal
cytoskeleton
##trig
ejection
(1989)
grounds
(1.2
paradigms
rodent
aph
##fly
##fk
trp
##ulmonary
liability
##-33
naoh
##lac
##lia
hyal
morgan
chu
viscous
enormous
nous
##itaxel
##umber
##enzyme
cardinality
relie
##separ
resusc
lasting
supplements
##.............
0.96
returning
minima
pend
distribute
##chl
bilayer
minerals
##ferroni
polypeptide
guiding
##:10.1038/
ala
diesel
##/15
titers
spaced
sized
kinematics
robinson
screens
suffices
poster
thailand
##ipot
##arbon
8.2
fractal
latitude
campbell
bdnf
##eton
nice
originate
##1.9
##roids
4.3.
chin
mitigation
##aning
rayleigh
alexander
##illo
gift
scaveng
presumed
(35)
agenda
strands
##utch
802.11
manifestation
159
##acg
mys
##ausea
swimming
gathering
##–(
rdf
digiti
10.1038/
epitopes
sip
reviewing
fingerprint
##,1,
zip
horses
abnormality
dish
##problem
invariants
acyl
heterozyg
##shell
nes
nun
##gated
maneu
deriving
websites
##31,
cada
##pj
header
logistics
##series
facet
hardness
vertebrate
mosaic
1:1
wilcox
election
10.1109/
##aacrjournals
##lane
##cessively
extrinsic
##cj
ventil
calculates
overwhel
aps
legitimate
compressive
10.1002/
ineffective
highlighting
daw
coral
roads
inefficient
’’
resonances
ober
endos
mats
outdoor
spoken
##ès
alive
##fac
##ibrary
attach
apoe
gering
##tigen
##onymous
bureau
∞.
##dot
ebv
therapeutics
amine
tracked
preparing
concave
charts
##cyt
excised
establishes
##argo
##throughput
0.94
##serum
ingredients
czech
builds
##iga
##icle
fermi
##ivan
crest
mcs
forensic
55.
homepage
ons
handbook
##ccs
##–100
formalin
suboptimal
##gold
posit
##/10.1371/
##alytic
##reference
wed
qm
16:
##earman
vomiting
1986).
baby
happened
##onsin
approaching
appoint
watson
##4%
##charge
fw
cher
porosity
##books
##spot
lun
##pressure
attentional
##icol
##cluster
##afil
(13).
[35]
closing
##.45
0.78
ell
pulp
voxels
##brand
subc
blots
hollow
progenitors
mip
##elin
discern
P
[36].
186
calf
##enching
##fh
estimations
nasa
follicular
hw
chand
engineer
noninvasive
nonparametric
cnt
158
##apine
##minute
canine
balb
arousal
avian
[[
##bmi
##cct
(∼
##alone
##entiality
##phones
##115
proteasome
brach
intrac
mcl
bounding
1,2,
neonates
uterus
exchanges
##nutrition
49,
endoscopy
##users
##/4.
##-39
weiss
cartesian
mcg
##antes
gapdh
##ün
scc
hypothesize
monomers
##2);
##select
symmetrical
##/14
esi
discount
##orr
##rein
##atonin
contractions
nose
osmotic
dopaminergic
rah
2012),
treg
##123
crossed
##3.8
##hend
iteratively
##leading
##yclic
##photon
gleich
pleural
##···
rewards
##ardo
nanotubes
4.9
##patible
1995)
inducible
watershed
##oac
301
154
##millan
(1994).
raj
##intensity
spiritual
skilled
preserves
##amps
redshift
berkeley
territory
immigrants
166
reception
##approximately
##coh
(5.1
0.001),
##bv
##anck
ank
traps
blinded
mdr
177
lund
distorted
jour
##aclitaxel
rendered
interconnected
5.7
1999),
scholarship
##thermal
rearrangement
lenti
revers
1988
##mente
##,.
##proof
uj
nausea
##support
retrospectively
##arms
##terminus
turk
##recogn
crown
(|
refe
##wert
puzz
drastically
wy
##?,
##recht
##ikation
##-4,
##gran
sequel
lymphatic
##zoa
urgent
##beam
nadph
suppresses
taught
##32,
fut
doug
##qc
subcar
##inis
quarterly
##izability
coe
catechol
##since
##project
##task
chun
[20],
cardiomyopathy
0.60
##entry
reflective
##hart
chord
bridges
unauthorized
Ä
gö
##itting
asperg
anderen
unobs
monotone
##adv
atherosclerotic
##weis
veterans
Á
couplings
##oxylin
##riers
dexamethasone
##made
##adesh
manipulate
chemokine
##hiv
275
adolescence
trusted
immersion
checkpoint
decentralized
##rogens
eleven
hybrids
respondent
##cers
prostagland
hunting
pedagog
scarce
bacterium
##acetate
##very
sister
tradeoff
bx
ez
ẋ
##ocycl
dissected
##sus
##brown
##pain
##asser
probing
photosynthesis
rodrig
subsystems
influential
seriously
##course
placenta
constructive
219
wounds
developer
abundances
classifying
##rost
##sheet
births
neuroprot
seeing
testic
##unication
migraine
fy
classifications
assimilation
##128
yc
##rock
horse
preferential
sek
##007
hdac
ranks
##:17
##halb
degrade
amazon
leon
logs
disordered
blog
##ipital
##133
0.37
##inst
##oplasmic
##derungen
cps
ink
perioperative
migrate
impacted
suitability
yp
##arbox
##dor
##icep
decon
(70
##within
oncogene
##held
vertically
nanom
##1}
##study
##onically
и
##inde
##esophageal
##28,
icp
##terious
informatics
hog
reed
surviving
army
1983;
sentiment
(14).
emergent
digestive
hä
protects
##uage
sexually
##ahajournals
8.3
pesticides
begun
##adp
##plantation
##othe
pharmaceuticals
##oselec
spermat
antioxidants
teach
stead
undergoes
discom
adams
##tests
##azep
heterod
##mscs
##roche
##except
sagittal
bursts
(7),
annually
emulsion
proteases
%.
humid
disappeared
duality
∞,
depart
pest
gat
##iferative
##ferentiated
invertebr
−3
pitts
harder
cds
##quer
ŷ
##:16
pré
##qn
emphasizes
ä
landmarks
##vas
hypersen
##eca
iowa
uni
##izz
167
##omotor
##mix
menstr
genbank
evenly
resembles
corticosteroids
##lk
pah
conjugation
spaw
blackwell
consolidation
##-1),
##isors
trif
anesthetized
personalized
trypan
##hoff
transmissions
í
##icial
##omyc
rises
pointer
sale
propagate
titanium
##phan
toll
peroxidation
##1);
##2.9
ccs
##-2)
higgs
erythrocytes
cytosol
##2%)
##mis
zk
erst
R
dipl
follicles
pancreatitis
lysed
verbs
strips
cathode
reprints
##pid
##''
ibd
silva
##qj
tms
alanine
##0001
miy
##olia
testis
bringing
fisheries
listing
businesses
multilevel
##ieu
2.5.
##umatic
deleterious
{{
selbst
survived
##mium
##cdc
routines
hoch
##stellung
wisconsin
maryland
tern
##6.7
##ophan
everyone
brady
nx
antipsych
##aben
biodegrad
pace
relied
justification
tian
batteries
tablet
violations
Ð
##-6-
##irubin
errone
pag
1.25
vanishes
##icc
##utin
##warz
pherom
melatonin
geo
winding
noun
quartz
radiographs
##olone
cil
rpmi
hox
oocyte
admissions
##-38
buch
##optic
##fungal
##ysiol
functionalities
dyn
##lov
curc
outstanding
##-199
codew
tolerant
inserting
##alanine
progeny
mediation
##rabbit
ischa
pivotal
macmillan
fingers
multivariable
##ctc
mpi
mais
bidirectional
##(9)
analysing
##ïve
elbow
##birth
##reb
kth
chapters
##kda
##tilis
mall
##zeit
(23
eco
middleware
breastfeeding
modi
encrypted
shah
seoul
ipsilateral
csa
democratic
##uric
fen
0.85
exerted
↓
whi
tunneling
hysteresis
certainty
seal
desen
ultraviolet
constituted
##publications
cxcl
parsing
##qiagen
[20,
bek
205
aerial
ŝ
agreements
##arean
(4.2
bioc
plc
eig
isomer
rts
##yma
acquiring
(36)
[37].
equator
##male
erf
dyes
comorbidity
dishes
failing
dysplasia
optimisation
51,
##heter
cloth
autoanti
##cca
->
insectic
##–23
fees
writes
producer
##erung
lifes
deficiencies
primitives
dsp
0/
fischer
quantifying
##|.
jitter
##although
##atpase
bonferroni
bulletin
169
qualified
ruled
##odend
terminus
calcd
(2.3
hospitalized
##uxim
##global
qa
arbeit
##mur
breed
##memory
burning
polygon
##hua
stoichi
25-
increments
cryp
farming
hydrodynamic
1√
insensitive
chile
adapting
financing
displacements
15:
##isible
adaptations
ه
mech
##29,
##artan
distortions
##)],
luminal
100,000
depolarization
1950
enhancer
##these
1998),
holder
##agle
garcia
##physical
csi
##inates
silent
schl
payload
##12)
conformations
##3.7
fight
misc
xc
##ansen
wolf
archive
ausge
freshly
gras
[36]
creativity
imperative
##aris
diaphr
removes
340
jaw
lw
homo
multicenter
discontinuous
flowering
##cause
0.67
sensation
elaborate
##117
##social
##caa
discomfort
annu
–1
doxorubicin
elution
__
crani
proteomics
housed
triplet
##formin
undesirable
simplification
##qt
mud
cardiol
##osum
postpartum
proteolytic
chow
ctl
3⁄4
cao
denoting
##psk
seam
kun
klu
sph
pars
osa
##iances
eligibility
(15).
184
caudal
hbs
##market
ave
750
komm
8(
iop
1987
##loading
epithel
##.44
outbreaks
opportunistic
##ells
wrist
##signal
bronchial
##mh
pruning
contractile
##hrend
dureh
seeks
centroid
##andez
griff
##xxx
psori
(7.
##ede
dilation
neurologic
wd
assigns
##oqu
predator
##bands
caffeine
postoperatively
lemmas
##osarcoma
##mort
##mj
##legal
mismat
##itum
##afted
##graphy
exchanged
##reira
neurop
##otyped
adenovirus
grounded
##eli
##opathology
micror
overexpressed
hct
##plasma
certificate
##kim
oils
borders
polymeric
mock
animation
rend
surplus
chung
probed
abelian
alphabet
grafting
coronal
competent
##fab
##hall
pursuit
0.68
##otive
##arn
−(
164
##|)
##jee
georgia
##ashes
##-32
democracy
herz
waist
sugars
##aternal
glutamine
bedeut
lignin
alignments
dispro
midline
particulate
##htm
##onyl
candida
##mach
##gib
45%
immunoblotting
coils
widths
##cgi
sha
mont
trna
insufficiency
analgesia
acl
departure
##igg
##18.
##ierte
gratefully
advancement
##oscope
merit
sweet
##4.6
##bred
550
##tumor
algorithmic
##rentz
bmj
dct
swallow
mpc
rubber
ganz
recognised
##)〉
arn
##icans
amplify
granule
(400
dwar
guang
##apolis
pyruvate
patents
expectancy
costa
monocyte
favored
52,
scri
(16).
damages
##:9
##uncture
##omatous
##natural
bun
risky
buyer
##dia
##umen
##cambridge
photonic
6.8
##jbc
lai
##delay
##optera
##transl
##rement
routers
dislocation
permutations
##vy
sbp
letting
6.6
(2.1)
##ffer
granularity
kaz
##–60
##arynx
##ensors
##tol
inertial
excellence
sealed
beobacht
smoot
utilities
blade
planet
mds
funk
eigenvectors
##19.
##geben
(37)
siblings
##127
##apa
##echopen
saliva
labelling
##acad
##ipore
##transformed
hmm
##cia
##schitz
anger
contributors
colorado
eliminates
solubil
linker
gaining
mandibular
feng
remn
dealt
##bot
optimally
foam
⎣
##gels
##-05
manipulations
federation
##/13
##upper
##-45
##uto
oe
##dependence
resemble
subtracting
##iko
##exc
##∗.
prel
##uo
ensured
weber
##opolys
sarcoma
hö
##training
##inus
estradiol
homogenized
extremity
viet
##anto
kappa
finitely
##opropyl
163
propagating
sciencedirect
##away
##obac
museum
erh
inflow
##uximab
stringent
loos
(1988)
rhin
1989,
##transfected
grazing
toxins
spores
##otransfer
denaturation
admit
[−
##weak
##alg
microstructure
2018,
disposal
hpa
##enteric
[21],
carbonyl
quenching
##school
##carbox
##erer
earthquake
##ión
(3.3
diesen
assoc
epidermis
raz
cca
jane
eut
bubbles
andrew
##lg
polyethylene
greece
##genesis
##specified
perinatal
faulty
alliance
amide
dul
morphism
disulfide
traveling
(∆
wherein
superposition
absolutely
##anners
stably
turner
##000,
spa
##brom
rooted
predators
adiponectin
1985).
60.
[38].
biore
lobes
announce
moh
##ogeneic
infarct
##dos
expressive
admits
##especially
sexes
##hir
##amel
##odialysis
perturbed
configured
##mad
173
##-37
##wo
(=
ems
##retroviral
##:19
russell
yuan
adipocytes
##rout
recherche
exciting
##gramming
debug
##dj
ñ
##tension
1985
monitors
##supplemental
bloom
pten
schul
virtue
##stoff
ase
disparities
##econds
##consuming
typh
modulates
preferable
##umi
wg
##educ
##validation
##006
caroten
##tische
commodity
anticoagul
##anç
propagated
connects
sensitization
argon
password
starvation
(75
##have
183
autosomal
##search
suffers
##hou
haus
stephen
resonator
1982;
entail
##imi
femur
0.64
142
inductor
##muir
lawrence
singularity
reforms
##thi
(1.1)
psoriasis
inhalation
pem
##sequence
suspect
rbc
##ource
osteoarthritis
ate
atpase
warrant
##/2.
rooms
##4.8
nontrivial
##home
lx
reinforced
##wald
foreground
179
postmenopausal
infrequ
energetic
hypo
leishman
##ensable
##abc
microtubules
##say
0.005
renormal
predation
multif
hydrogel
pursue
##osm
1].
##heits
schon
alleviate
##acher
arom
##yu
##formaldehyde
gordon
colocal
##omod
152
radioactivity
owned
##orig
2014)
pmol
##uin
##resid
strengthening
electrocardi
5.1.
html
catalysis
##.46
maj
##cultural
postsynaptic
##.43
fetus
isotopic
##states
sql
painful
combat
phillips
##dimension
eif
mend
##-5-
prospectively
##dark
##pret
pra
galact
##excl
retrans
specially
ral
##acycline
physiologic
##,5
(6,
rin
(8),
##+1.
##lived
sis
##effectiveness
##qa
(#
11)
##likelihood
##iento
schn
hispanic
##acic
.....
liquidity
thiol
enforce
55,
manifolds
abi
chaos
seques
twitter
pretreated
##avas
hein
##sagepub
interchange
##tiz
wis
##urane
cavities
,1
##eight
cationic
##asible
masking
##ifold
diesem
moduli
arts
reconc
##cellulose
imported
##015
vowel
##intr
##bodies
portugal
##ipt
multiplicative
tsh
finish
displaced
fractionation
##stm
antihyper
##iosis
##injection
economically
jean
teen
##sta
dirac
sees
revascular
ack
dovepress
accretion
##!,
seminal
rolling
sitting
##mias
acetylation
esters
maximizes
##bury
supr
##ostatin
responders
adjunc
(300
caching
fitc
prompted
grasp
subdivision
roche
##inet
tied
toluene
##cold
wine
##otroph
orthopa
##uder
##mess
(193
oscillatory
##enk
leng
bioch
aside
##(3,
##nesota
contaminants
1994)
bioactive
##rj
jar
whites
##idated
dengue
ofthe
microc
6),
entom
refine
##yel
##orum
##neigh
binomial
ĉ
resorption
fruct
218
##encer
##öm
analogs
##iesen
ecol
subtracted
##bos
iot
alber
advisory
##2*
2013),
nanoscale
(17).
##cripts
sé
undo
##maximum
##peer
##tizing
##quet
swing
##qv
##matical
##rek
##thr
islet
abst
##nor
##zol
emt
frustr
shelf
locomotion
constitutional
##pla
sage
emerges
pakistan
pacing
schwartz
prp
1997),
##/)
##),(
crash
escal
umbil
##ín
##ibt
internally
##iele
6.7
##tiss
practitioner
fishes
##formations
57.
fistula
dentistry
##iced
phylogeny
hypothalamic
ecs
determinations
9%
specialization
transcriptome
##inance
lump
tile
##iven
##/10.11
constell
uniformity
##subject
answering
wales
hydration
myeloma
sixty
0.001,
rao
##2-1
unlabeled
paclitaxel
rocks
(1993).
##0}
##pap
mathematically
##")
mz
##urea
##angers
diversification
##scher
burns
veri
capacitors
##opia
isofl
##embr
ampk
##intensive
7.6
##stic
##hardt
1988.
neumann
immersed
preceded
rectangle
fundamentally
advent
##ikawa
puf
supp
coatings
discs
176
ipv
millions
resuscitation
10.0
losing
parameterized
##8.6
##gend
compensatory
integrative
##/16
290
geological
##stan
multipath
##−,
0.74
monolayers
metformin
xed
##vk
(1987)
benzene
disabled
##doped
enteric
##gro
titration
##util
disrupt
neuroimaging
##,*
isa
refs
¿
loans
fores
syringe
correspondingly
exceptional
modulo
##friendly
##stroke
##aturing
testicular
collateral
restricting
cardiomyocytes
endometri
visiting
chemokines
##ozo
peace
1–2
trabec
explores
##bee
tremend
vergle
##teral
anode
coulomb
fifteen
##ytic
pittsburgh
didn
##had
&#38;
##labelled
sirt
##lymph
cacl
recursively
##tables
xanth
vestib
roy
recognizes
mts
tukey
##epithelial
/0
1986
##ecyl
uh
[37]
mount
##jb
raf
prophylactic
##esteem
antifungal
macular
normality
[21,
catalase
vegetable
[39].
dilutions
##013
schneider
occasions
pcb
liquids
ι
pfs
reperto
cms
dorm
##string
##60.
##romyces
effluent
##azone
##analyses
pione
settlement
amplic
##-.
novelty
launched
jedoch
seawater
eug
##urban
uncontrolled
sphe
bees
neoplasms
etching
substan
bead
internalization
xrd
178
##direct
65%
##party
maxillary
##−)
synapse
citations
truncation
sati
temporally
##bw
ryan
##event
cosine
##heastern
##lick
##ayashi
currency
lysate
minnesota
jam
phonological
##nick
ultrasonography
meshes
unexpl
##ahydro
neoplastic
##ordant
conductive
uav
##start
lenses
outlet
stick
gsk
summing
##iq
fq
##anson
0.21
##digital
##osex
##hips
##yrene
quies
##thy
pervasive
-1.
lasted
jensen
##oup
##grav
330
crit
wagner
municipal
ohio
precipitated
kary
reserves
##intechopen
regress
certification
##tzmann
##selected
ally
anyone
kx
daughter
können
solute
unic
fibrous
destabil
endocytosis
##avoid
0.39
besonders
##.42
cancellation
prescri
wilcoxon
pink
microsatellite
##hetamine
2–
stigma
##acian
fixing
loose
facebook
ambulatory
encounters
winning
##3);
hansen
##single
##ayama
repeating
triglycerides
optional
marginally
summed
fev
ancestral
##agger
0.77
separable
qp
##ovi
perip
synthesi
##filled
⎧
##igned
##oxicity
##atsu
bargaining
(26
##onine
##propag
##parent
##concept
worlds
##vit
dieses
encapsulated
computerized
accepting
peters
saying
##teren
android
graphic
manifested
splenic
oxides
resolving
−0.0
##pus
##atine
facets
##mmol
oft
##genden
calcification
thro
chlamy
##ophils
##thread
reply
unrel
fishing
##fitting
##549
rés
undi
##omp
technically
##oker
##>>
(35
bridging
10.3
##yj
##iu
##metal
caucasian
##.48
apo
##oxifen
matthe
integrates
##atia
##19)
remind
##wu
##camp
ehr
##ofacial
analgesic
##.~
##works
cadmium
functor
##odontic
psycho
##econ
enf
draws
confinement
Ξ
(90
1988,
141
ihre
##ocompos
murray
koch
unterschied
michel
allelic
##uccessful
##variable
lorentz
51.
doubling
##represented
##roleum
stressors
##ocs
lte
avi
(194
18:
##/8
launch
##8.8
sang
dac
##25.
##nish
##refer
leis
lamina
transpos
bary
2].
fungus
substitu
##stor
##±0.0
ourselves
##–200
streptomycin
anz
jug
herbiv
mitchell
prerequisite
dermal
constitutively
succession
(18).
directory
prescribing
covariate
sine
releases
ceramic
##250
##6.6
##ophores
<0.001
syd
##butyl
musculos
##gut
+∞
##products
##ectom
gri
discharges
##tab
##ttes
terror
##ospheric
luminance
eins
smc
##ografts
exploits
spark
cerebro
##uker
gear
2017).
bz
dai
etwa
uplo
phytoplankton
feld
hopkins
linkages
capill
##xb
##nu
##neurons
twofold
telomere
174
##oco
##opher
lad
##obut
##ко
primates
acetylcholine
##jet
unwanted
aac
##ationally
##ameth
##rays
puncture
violent
antiretroviral
##endocrine
##timore
embod
flooding
holistic
locomotor
gibbs
zusammen
##3-1
208
##fos
occasional
ulcers
ding
##hybrid
##gets
##viii
declining
brackets
##cover
deterg
nish
##follow
##eclamp
maybe
##lus
pertinent
outgoing
##molec
shaft
##2.2
carbohydrates
piezoelectric
##farin
catast
entrance
cholinergic
ended
newer
##join
dabei
##/17
disturbed
Ñ
##vch
(500
##ymmetry
alloys
einstein
rgb
(2015).
cic
immunotherapy
##kol
##ovial
enlargement
pdgf
##olymers
vertebrates
slc
legend
kits
##cognitive
##iveness
(38)
sharply
qrt
##arter
¥
##acks
##ibrated
latencies
##urus
digits
zug
causative
,0
##short
##ubated
##.55
##language
corners
retardation
##thon
tol
porph
##unde
[22],
translations
slit
##22.
.)
##onuclease
vasculature
##wig
histamine
collins
##expensive
scientist
inaccurate
liang
sys
##othor
poultry
transferring
##qq
precipitate
##tii
##ır
logn
vu
unpredic
manufactured
##ovich
0.002
##100,
##oplast
chemo
##ordered
vanishing
##jc
##.56
vibrations
transcriptase
##ggt
0.76
##oxfordjournals
erup
##translational
##.47
##quad
##embedd
dichotom
##irc
septic
[22,
subtilis
analyst
nomencl
##kc
(28
confidentiality
##structures
consultant
mantle
disagree
54,
##ни
alf
##tischen
sial
bioge
tunable
prosthesis
behaves
(.
##ficially
pis
flaw
(40)
##({
microp
endocrinology
murphy
xiao
€
perfused
trout
hereditary
throw
behav
(0.2
##arbonate
flowing
7.8
parenting
leth
##pattern
favourable
1.01
##because
chromatographic
anno
homogenous
##−/−
unin
acclim
##145
##30.
zr
##each
##final
concordance
##nitro
##nac
entails
1-2
1)(
subscales
casp
allocate
##uba
llc
tactile
¤
triglyceride
mps
nrf
ux
yb
##hmen
gupta
%),
pav
ĝ
covalent
##ivided
480
lda
##artite
0.55
opposition
organizing
##imo
laid
##occup
instructional
##ktop
[38]
##opulmonary
intraperitoneal
##dase
##erce
##ipa
speedup
##engineering
superimposed
##]+
zwei
shrinkage
##34,
##700
decor
0.0000
elective
rapamycin
circuitry
##-67
beds
aneurysms
53,
##ionized
hypothalamus
(9),
dss
coat
dimensionless
(19).
##direction
bend
cheap
tumorigenesis
##jt
juice
discriminative
ami
kras
##omorphisms
semic
tsp
##charomyces
##xiv
##production
utterance
##ococci
oven
defence
infinitely
17:
sali
weaknesses
##mx
ott
lange
curcumin
goodness
9.1
##2}
##5.6
necrotic
premise
facs
bolus
12)
##kat
1984).
welche
##amed
microfluid
runoff
husband
prednis
theta
##wie
##anil
microvascular
happy
##squares
fcs
##124
##chol
##idone
##hepatic
metropolitan
##/9
cuff
##pent
caries
0.66
##eler
polyphen
quadrature
##114
##vj
segmental
2]
##yahoo
##3.9
##algorith
formaldehyde
fibrinogen
##mag
##host
accountability
translates
inclusions
ÿ
##integration
forb
##ocytop
##ollen
##ande
soa
tells
outage
##bmj
persisted
hob
##arger
persu
##rystalline
##qp
kenya
characterizes
310
occupy
lov
tagging
ante
##gender
incontin
cataract
##oshi
0.32
liber
rome
inactivated
##1.3
cov
##=−
1996),
bivariate
suppressing
##entials
intran
##iquid
patterning
psychol
##pls
khan
jth
##sir
mci
ants
##ophe
straw
dissol
(1986)
##xu
queens
identically
##insulin
immobilization
silk
##icus
##pton
##adrenergic
sos
ortholog
о
presynaptic
(0.00
dollars
##uka
gpa
frontier
##hon
##otti
proceeding
##anus
##6.8
haemorrh
sorption
leh
stacking
seemingly
transiently
crf
sedimentation
flame
allogeneic
##iehen
##(3),
##mog
##fill
(39)
##aliana
##big
thymus
managerial
denominator
multiply
##romagnetic
##8.9
labs
##found
clarified
mig
moss
watch
competitors
##commer
[40].
edwards
maria
strat
divisions
outlier
neuromuscular
ore
spearman
underlie
linearized
##actors
325
##ción
shrna
receptive
##screen
##dan
longe
##mom
conson
##cow
chances
sondern
##princ
biggest
gor
pluripot
southeast
##ttt
##interest
musculoskeletal
##oconstr
sedation
##135
barcel
##uretic
outward
legacy
##ovsk
appeal
ũ
##hev
psd
henry
sparsity
effic
exerts
##ÞÞ
analyzes
specialty
amer
(2017)
##icion
containers
##call
unstructured
albicans
illnesses
##gramm
investigates
##meyer
kenn
##neutral
colloidal
myocytes
##poor
enth
asa
qk
desorption
pertaining
organisational
glas
corruption
##fj
ctr
doped
##commerce
reside
traced
loud
directors
99%
iti
delete
nitrite
##keeping
##urnal
##aterally
rigidity
nomenclature
##01).
##obacterial
##alent
##iba
##cass
##–0.
riv
responds
intubation
##acqu
##usts
heard
basel
##institute
stirring
##.41
metac
fibronectin
5.9
reass
convolutional
mole
müller
lifting
dehydration
deadline
valves
cag
outperform
##imento
##jud
xb
##cole
brownian
##arel
##oft
metaphor
##illy
prox
##structural
unfolding
meteorological
##auth
lux
naming
##126
bomb
iodide
islets
##relative
danish
refuge
continental
N
##(5):
dnase
therapist
expansions
thaliana
stays
##53,
##4.9
tung
supervisor
resistivity
epi
##plasmic
hof
credibility
##overl
[23],
##)→
ili
contiguous
[14
##ticing
follicle
antidepressant
pals
violated
xie
(0.4
1987.
##rospinal
##23.
organize
cages
devised
acup
uf
##ampling
beneath
stainless
misclass
everywhere
fsh
(20).
##119
caregiver
+=
##forth
[1–
##ratio
evac
contrasting
î
mirr
##hod
elite
##fü
##ccc
cai
endoplasmic
##medical
opposing
oly
##pered
worden
initialized
##inks
subscale
T
jejun
homomorphism
pumping
##puted
neben
unpaired
oxal
weib
##root
contrain
apj
cts
##atite
backscat
caf
##peptide
criticism
cleft
##gon
##gcg
bour
honest
redistrib
cryptographic
##flex
##<0.05).
regenerative
##hous
photovol
retaining
##evolution
##either
##yb
1981;
ignoring
medicaid
60-
##ipedia
decides
##links
##osexual
ctober
weighing
não
##insky
quadrant
optimizations
##lem
##proper
***
cones
##gk
boh
gamet
##early
##dual
palp
##comings
discard
##cnt
##.1%)
invoked
##-43
detachment
##safe
owl
##ahashi
philosophical
grip
spurious
depended
coales
inhabit
deaf
twins
hallmark
##uchs
##itions
excel
radioactive
hamm
##factors
neighborhoods
dpp
##affinity
hughes
##stalk
adopts
nis
(1992).
##upt
decryp
interconnection
autoreg
andr
dimers
##014
##traumatic
proteome
##results
urg
seller
##arma
houses
slab
tails
151
sei
##jones
amd
schwe
##convex
cohom
##oblastic
stroma
lth
reus
luo
mrsa
sweep
##qual
chimeric
##:18
59.
famous
udp
zm
flask
programmer
reacted
0.88
##rophys
##ogaster
langmuir
arctic
mycobacterium
empower
##wp
##vert
iib
deflection
##stress
wax
microbes
aesthetic
nz
aki
dbp
sax
folded
forget
hmg
sund
##perm
falcip
##8.7
micelles
gata
cosmic
298
##coupling
##oil
##otoxin
compelling
surely
orn
oliv
##spin
erythrocyte
cpt
##hrung
atcc
ordinal
thf
##query
##activating
ling
arrived
inexpensive
##demand
##quilibrium
appeti
officers
shopping
)−
conjugates
methylated
pé
##lers
genuine
renin
comfortable
sydney
##то
##flag
##cortical
cholec
##elo
parabolic
barley
##sof
365
11).
##ocompatibility
##uten
255
folate
##dry
spectro
argentina
##gaard
factory
##llen
peroxis
##/10.1021/
9.2
##ophilia
gpr
succin
##11)
fdi
(7,
(95
externally
##siv
##tite
relativistic
sx
synch
anesthesi
##5.8
lei
kay
digest
52.
aip
synovial
dias
newsp
##ostomy
fuels
##415
##2/2
suzuki
pooling
trophic
afferent
campaigns
rearrangements
conductor
maxwell
immunized
gingival
educated
##ucci
(10),
##lipidemia
warfarin
scavenging
[23,
[39]
picked
rogers
pwm
weinheim
##=(
(27
##magn
torus
satellites
gum
correcting
analytics
reciproc
reconstructions
##21)
qcd
jen
##centric
alum
nanocompos
##-0.
##7.8
crt
alexa
mechanically
##continuous
##'(
anthropogenic
polyacrylamide
##zl
shortcomings
erad
##oren
carr
rick
hydrochloride
##35,
380
##pixel
cobal
programmable
semen
identifiers
##anche
dapi
pacientes
gauss
##vinyl
falciparum
punishment
therapie
##122
ner
##rx
eddy
tackle
perforation
bilirubin
weap
##ceiver
corr
surf
companion
universidad
##orphic
proline
towns
##pnas
unpredictable
fum
leucine
##pow
condensed
##asic
##arettes
##iability
650
titer
familiarity
contradictory
tha
fragmented
##qm
##stop
unavailable
##blood
lagrange
disappearance
unbounded
attendance
##33,
##arrays
incidents
uncorrelated
##ouri
##haz
##avorable
1],
0.05),
lipase
inclusive
inhaled
omn
retinopathy
msec
##fix
ldh
spie
##auss
lym
tamoxifen
##cool
315
sensitivities
affiliated
belt
resolutions
controvers
nephropathy
tubules
dendrites
medline
ects
deliber
##ulas
bass
dilatation
##/20
##gamma
foxp
stevens
##otri
##plot
##ichlet
bren
##written
angina
##aza
##=5
Â
##potent
mitosis
##threat
##aciones
parenchyma
##amins
##kii
metalloprotein
##wj
##prome
##mortem
laplace
sacrificed
abl
bap
##sto
septum
discontinuation
##zone
retrograde
##nedy
jia
mans
(3.1)
##tak
##immer
assemblies
utterances
beef
timest
intersections
egfp
##.54
insulation
coordinating
tones
##equation
##sod
∂2
##itably
saú
inward
monotherapy
##10].
collector
##swit
extrapolation
puts
isl
trimester
esophagus
articular
##tracking
oblique
##plicating
elongated
cing
##luence
planner
Ô
##ieht
jim
converts
##profit
travers
plasmin
archives
##ttg
##grup
##/4.0/
shannon
predetermined
mabs
pess
deformations
##14].
austin
erkrank
##attr
##entary
forsch
laplacian
triangulation
56,
##13].
edin
kob
##soluble
##istar
font
##atized
leisure
##avan
##prac
##uchy
rct
societal
skewed
kent
naïve
##10]
##otin
provisions
##1-2
prospects
phospholipid
ais
stewart
kinder
bipartite
##5.7
sphing
##2))
[41].
posted
ripple
superiority
hero
madison
streptococcus
busy
longevity
##promega
beiden
dtt
desktop
##atik
##0|
##1_
llo
conceiv
##/+
alongside
underestimated
##bsa
5.2.
lifespan
cra
##*(
chop
angio
tryptophan
##intervention
##nps
gos
methionine
commutative
##ayan
cleared
##129
ada
indonesia
##clus
kelly
##icidal
##[1]
broadening
endocrinol
punct
ets
ifi
trough
aggl
cnn
##ifera
permeabil
##fx
flavonoids
(1/
80,
npc
ain
releasing
motivations
##aip
mca
retirement
disproportion
##oxidation
100.
definitely
##<0.05)
11%
saúde
recessive
##targeted
222
##onbach
0.1,
britain
##measures
##opa
##gkin
##blastoma
selling
facilitation
−4
##ropic
verh
##antitative
##clock
pension
0}
##yon
workforce
##trim
235
bereits
reservation
hyperglycemia
inconsistency
##urin
geodesic
infertility
1,0
controversy
ncs
konnte
##oric
stee
##limiting
##terase
(21).
##oxo
vx
##yne
sms
##zhang
1987,
fluorescein
##kowski
-20
tracts
analysts
cerebrospinal
##fel
ribosome
##lib
##omyel
petroleum
##ettes
##controller
##ein
(2.2)
talking
bout
butt
##printed
##!!
70.
##imide
disagreement
apps
egypt
(1985)
motivational
glucocorticoid
##-48
##.49
##rist
daf
heading
enclos
epidemiol
##genome
lattices
officials
transitive
##helix
arthroplasty
differentiable
##118
##onau
bever
jumps
##155
##ück
bruce
dilated
appraisal
##ader
##supported
##inez
nucl
kluwer
(0.01
chemil
0.93
13%
beings
hypotension
lots
##trained
counties
lem
##ijn
(8,
fraud
##usually
ancestor
semiconduc
sma
roof
appreciate
##ifn
oligodend
##pleted
##building
##foot
endocard
encapsulation
siv
neutralizing
##irs
drs
seventh
##acia
vestibular
↑
intoler
##tos
rpe
##sung
(10,
hepg
primate
ron
tune
prototypes
##trees
14%
monoc
##jen
urs
microv
antigenic
meningitis
##(+)
(33
helper
vand
attainment
insertions
##lund
##bung
ligase
##–34
bicarbonate
##tcp
[0.
knew
fog
pz
##oretic
207
erroneous
parentheses
##〉.
galactic
##−1),
##istries
het
outlines
[24],
##cens
##iesis
allgeme
##aun
##iman
##-3′
eqn
maze
ر
##inities
gui
pheromone
ipt
terminate
incontinence
##wd
1980;
##thel
brush
##–33
ams
worms
##otransferase
sputum
##vec
##tening
contacted
hazardous
purchasing
controllable
pfc
##potential
16%
##ucher
simul
prelimin
ariz
entrepreneur
##clone
worsening
env
##ozyme
uncover
flanking
toxicology
septal
##kf
##uned
jacobian
insoluble
Í
endo
selenium
envision
solitary
alerts
mitogen
umbilical
ols
singularities
##tolerant
disclosed
permittivity
ن
##bourne
1.1.
pathologies
gulf
0,0
aryl
barcelona
##international
##zymes
##knowledge
graphite
querc
imposing
edit
##ре
pma
pragmatic
thromboem
##enol
17%
baltimore
schooling
204
##super
psychiatr
aspergillus
abiotic
macromolecules
parp
puber
lysosomal
##column
arach
photovolta
lut
jahre
##hj
untersuchungen
##tet
tachycardia
zp
[24,
nore
hematoxylin
##rap
vec
proactive
ferro
ascribed
3–
##15].
),(
greek
framing
55%
unequal
##cult
##fors
icc
##rieben
##business
smoothed
oncogenic
convective
recursion
dad
smoothness
tpa
accord
##opez
stance
derives
-6
##/,
myelin
fid
expenses
##kw
coordinator
53.
aversion
liz
folds
eventual
reprint
microrna
zig
auxin
##orov
##chan
##lectic
##11].
subpopulations
ellipso
bangl
slave
vienna
homotopy
loadings
consulting
discontinued
ihrer
millis
lipschitz
unsuccessful
seld
##azo
##svm
##mine
diph
stu
euth
psychometric
thresholding
hexagonal
dha
qds
rcc
##purpose
##imental
fathers
##glu
arriving
illustrating
---
##hren
##than
1-1
credited
positional
##compar
shoots
afforded
hypother
anesthetic
##197
##isehen
##170
ternary
plasmod
marshall
fork
beats
ql
rmse
shore
econometric
##-80
##sha
lipp
interrog
##-04
dsc
shaking
linc
##arians
pupil
thalamus
femin
traf
lacked
ergebnisse
wsn
tweets
##38,
kgaa
sarc
imprin
fertilizer
thickening
pda
##tene
spermato
ā
##acious
ova
revenues
##rystal
université
oligos
parsim
princeton
denen
likert
##(∆
germline
##204
##vh
##pool
biologic
multilayer
##.58
1995),
])
##24.
decompose
acknowledges
annals
##amt
sumo
reliance
##oga
##ichtig
randomness
##attrib
##50.
##eclampsia
workloads
##ipine
##itian
overlapped
##2+-
lights
20:
##absorption
inevitable
("
##sight
209
1983).
troub
appreciated
##info
1986.
backup
##yg
stents
##113
queues
accessory
tiny
zeigt
##aram
##atable
##author
phosphoryl
(·
4;
customized
quenc
##odia
agro
flour
##incial
##liquid
##-44
menu
6.9
##facts
##ño
##deoxy
disclose
referenced
sts
18%
vene
##carbons
##pac
dcm
##uyen
fals
##middle
##kul
##rum
##2[
jersey
listeners
defer
dirichlet
undetectable
##aron
pumps
insure
daytime
##diss
ethiop
##alez
##ðxÞ
##strain
aic
été
diurnal
162
scd
##lage
##zeich
anions
##icide
##ocyst
(0.8
interneurons
##gem
centrality
##thermo
cens
tanaka
workshops
##models
confident
multiplexing
##scrib
##wavelength
rear
livers
glp
reluct
420
azimuth
therapists
11-
omega
footprint
##(11
##oxia
friendly
inm
##.57
##lon
vendor
##fahren
voters
xxxx
lms
10.1021/
(22).
##labor
adherent
pai
sobre
cassette
##−4
chickens
symmetries
foli
[42].
accent
fang
episodic
sedentary
##gtg
elek
mth
##ström
33%
##initial
rods
exports
herbal
handover
##verbal
trains
vasodil
oval
lookup
rcts
161
mss
##posure
##ansas
foi
outsour
elevations
##adhe
64,
subspaces
cette
toe
##oria
9.0
##theoretic
##éc
##issn
##iller
##monitor
278
##jing
hernia
ophthalmology
0.86
##atism
(10.
arabic
allerg
divides
##pca
##sted
deno
bilinear
ي
equivalents
fortunately
##lh
zeig
conferences
crosstalk
yale
##processed
##afen
[199
klinik
370
2500
viz
destroyed
houston
keratinocytes
##jin
photod
doubled
coars
telescope
letz
plural
##sah
##4.1
hereafter
repertoire
discretion
boltzmann
lud
defe
0.003
thrust
##tide
yy
mek
##gew
additions
##≥0
(11),
stool
##planar
##orously
philip
##12].
stressful
##inositol
delib
mpeg
miles
intentional
##inoc
thrombus
melanogaster
certified
oreg
basement
positron
0–
relays
histologically
acted
thrombocytop
spatiotemporal
occipital
scripts
##kx
##147
##008
vanish
verifying
detox
##bildung
##physiology
normalize
##157
zun
explos
cancel
##april
##asion
aspart
##.53
##tert
(37
##hexane
##special
##chool
##abolism
zeiss
anticipate
203
psychosis
##jap
(1991).
$2
hydroxide
wedge
56.
brist
graham
uncons
##uling
club
##ushing
##7.6
##isations
excitability
ensem
mexican
##ggg
##etine
speciation
reconfiguration
##park
unsatisf
313
ngc
underwater
1986,
snapshot
##essors
##comdownloaded
advancing
postural
phagocytosis
yin
(41)
imprec
profitability
swine
methan
##12-
##iqr
brainstem
##sehe
tender
uncondition
∆(
kyoto
approximating
catalyzed
zoo
stokes
##tubulin
qj
marc
benzo
##large
unfavorable
evolves
##&)
##limb
##emaker
intersect
concurrency
##vastatin
steam
scholarly
jy
##optical
parath
##acrine
antarc
fastest
assure
##sept
pant
rash
mainstream
airborne
##ucleotide
realizations
transitional
##205
299
##1[
(45
initialize
##-03
troph
intakes
prevailing
70,
descend
epidural
##/7
pcc
maximized
##190
befund
mediast
##sas
##onde
(2.4
entangle
friedman
copolymer
irs
degenerative
##icul
1993)
##/1.
##anim
##+=
##agia
tower
numeric
beach
##ecan
[25,
##vest
ellis
malt
##.52
prok
##therapy
##defin
airways
10.1016/
12).
finer
appreciation
##gow
schle
wilkins
peculiar
##visual
deleg
spans
virol
##umer
##actable
vegetative
##.’
##/18
rdna
ú
##observer
edinburgh
##arez
##corrected
##dens
##istering
##amid
bup
electros
biotechnol
##tom
##igroup
expose
arrhythmias
É
##seed
helium
superfamily
inevitably
jenn
intrins
bss
##atten
206
allergen
##165
burk
passages
argu
##omyces
##otarget
conversations
##pip
striatal
##abd
entitled
##borns
2015)
educators
##16].
##whm
senses
analytes
cantile
provinces
##urium
##nez
comply
##quartile
##ecraft
lax
¦
logics
dropping
(1-
jx
biofilms
##developed
##vard
cauchy
luminescence
buyers
commerce
physicochemical
adjoint
neurotroph
##uta
oecd
##asted
localize
poisoning
accelerating
jets
##sampling
amenable
prl
immunocom
##!)
##etting
##particip
##determined
legitim
proteomic
originates
##axia
gfr
##zung
branched
##olate
arbor
conceptually
notification
employer
menstrual
##respectively
##esh
##bios
54.
motivate
##write
##api
##tructural
##sar
##acces
algal
incurred
flora
douglas
gay
breadth
##oop
##circuit
lectures
behandlung
375
##release
orbitals
hydrocarbons
moon
##oelectron
papillary
shortened
engr
##liu
cog
trac
tremendous
periodicity
##kind
embed
fructose
0.025
##grass
##zs
##(1/
volcan
##36,
monotonically
##lysis
0.44
golden
lactation
##compl
##ologischen
(21
xenopus
aun
##opolysaccharide
(23).
traction
323
greg
##finite
2014),
##irradi
interruption
autopsy
shedding
alp
##tistic
##:10.100
propositional
##90.
discontinuity
2–3
##oca
employers
corpora
investor
##software
checklist
reachable
##irt
##-10,
unreliable
3.5.
##inistic
paternal
glycosylation
progressed
tut
cosmological
##iday
##regulate
##eni
</
gust
isop
peo
dive
interventional
restor
##./
tear
[0
##icos
hsa
##:;
landscapes
suffix
tors
##ÖÖ
##atm
##graphic
analyte
overwhelming
##011
grammatical
densit
##nmt
##fiber
##relin
##016
##seven
meist
lambda
vaccinated
(1.3
schwarz
wars
dms
forearm
19:
competencies
arrives
interconnect
mesenteric
obstetrics
zellen
diagnosing
##–32
bulb
##abr
hemodialysis
(2-
0.89
##amples
##fraction
##infrared
blend
##volution
0.05;
hud
wan
##viv
shaw
##inence
##arginine
hib
##146
cryptography
philipp
slic
disseminated
downlink
##stral
epileptic
##inct
haptic
##cepted
latit
57,
broadcasting
##xc
##1,...,
stell
##otopic
primord
pursued
##ва
1984
##1—
nguyen
bean
($
##edema
allograft
polish
optically
##−=
##0);
caring
accepts
nanor
mineralization
##spss
competitiveness
[25],
isomers
aberrations
aij
##kom
mmse
browsing
##-47
agilent
:1
unaccept
(0.3
muss
braf
isometric
tir
arose
reviewer
##agin
victoria
##transcription
58,
deer
##erad
mems
oregon
nanostructures
##preserving
##strip
saudi
dilemma
vulnerabilities
dysph
volunteer
villages
questioned
babies
committees
communicated
adjac
locking
##iy
parser
##amn
cerebrovascular
##ifiable
##elsevier
indisp
##equivalent
##fire
olymp
335
5′
geography
##lif
judges
visitors
*,
hrp
##(1+
smartphone
##tedly
##spectrum
imposes
explosion
wistar
testbed
sponsored
##linearity
1,2
bracket
##fern
anf
neighbouring
suspicion
##stationary
##138
degener
##geries
##flo
dbm
##resistance
phi
buried
##wage
csc
krus
mucin
enamel
##trate
ketamine
hend
singleton
##smo
(0.6
administrator
eradication
adiab
jahren
heritage
##biomed
tangential
ture
intend
superconducting
##clamp
appealing
wishes
##issensch
[60
[43].
highway
pesticide
##-70
(42)
mam
bonded
##june
illegal
171
0.87
maker
meals
hydrogels
identifiable
contraceptive
0.84
automotive
quantitation
##009
borderline
0.2%
##handed
synchro
surprise
##talk
##rooms
calend
##many
##entation
##6.1
howard
saddle
yap
ches
statin
crohn
versatile
##acm
##file
##taking
eagle
possessed
##adeh
―
##opause
7.7
##thus
(12),
infancy
##arf
cigarettes
resum
enumeration
##?)
asks
psychotherapy
##ández
tlc
blacks
generative
##195
hunter
splits
tolerate
richardson
worry
##ри
tubulin
hinder
madrid
biomechanical
##motor
temporarily
experimenter
##wegian
ethernet
explants
##gus
daten
euthan
rewriting
compositional
##ths
ØØ
##catalyzed
openness
gif
##tation
sigmoid
##=0,
sca
pril
rounded
(34
nonempty
tann
epidemiologic
ihc
10.5
##lactam
##zip
lactobac
intermolecular
(*
temperate
subdivided
pcp
glycemic
respects
##aked
sharma
spacer
semantically
diodes
vendors
accumulating
##aming
##17].
##wash
9.3
thz
##contrast
steadily
masked
hemorrhagic
##ullivan
accr
##probe
##osphate
##ны
224
brdu
embo
(1984)
##,6
invertible
nacional
hide
relatedness
##–80
biophysical
resected
geriatric
accelerator
multipliers
biosynthetic
I
1):
##segment
##nine
prosthetic
administrators
manipulating
Ç
girl
glycer
exterior
##-02
eric
stratum
overlo
phospholipids
bears
doctoral
spreads
wise
##ophosphate
toy
proliferating
##ль
transients
quit
transmits
##(6):
##cussion
sev
##polymer
epr
##transi
migrating
inserts
345
chloroplast
##turn
tca
merck
pedestrian
newborns
##144
##202
rss
##isser
adhere
cml
plasmodium
##coord
spatio
zj
tect
##acute
[41]
##append
plexus
becker
davies
cooperate
##-90
gig
yao
##ondyl
hops
##glycerol
##bcl
##eit
ferment
undoub
##ags
##omi
##uzumab
holog
flavor
##chung
lebens
mq
arizona
lexicon
saccharomyces
##occurrence
cea
##shown
complexities
rbf
noctur
adequacy
##7.7
nodule
##proced
##avidin
##nz
cotrans
hack
tive
pups
##ppm
microspheres
byte
midw
##xe
##urement
ersten
##те
wonder
misleading
##wire
preem
cowork
hourly
epochs
deionized
biotech
##averaged
replica
д
cohesion
##cro
##uar
(29
pfl
##ovir
##liter
##itative
##50%
##anic
##imid
##oresist
overexpressing
3′
##impact
coin
annexin
245
##imax
restaur
deformed
stating
(24).
##akr
cid
##rolimus
##snr
proteinuria
):
1994),
##dried
sibling
##bei
histopathology
deren
cleaned
nanowires
lia
##elman
montre
##tonic
nab
##,)
wife
##vide
eisen
mounting
(9,
wand
evening
encompasses
●●
bald
amn
##26.00
dichlor
hedge
usable
pressing
##threatening
interrupted
##olla
separates
intercellular
wrap
##zellen
fz
reef
stacked
orthopaedic
dominating
1985,
##chap
##medicine
488
amphib
dismut
clinicopath
insec
##ontally
##perturb
depict
migrants
kpa
psp
##nx
##etzt
shaded
hydrocarbon
reich
65,
clad
##oce
trat
reorganization
enthal
endurance
##.59
##distrib
##ocaine
congruent
rhythms
electrically
##theory
ṽ
biogenesis
##fy
317
morphologically
##olas
##coded
##rows
##ogas
adversely
blockers
ats
indeterm
overlaps
zir
υ
[26,
vasoconstr
285
reinforce
fent
thermally
##rated
tracheal
##asen
75,
##diabetic
structuring
universidade
cohomology
grape
scientif
peterson
bangladesh
##particles
##nv
##joint
statins
##***
##36/
dying
4/
mimics
seedling
100.0
##received
simplifies
##aminase
##ipr
)}
##agers
thaw
ascites
(43)
##tissue
##sharing
silicone
frage
-10
counsel
executes
##aping
toolkit
##bage
scrutin
##oprotective
69.
saint
##dong
##–35
immigration
upgrad
##irds
chal
doctr
tourn
fetuses
zz
anastomosis
haut
##——
nadh
exponents
intravenously
##134
##ptp
##rms
##opid
casual
cornea
cyclospor
directive
##mcs
##sun
oscillators
malnutrition
assertions
##203
outgrowth
rug
1982).
successively
##feedback
curative
microfluidic
66.
##matching
##fusion
kindly
lor
##breeding
effectors
##27.
pdms
braun
verd
tibia
##price
neutrop
oxygenation
acceptability
compliant
dall
supreme
incompatible
oligomer
##opre
##aires
14-
##europe
quoted
##odem
##odom
##cholesterol
##rons
%).
90,
evaporated
ferritin
coexistence
##12]
##anks
litig
mosquitoes
##148
‐
(∂
inclination
cun
cape
apnea
©200
##dele
##otrex
migratory
killer
##architect
intrinsically
0.004
manipulator
##93/
##akh
preca
breakthrough
##platelet
cellul
groove
cuc
##akter
cannabis
C
≠
##peti
##uating
networked
##-06
uz
##idate
ovaries
##hos
dwell
##molecule
decoupling
strokes
##95%
##fibr
compost
##ologische
abrog
##harmonic
messenger
embolism
reconfigurable
##parameters
fric
##ativen
##40.
##iani
cocktail
cytology
colomb
ford
advised
aav
##sense
##selection
gambling
ỹ
handles
##heads
è
##consistent
##/).
172
benj
dating
excitations
quiet
##opyran
maximally
##ophosphamide
##orh
##document
capillaries
##php
##anen
##wen
##ifferentiated
jel
reservoirs
##enriched
tracker
##annels
##)|2
accred
ltp
##diffusion
##nag
∗(
receipt
##administration
##utory
somehow
9.4
##accessed
seit
##domains
##aussian
hx
##vacizumab
immunocyt
unbalanced
##unting
1985.
merits
##opress
kennedy
contributor
microl
cct
##206
dermatitis
##aryl
##ospec
)()(
sulphate
spacecraft
316
viel
[44].
osteoclast
14)
##rystals
ara
##chair
##described
iliac
##positions
oligomers
##opharmac
##gins
endovascular
##(4,
mdm
##wendung
0.48
zell
erken
pnas
carcass
rav
provincial
##ylon
##2/3
##6):
scalp
##oxidase
##enta
solvers
geographically
##sthe
eph
fdg
##annual
recap
empathy
##ecker
magazine
syllable
##0+
cobalt
honor
geneva
lactic
believes
##.51
topographic
eigenvector
≺
##oning
##tod
1979;
cargo
distinguishes
##henden
1992)
##ðk
epo
orche
malformations
##inducible
##132
cantly
##hä
##,000
59,
##strate
pcm
18-
(44)
rectifier
accelerometer
##qk
=1
##annt
##galy
hern
radiolab
##5(
##”),
antiserum
-0.00
##)∈
erbb
brook
somat
##lectomy
testes
0.31
##ioma
enem
##uscripts
linguistics
bah
muk
norwegian
extrac
endotoxin
bcg
ū
strike
gsm
elaborated
##dil
1-3
##electronic
##mont
biotinylated
##leaf
##igung
##systems
tetrap
officer
##tiff
shells
##embedded
spermatozoa
##correspondence
##vement
##ocortical
neutralization
##mans
venom
toolbox
##reated
wetland
winds
microb
##development
##chin
##idson
##adrenal
locked
##018
##2)(
scs
##iceptive
,2
toxicol
0]
##bay
manganese
visco
epoxy
##ovan
vial
translating
entanglement
##rule
calves
(25).
##enne
amendment
intramuscular
##fail
gav
##pulse
snake
[15
##onormal
##permissions
polysaccharide
##oste
siam
brass
irf
parker
lncr
diaphragm
##-1).
##pinephrine
##dal
##oglycan
##lez
anywhere
cascades
##oso
13)
absorbing
spline
inoculum
##ovasc
uncovered
lbp
merger
##cw
##kee
##oba
hardy
suicidal
##-1/
[40]
##igration
##hung
21:
223
banach
##before
##60,
##′1
0.58
rent
rationality
ceo
ngf
oligo
uplink
narrowing
##012
##–28
(45)
##ulli
##otrexate
##hasic
cardiopulmonary
aided
loosely
maneuver
80.
quartile
##lsbad
##prote
chitin
##arp
##hus
##ondo
baro
contingency
enos
##periodic
Υ
##53-
incubator
hierarchies
##azolium
albert
##exchange
##tibility
##obia
wob
0.92
(2.3)
10000
tonic
anticoagulation
##zj
gvhd
##zp
histidine
accuracies
[42]
##11]
−1.
clutter
instructor
photograph
surgically
##ibe
##3/2
##2+,
5/
ode
damit
palsy
##ncbi
bbb
##squared
prescriptions
##167
##iste
scarc
dissatisf
##emens
##illen
stripp
proprietary
ahr
redes
watermarking
typed
##sq
dns
##omide
##abo
glasses
neoplasia
citizen
synergy
22%
aeti
bottle
xd
##alsh
##teilung
undoubtedly
mong
diploid
extraord
northwest
##tru
immunomod
##256
organelles
$1
},
##ophilus
cooking
smoothly
181
doubly
eosinophils
##5.9
regurg
catheters
1990)
##albumin
0.0001).
repetitions
##ulti
kod
##characterized
intramolecular
ler
economical
zhong
elections
##structuring
##él
foram
remot
reactivation
shortage
##othy
##ospace
intrap
obligations
##vine
seldom
##inel
378
mao
##decre
##inform
stones
##stead
##enem
plasmon
##10).
invitrogen
arf
##just
##otation
##vegf
(9.
neurogenesis
##frag
##orientation
##oprost
withdrawn
artificially
constellation
##139
##45,
329
bilingual
##substituted
attenuate
##18].
gnrh
spacetime
eis
##ronic
hematology
cbf
sixteen
evidently
acupuncture
9(
instituto
epstein
initiates
62,
spon
##pay
##imers
[26],
##acterium
brother
fibrils
##ideal
spins
ideals
seattle
osp
illustrative
##11-
##esp
gentle
enclosed
##)!
##kir
annih
##contact
##typically
254
succ
loyal
icam
negation
corticosteroid
##afting
adsorb
##ekt
##proc
ine
parse
beamforming
cochlear
rij
1/3
damaging
interrupt
##integrated
##-49
exud
acyclic
bestimm
mountains
nests
##phosphorylation
##vern
##inking
nth
##olipid
surgeries
##prep
321
##dense
##2+]
##constant
prostaglandin
##derung
##methods
astrophys
pond
paw
katz
⋆
yun
##reten
10.22
enforced
seamless
convincing
##ubiqu
##leit
##(11)
skip
##engers
adenoma
##familiar
##galactosidase
irradiance
parathyroid
61.
mph
caco
##blasts
choline
##prs
geos
##additional
##increasing
mst
feeds
##.6,
stap
downs
##mcc
terminates
cracks
##hlen
possessing
##ventional
contracting
disclosures
##iou
305
masc
inhomogeneous
##possibly
trustworth
neuroprotective
neighbours
##.]
gins
##protected
serotype
universally
mori
patel
transc
##medium
renders
##29.
sensed
morphogenesis
libitum
levy
pelvis
schist
meoh
solder
axillary
coworkers
##28.
dwarf
seeding
photovoltaic
cnts
##154
312
233
0.56
offshore
##aks
##oln
##ussion
codons
mittel
##ış
##017
(3.2)
clique
ovem
##electric
exagger
detergent
##ehen
informational
##drs
##orescent
populated
mutational
clearing
##choice
longterm
moieties
telomerase
smear
maldi
subcl
chimpan
pyramid
bevacizumab
lectin
(64
##illar
indispensable
pss
contingent
fad
alan
ears
logging
stockholm
primes
ingredient
##nson
##enson
kauf
##trial
jas
##they
readout
##chn
##ainen
helm
neuroendocrine
+2
zeta
##aguchi
ought
discovering
##stack
seventy
##ticism
entsprec
##grp
predec
preschool
##arri
##reson
politic
##207
jay
##renew
eclip
##ogrel
tread
##atalyst
balls
crowd
##-3.
##209
##adjuvant
##ÒÒ
327
spanned
dysregulation
(0.7
pasc
##chester
chondrocytes
##7.9
infra
(1990).
##alcohol
clostr
##alli
subsurface
##iaa
rotary
discriminating
##leu
0.46
##organized
Ã
##osi
##aided
horizontally
##agawa
preliminaries
##−1/2
##305
bony
rsv
critique
fires
scratch
##tta
uninfected
hea
oxy
##epid
appetite
thinning
##cnts
0.83
medizin
hrms
locating
vancomycin
##zig
##$2
1024
##vv
gbm
##adapted
##zm
##incott
infest
wirkung
mistakes
versch
##ornas
30°
fü
61,
chern
##copy
spines
boiling
srs
##anabe
glucagon
piper
sog
quiescent
##genes
pim
sorts
harboring
laryng
##proliferative
##hering
##reading
##otax
##etooth
##theorem
unconstrained
##ringer
leach
resistor
##adec
[18
impurities
suspicious
1967
simplifying
portr
anthropometric
##5%,
295
muller
resistive
osteoblasts
##kers
uneven
##reduction
##proton
##injected
À
##cid
mum
eren
1≤
psnr
alcoholic
programmers
40-
autumn
##issa
gaug
scotland
1983
forestry
##sitization
##thor
##urine
##tify
##mmp
##ème
diseased
##sek
##printing
elegant
##continued
effusion
32-
champ
intimate
##marked
##apsing
favors
serological
##ли
227
##writing
stacks
##121
embolization
orch
##acea
##149
##ancers
lidar
clarke
modulators
contradicts
urol
##dynamics
complemented
heterologous
##denoted
##daw
##asaki
##eradish
##egfp
kum
##polarized
deformity
##hit
agile
paying
iy
##tris
##yers
superc
enthusi
7),
landing
passenger
lle
dash
##healthy
arnold
barrett
##136
##oter
##zers
##modal
##−1).
(32
harrison
zeigen
literal
arena
##enhagen
andere
subsequence
speculated
legislative
karl
##sds
nozz
benefici
oj
cary
herd
gcs
##itorial
atlanta
##tainment
monolith
ersche
unobserved
##(2+
##,~
hrqol
##anin
epip
##-/
baum
diminish
##rights
blocker
##multiple
##difference
##trin
##weisen
electrophoretic
minister
synchrotron
nev
1978;
##ogroup
ladder
queu
preinc
utiliz
affinities
##900
aqp
stm
gure
##ortal
##allic
beer
##opathies
##prior
1.2.
##oro
[45].
injecting
cim
imf
isi
##atomic
chronically
tage
physiologically
clip
##32.
boosting
98%
maz
tort
##156
nog
santos
##iben
clades
##selectin
##ðs
##4):
202
donation
lands
##acrylate
extremities
229
##abeth
saliency
##oprol
##176
##ени
##3−
72,
ati
richer
##rag
lymphomas
##/19
(26).
hybridized
colonoscopy
continually
##–70
dilute
?,
coerc
−1,
##fox
confounders
182
##grund
234
caught
heteros
stakeholder
##olly
##abdominal
##expon
bags
glioblastoma
infrastructures
apl
##19].
forg
##dashed
##′),
|2
0.47
10(
swap
combin
recovering
happiness
##oya
narrower
multidrug
asn
thematic
##reduce
##ancial
gabor
phonon
##flp
turkish
##jd
##tee
##omethyl
##metric
conges
mesop
endometriosis
yd
(65
delivers
buses
supine
##tiva
##ounds
aggrav
weiter
##21-
methotrexate
##(1-
##style
##antic
1965
anders
inhabitants
nouns
##kine
##iston
8.8
##modules
##seeking
neurosurgery
votes
founded
21%
##21].
##willi
##agglut
authorization
microbiological
##rhiz
circumvent
hook
divor
ȳ
zf
pcl
##shoot
quantized
realiz
dean
takahashi
13-
dream
ductal
simplic
adiabatic
##37,
429
##tisch
nude
purple
weaning
lippincott
##iw
kerat
gently
summaries
cele
Õ
beng
environmentally
##directional
diaz
vitre
underestimate
##oves
22:
steric
##onautics
schwann
440
flt
elliptical
##opidogrel
##168
ning
ghrelin
##crp
guides
##yz
norepinephrine
##olus
##arbeit
tanz
shapiro
191
##sz
311
strengthened
##https
##cham
unreal
3].
(44
overflow
##heart
farmer
##−2)
319
##uterine
dollar
##entrif
##20-
##restricted
4.4.
peaked
288
mens
wasser
kub
quest
migrated
##3.2
##rotic
##estone
competency
##onts
esr
nim
vigorous
arguably
priors
benthic
subfamily
##uu
##food
dpi
monomeric
thicknesses
##hdl
decompression
(2018)
##6.9
##ichlor
chrys
wesent
malware
##ações
##oneph
participatory
##,−
mucus
##tar
##ongru
pushed
autoantibodies
##1111
hunt
accommodation
(36
238
58.
[27,
optimistic
##@@@@@@@@@@@@@@@@
harb
##ulae
[27],
##1-3
lubric
##rella
stefan
japonic
##classical
12.0
xin
4].
##valence
mycel
subclinical
cbs
sorg
laryngeal
wikipedia
lightweight
newman
bpm
##isol
1984.
337
acth
shrim
retains
8.6
0.54
impressive
##priv
bert
indef
penetrate
noises
##<0.001).
0.43
##otonic
##ocysteine
##vet
##shape
advocated
kull
anticoagulant
##/∂
lass
factorial
##epi
congruence
##odds
##208
##jim
228
##diameter
densely
##∗∗
berger
##native
0.79
20.0
reconstituted
gone
##diagonal
##assessment
disconnected
gond
scn
##dex
##agan
tof
thumb
1)-
europ
stric
##304
##ña
schrö
##angiogenic
##1))
##tera
boron
integrable
336
unions
consumes
##yrate
##academic
hepatocyte
##bx
1100
intrad
##********
vietnam
wildtype
catchment
subpopulation
##haut
##uggle
ccc
crs
##move
##6(
laminar
melbourne
northeast
##dominated
##inescent
rodriguez
dermatology
##pun
##lasting
##idene
[43]
##ichten
humoral
##andra
sprague
##reted
hiding
##ushed
fret
##bind
ctc
uve
destructive
orthonormal
##cans
##luoro
interpolated
##pig
##amyl
centrally
proficiency
ged
ino
amplifiers
##rz
318
css
pion
##reach
5;
15)
radios
evidences
angiogenic
2.6.
dismutase
pea
##arach
adenine
##175
##20].
cardio
16)
erythrop
adjacency
Ù
##mers
cui
##212
##riz
bij
##amicin
##analytic
(1989).
hrv
conventions
partnerships
cll
##machine
bennett
##rik
mond
coincidence
proteolysis
repeatability
##ogon
fgfr
##epa
##methoxy
##(12)
##oglu
##atous
##reflex
energ
bluetooth
##–44
0.42
lending
##+3
bugs
.(
cronbach
vorg
disreg
5].
inconsistencies
##opres
mirrors
emphasizing
clo
##phi
1982
##adh
##bard
blunt
slack
##70.
collects
##major
planck
calendar
prostatic
##alin
sous
junior
oldest
##materials
yok
##vehic
cres
63,
dix
##female
dams
intox
regel
dodecyl
1984,
cyclase
judicial
pls
##given
progresses
##ockets
worthwhile
##44,
shir
chapman
discretized
##lps
(5-
heritability
##symmetric
##36.
yearly
batches
##igo
0.57
##cantly
clues
arrhythmia
24%
jes
##cyclic
##locked
##sehen
##doctoral
##rotomy
##wallis
##gravity
timer
##.);
repressor
##ophyl
osaka
##detection
1600
silico
laminin
##icit
toxicities
##gry
illumina
modularity
##azu
tiles
##)×
##plasm
##olk
usp
delim
incorrectly
zd
slur
##iewicz
chromatic
##hran
bru
##gaussian
↔
м
##13]
strata
tremor
90.
(2016).
##pez
feeder
lymphaden
##thrombin
missions
fragile
sensible
immunosorbent
226
transp
additives
##aban
accessions
326
observables
##atured
polysaccharides
##obar
11.5
thorax
thrombol
##sched
needles
immigrant
##ecom
(27).
##spatial
##anna
##iffs
##uncan
##yy
##amo
##operated
##iken
7.9
affiliations
401
asthm
wetlands
inr
pml
kem
remed
##xed
carn
nematode
graduates
vms
monos
donn
brasil
detached
0.49
##vially
Û
.05
##beh
##ithi
1|
aod
suction
##mixed
undertake
potentiation
##000.
##cations
##iazep
dire
vorhand
microarrays
ت
sybr
trips
thicker
workstation
##apto
wool
##atalytic
##conditions
realizing
##clusive
vitamins
ophthalmol
followup
##159
hfd
mdd
wohl
##glycer
rectum
hypothermia
ascorbic
##hedra
nij
diarrhoe
ccm
gur
iia
supram
embodied
##oned
##tory
##bullet
commens
##ebp
##around
deviate
empowerment
##308
##hesda
collapsed
##bladder
(0.9
fission
##government
##hur
rsa
##akov
stut
##publish
##ucht
inclined
##:0
python
macroeconomic
##166
garden
##problems
discour
settling
duplicated
##atoire
##–1.
info
ache
aldosterone
lé
cured
##chet
aliquot
voll
1981).
##ppi
turing
unexpectedly
##igm
##strateg
1.05
##reduced
nocturnal
hyg
##rologic
##nss
##pole
23%
##ularly
[46].
taxon
##158
carib
##70,
##abel
(12,
[28,
mct
heap
##-95
0.82
ligated
adenomas
transduced
##cod
hoe
spore
encompassing
sato
##encoded
tetracycline
cingulate
unsaturated
overcoming
ubiquitination
converse
learns
17-
##го
##ofol
chaperone
##overlapping
qq
##afenib
overlooked
·)
##alen
ibs
hydrol
strikingly
synapt
expands
recession
morphologies
##kow
psychotic
5’-
##gun
yout
##itional
1980).
infused
##dmso
##viet
biomaterials
##tyr
nif
ria
spam
beding
anaemia
spong
##tick
##chart
drinks
antenatal
##5%),
(+)
339
(1983)
kruskal
intraocular
##42,
fra
textures
seine
toc
incumb
##jac
belonged
hq
salvage
resides
tough
##nom
##gende
##aku
mathematic
##pier
2-3
darm
safer
265
illuminated
nanotechnology
ŵ
##oen
##atrol
abroad
cytoskeletal
##gis
##speech
helices
nationwide
anthocyan
psc
##itrate
artefacts
##idol
capacitive
##idian
nts
1–3
66,
mason
##orbit
kein
tbs
pbmcs
##exposure
##)-1
##lek
palmit
twisted
##aea
64.
(2.4)
##neighbor
hypoglycemia
239
(46)
wahr
##vb
##repe
##isive
kot
movies
##ocyanate
offices
##(+
##sic
superscript
##(·,
##lav
##mogorov
polyps
finnish
##jr
##456
planetary
loh
##0.05).
aro
##nex
comparator
culturally
##izi
##(4),
##dove
(13),
memorial
##omnia
methylene
prolactin
adducts
の
uric
inert
theoretic
##igf
bedeutung
dissociated
##wy
##atgg
##evaluation
′.
fourteen
leber
monotonicity
314
##quez
tractable
##–26
##ilen
##osom
##tured
motives
##anco
gloss
clopidogrel
##arks
0.69
caches
(2005),
provenance
##<0.05
(2003),
paralysis
persists
duke
biologists
semigroup
##encil
adjustable
autoradi
vergleich
basins
clothing
##174
##-55
##nci
##dings
##tains
##primary
feedforward
##(6
##omethane
kul
yas
##~~~~
logit
subtree
##.7,
xv
ries
verme
prokary
agitation
validating
transducers
cpr
1993),
##mrna
mayo
tanks
sans
symplectic
unresolved
tev
muslim
grammars
##dominant
nielsen
periv
intercal
##ccg
##trad
##±1
mog
mtx
##506
incomes
hamming
##.10,
addic
deutsch
elapsed
csr
##subunit
##-5,
berry
##routing
coloring
##hered
matern
≪
##2,3
##’’,
20)
##1-5
0.73
##veratrol
somatos
tss
rubin
broker
rotate
##14]
antecedent
##-07
##185
proteinase
##ensed
gabaergic
undirected
holomorphic
##[2]
residing
enhancements
bps
cru
obje
walter
extremes
##tival
eukaryotes
∅.
##chel
##cohols
masks
seiner
condom
##population
6000
6].
(1.4
parking
dmf
##isehe
##otropin
percol
awarded
creb
##>0
tul
pleasure
##xf
cholecyst
corticosterone
|∇
##false
##tiven
0.53
##ographed
##ermost
benjamin
puer
324
astrocy
krebs
dfs
voter
duties
antipsychotic
##⎪⎪⎪⎪
##intro
405
buoy
##ophytes
lengthen
shareholders
1·
gewe
unip
,...,
prä
cornell
impairs
##80.
##arte
oxyt
##propagation
##wol
##aeht
##ahan
microglial
photometric
aerospace
pigments
##nets
##renn
10.4
mcgr
##°.
dit
rps
##autom
##ulant
participates
##tum
miz
##yman
##sections
##incter
thoms
lassen
foxo
dimerization
##waters
beau
##kern
rois
stamp
drastic
restricts
##sever
realm
carlsbad
narratives
##illon
##386
##ffi
(≥
##nlm
pbl
rheumatology
amines
buffering
pharmacists
restructuring
##bere
##icides
cardiovasc
elected
##santa
plasminogen
##′2
(3.3)
deoxy
430
##becco
trape
extant
tetrahedron
##anden
0.91
meng
##maximal
holland
glycolysis
##paper
winner
##9.9
0.63
410
stip
desert
bernard
microphone
59-
epine
thigh
dermatol
misalign
diffusivity
A
##phos
stall
replaces
assimil
+(
anaph
indif
##idos
lopez
rituximab
warehouse
##’0
logically
chf
chunk
immunoassay
emitting
revisions
##tles
zen
510
63.
(3.4
ibid
##196
##err
221
##)–
##ðn
23:
fallen
##vg
##tionen
affirm
springs
sociology
unacceptable
overr
##ocysts
subscript
##tiques
ethiopia
demod
(150
(2004),
barbara
anonymity
(4.3
haven
codeword
##ounting
##tek
8.7
##(2-
nied
(11,
pedagogical
##transplant
##agh
##flight
##articular
({
dell
##90%
##union
##inas
ẑ
msm
hut
cables
pupils
##-75
##vix
##ytes
basket
proposing
chemotaxis
322
sob
##uchen
exposing
recommends
efficacious
##azi
(50)
flic
##bund
##itzer
##inch
460
percep
duodenal
##7695
##iazol
erre
##aer
##assung
borel
##ophenyl
nq
##====
##-46
##20)
##msc
pins
dextran
floral
substantive
##sters
eind
proceeded
##rper
zs
ies
##quant
bach
equatorial
slowing
##caro
operon
##iors
hann
ducts
##obarb
simpson
infeasible
procurement
bess
##makers
xenograft
(28).
##program
##application
##administered
bids
S
##nie
##wei
##helin
##vik
uwb
communicative
##omo
(&)
##march
13).
embryogenesis
montreal
resembling
imports
trabecular
##need
syphil
fundamentals
lesson
beacon
misses
intractable
##zr
##41,
gase
alginate
hexane
leaching
##stri
eman
achievements
bry
runx
patterned
untersuchung
confers
##omyelitis
capsules
##eil
328
edward
martinez
237
##oving
##achs
2018;
##generate
announced
confluence
linearization
mai
##diction
restraint
1))
##context
cryopres
vehicular
mrc
##activeness
##hof
##brook
##_00
27%
ppp
bq
##onoi
62.
##dovepress
jurisdic
essay
##otypical
gilbert
##–21
coincident
##ihara
##-31
##beat
0.72
##issi
teg
tunel
5'-
##235
horseradish
##óg
##fts
1977;
##obarbital
converging
commitments
somatosensory
##ateness
confused
abstractions
##80,
##pharose
enferm
restoring
6∈
##asmus
##pw
cdf
analogously
##assembled
##220
##erin
micrornas
vio
##unter
##sensitivity
##ubert
prospect
remotely
judgement
##bold
28%
##nier
247
##yster
##acheal
plating
imatinib
wavelets
##aev
##ucks
266
dbs
##mingham
assemble
##orel
##waii
secured
drilling
epistemic
(67
##apac
unlimited
robertson
##aaa
)|
een
##ansson
ample
65.
[44]
zwar
##,7
1991)
##inducing
hepatology
##uran
sinr
##ós
spm
##phosphorylated
##äts
projecting
##former
monomial
equalization
##ugu
mbp
mund
coversl
##regulatory
##src
aca
[47].
lau
nanotube
usd
ncbi
##onation
##ometrically
recreational
[28],
6/
##uals
ampa
manure
##depleted
##3,4
predictability
##oping
##lected
uganda
540
copenhagen
##aren
##actively
spiking
aluminium
aspartate
flasks
schemas
quarks
##interval
##opharyngeal
277
vulgar
agglut
asm
nip
parli
##-64
viscoelastic
sinh
##rington
exacerbation
по
##jh
carter
commentary
##sep
offsets
bisher
appliances
[29,
ceram
##vef
ciency
##srep
arbe
##burst
390
transmitters
yx
19%
(2006),
(2001),
##ativeness
struggle
##imentin
lowers
gx
##opal
chromium
ssp
##terson
plotting
##hplc
urology
autoimmun
##olys
cmc
periodical
##idus
##imotor
##appendix
keyboard
antonio
deacet
nhe
##ferencing
indiana
decoded
thirteen
##.11,
##dinger
sociodem
unfamiliar
vowels
freeman
dissimilarity
##bic
extrapolated
nesting
⇔
##url
writer
##lyl
defi
spawning
activations
pause
painting
gele
##spectral
glasgow
pandemic
##zid
##weig
nonex
threatened
graphically
wä
pab
latex
profitable
##hez
##ulu
##teenth
funders
deuter
envis
monod
antidepressants
μν
##shots
(14),
secrete
outsourcing
##nts
hens
(2008),
##bias
##percent
kra
planting
ensembles
primed
omp
##lora
(2007),
encouragement
empt
mitt
outlook
distinctions
##morph
buying
maxill
janeiro
paro
delhi
0.59
jpeg
Ï
modifies
mentioning
isn
##young
faint
tendencies
##255
##idades
puzzle
laure
decode
distinctly
christopher
##15]
##33.
##5);
##steady
##placement
shielding
##nak
noeh
portugues
allocations
(2002),
##iper
8].
##ishnan
opioids
inspiration
ghana
functionals
wiener
##petitive
occluded
appointment
##tty
ptx
dance
vegfr
338
##=1.
##inoid
osteoblast
##[[
1983.
battle
servo
ionizing
territories
questionable
68,
converged
queensland
individualized
pipette
wearable
infrequent
##situ
pds
manchester
##verte
boson
dentin
cantilever
smes
##oderma
##mek
kup
supplying
discontinuities
plume
coel
seq
redi
stellen
dickinson
biotic
pras
diffe
(2000),
sulfide
universität
##emo
243
7].
adren
hyperther
yaw
creek
(1982)
##interpret
missense
257
guy
##osides
sre
querying
governmental
nsc
kant
ticks
##ilinear
recalc
cosmetic
computable
psychopathology
alien
clocks
specifi
##othelial
gaas
##osteric
##quinone
wins
##3⁄4
##ße
catheterization
##9.6
##acous
##chaft
##internal
detections
improper
estate
##hil
frail
trpv
308
##evoked
##gj
(38
octa
triples
yamamoto
##39,
##ocity
darwin
licensing
gmm
bush
cytogenetic
248
milan
annulus
pathogenicity
##erged
mush
##glycos
##210
hou
10].
countable
##rera
##othermal
##ochlor
unprec
exhaust
##tivo
walsh
##portant
appreciable
##hae
vign
grace
gus
##alloc
congestive
##∗1
##soc
ite
incomple
automorphism
##trand
pointers
cbt
##oders
gln
##impro
2.5%
##bons
ssa
##inum
8),
salic
brands
standardised
sps
hing
hinge
##experimental
affordable
destinations
0.05%
advocate
##andial
collim
−0
##petr
quenched
corporations
##zew
corrupted
dehydrated
##169
##arts
##imura
(2.5)
prefet
##*.
deux
##sma
nct
##atoms
##oreal
##rofloxacin
peru
0.001;
hyperplane
msp
pst
##nai
##uza
26%
wlan
speculative
1.5%
eyel
##noid
tehran
334
stol
1983,
corrid
timescale
homogenates
cofactor
##timulated
offenders
executable
obe
bron
eclipse
##zyk
clevel
titles
virology
425
deco
cultivar
bist
(1.2)
principally
ı
limn
carlos
##focused
quercetin
aquac
ceiling
gentamicin
zl
igfbp
mayer
gynecology
caes
mandible
ffiffiffiffiff
foil
##compare
microstrip
##14)
jv
tq
##added
##pharmac
##ospatial
alcohols
quadric
interacted
0.01),
neovascular
##achlor
mills
##tot
##.1).
bragg
dismiss
##ariant
##centre
2015),
actuation
delir
conceivable
##opr
##suc
##cdcl
perimeter
walks
biolog
contam
medulla
fst
236
fluency
gén
##ymethyl
homozyg
~19
sickness
generalised
abandoned
##503
zyg
##=6
##/2018
saccade
assemblages
denoising
concentric
##edta
##gard
(47)
orthogon
lipoproteins
##dow
1800
ahmed
##minimum
einzelnen
treadmill
##999
##ätz
##eks
electropor
unemployed
premises
unfolded
provisioning
reflectivity
##lı
5–
71,
##ropical
degrades
259
nail
##moment
multitude
2×
infusions
##yx
##benzyl
##mittel
occupations
##edes
##months
attrition
functionalized
policym
organised
##hog
bpa
coup
reactors
formalized
dulbecco
glycoproteins
##oxyp
tempt
historic
cftr
sirnas
##olipoprotein
##ulins
compres
cleveland
bari
##amersham
gonzalez
##osc
##film
wholes
##regulating
ieh
vip
##roskop
##compati
quaternary
##emics
taip
vigil
hypertrophic
5'
##uminal
aerosols
##-85
##borg
##edented
##designed
9].
##ticle
##-08
##uve
dece
alarms
##citabine
chlorine
parasiti
copying
watanabe
##essional
pyridine
frog
transferase
pdt
southwest
##south
##jl
##hsp
##country
##adal
##∞.
##gibco
sleeping
##177
laterally
obligation
lus
(1988).
##”;
bla
##shock
##ifers
pauc
pct
predominance
ï
##–29
##stadt
kommt
myofib
##qpcr
##izu
##<0.001)
violate
idios
successor
wij
(3.5
unknow
acquisitions
##polarization
ðx
arist
##eliness
##viruses
##ocrit
##caemia
breeds
##cag
##horn
##onazole
##imurium
÷
iec
##oxins
(1980
propofol
287
##hende
nakamura
digitized
regurgitation
fcc
hsi
ration
##405
##amol
##morb
##angled
devoid
##personal
identific
ampicillin
nitrocellulose
monocyt
wellbeing
##filter
bethesda
fluctuating
##13)
tud
polygons
attractor
vasopress
myo
##same
viewer
67,
capsid
palmer
remnant
ild
##accum
##imburs
cdnas
atopic
249
pha
##ulph
accidental
payoffs
(29).
imprac
disambig
##187
##glutamine
cylinders
##/–
##vf
##psin
25(
ibr
ptc
apis
ureter
αβ
231
konz
feces
impurity
impulsive
##deriv
boos
resveratrol
aldrich
recurrences
lak
steven
portray
voronoi
##iax
##inae
##sives
drill
1979
acidosis
##representation
##~-
prés
##fte
unprecedented
sewage
##→0
##atar
tsc
##grown
lagged
##(0),
spez
##thirds
shade
hungary
birmingham
stur
##yncr
qrs
##toren
mets
cesarean
tcd
vogel
suppressive
kron
##:23
##epr
[65
unidirectional
##fdg
##spots
##living
rankings
forthcoming
inco
compose
##)/(
ise
scf
##uen
##glass
vlsi
##erves
convexity
periodonti
##lead
##ureth
vorlie
4–
>>
alkali
drg
(48)
##vehicle
auft
##äch
[30,
atrium
hyperactivity
##von
(4.1)
exotic
hang
invertebrates
colloid
commented
dihydro
affiliation
##olite
distraction
elusive
##ulous
0.62
homologs
virtualization
measles
orthodontic
##éd
sequestration
##iently
##electrode
ontological
alberta
casting
tutorial
0.81
mismatches
sensorimotor
##mrs
centros
heavier
manages
##bib
##asticity
daher
10.1007/
permanently
##/24
trouble
milliseconds
##±2
##osamine
##ów
vmax
rhes
3'
##anov
rochester
##53.
##picuous
ming
##oki
(8.
pollin
exported
##tam
tecn
anhydr
extrusion
ataxia
##143
490
radon
##qam
##lio
[48].
phospholipase
##european
neurite
##fine
flying
##algorithm
parliament
engel
Ë
##azepam
adaptability
renewal
##7.1
##exec
1981
membran
0.52
##omavirus
lysozyme
neoadjuvant
##fflffl
diethyl
520
##motion
volcanic
hermitian
stretched
[45]
weil
angioplasty
∗,
ors
##smooth
##ostatis
debugging
232
##chall
financially
encephalopathy
##(0
zust
gated
rhythmic
253
[95%
lord
entste
trivially
gastroenterol
hypothyroidism
##bat
ihr
##reducing
##0%
##9.8
##inar
penn
turbo
chirurg
##164
##solving
approximates
##)?
##ssen
74,
##ostr
##gesch
screws
##lyn
##arus
numbered
haemoglobin
##unity
snail
rifamp
(15),
##imidine
bucket
monocytogenes
biphasic
##)}.
69,
ims
terat
##rance
fdr
##ка
##insp
bcs
##technical
##imentary
bristol
troubles
thereof
neuroblastoma
##iens
summarised
thio
borne
articulation
waven
submuc
(1–
##rather
##stabil
invoke
primal
##activate
##qd
##recall
##oplasm
midpoint
formic
typhimurium
415
generalizations
bai
[29],
##channels
vulgaris
85,
glue
د
##elten
##ischem
shading
##vall
##authors
##ти
##glichkeit
pursuing
lifetimes
##wein
correspondences
rearing
separations
venture
aldehyde
repulsion
epistem
isp
##astro
introductory
pahs
missouri
244
##’).
vague
thirdly
observes
##fitc
##regions
trainees
##common
##ligand
eighty
palate
##sii
amyl
ting
##ensation
77,
introns
1.0,
reimburs
integrins
radiography
ils
##distribution
stimulatory
glutam
##factorial
nematodes
transplants
auff
invisible
sphincter
streptavidin
[1,2].
waveguides
fuc
1-4
##saharan
##ordering
islamic
morphologic
##>,
lhc
##igible
##seal
insomnia
3.1,
##ça
##icd
pbmc
prosec
intravascular
##ajp
##pdb
##linic
forbidden
cdr
wearing
##ismus
erence
267
bae
(15,
antagonistic
##188
pik
##versus
etwas
recruiting
##ullary
##ontology
neuropathic
oscillating
##leb
##>.
273
declarative
##wg
kath
gibt
selten
nanowire
##uclein
anore
##igi
##roff
##height
intras
##moderate
##aned
mead
##conversion
refused
reprogramming
ivf
xor
##recy
encourages
unidentified
##508
settled
apolipoprotein
##apr
(48
##neapolis
##monitoring
situational
eliz
creatine
##esch
rescal
oceanic
(2009),
obey
joy
0000
11].
##issive
tregs
##cephalus
##etaxel
neurophysiol
##163
##–9.
carboxylic
Ú
##germ
pei
spillover
(55
adaptor
-8
##iffe
##jack
weise
dispat
##rebral
annealed
##agu
##auen
##hnen
##asters
(30).
grande
cfd
zym
gibson
idiosyncr
dyspnea
lags
trick
genotyped
264
merch
resistances
wald
munich
##kur
##&#38;
##hire
lyophil
litigation
##ieri
anna
genotypic
accumulates
semiconductors
centuries
juveniles
temp
prototyping
##hq
alam
##odiazep
##–48
emitter
##stellen
0.0001)
(13,
##severe
##90,
schmer
gynecol
imitation
pacemaker
timestamp
##gray
##gradi
arxiv
1992),
neutropenia
glucocorticoids
-7
drif
wired
##obj
##tised
signif
securities
weed
(*)
cbr
nanjing
##bler
assesses
exemplified
impractical
##.8,
##aac
##kas
##bauer
dnmt
shrimp
##21]
lister
rz
tanzania
hydrophob
##mouth
mcr
divisor
##caus
polyst
fruitful
globular
welding
decryption
psychologists
##nition
reprod
facult
##orus
vimentin
##indic
levine
##osus
balances
##stimulating
surfactants
##meter
kolmogorov
##ouver
##\{
##86/
pushing
distributional
''
9.6
boul
advertisement
##:22
sellers
##306
tangible
subcutaneously
thermodynamics
[...]
