[PAD]
[unused1]
[unused2]
[unused3]
[unused4]
[unused5]
[unused6]
[unused7]
[unused8]
[unused9]
[unused10]
[unused11]
[unused12]
[unused13]
[unused14]
[unused15]
[unused16]
[unused17]
[unused18]
[unused19]
[unused20]
[unused21]
[unused22]
[unused23]
[unused24]
[unused25]
[unused26]
[unused27]
[unused28]
[unused29]
[unused30]
[unused31]
[unused32]
[unused33]
[unused34]
[unused35]
[unused36]
[unused37]
[unused38]
[unused39]
[unused40]
[unused41]
[unused42]
[unused43]
[unused44]
[unused45]
[unused46]
[unused47]
[unused48]
[unused49]
[unused50]
[unused51]
[unused52]
[unused53]
[unused54]
[unused55]
[unused56]
[unused57]
[unused58]
[unused59]
[unused60]
[unused61]
[unused62]
[unused63]
[unused64]
[unused65]
[unused66]
[unused67]
[unused68]
[unused69]
[unused70]
[unused71]
[unused72]
[unused73]
[unused74]
[unused75]
[unused76]
[unused77]
[unused78]
[unused79]
[unused80]
[unused81]
[unused82]
[unused83]
[unused84]
[unused85]
[unused86]
[unused87]
[unused88]
[unused89]
[unused90]
[unused91]
[unused92]
[unused93]
[unused94]
[unused95]
[unused96]
[unused97]
[unused98]
[unused99]
[UNK]
[CLS]
[SEP]
[MASK]
t
a
##in
##he
##re
##on
##ti
the
##er
s
o
##en
c
##ed
##al
p
##es
##or
##at
##is
in
of
##nd
w
##tion
f
d
##it
##an
##ro
m
b
and
##ar
##ing
##ic
##as
##le
e
(
re
##ent
to
##ation
T
##el
##ec
##us
n
th
##om
1
##ac
##et
##ul
##ol
h
l
##im
is
##ur
A
2
##ig
##os
S
##ve
##ly
##id
for
C
g
##ce
con
##il
I
##ith
##ut
##ow
##ot
pro
##tr
The
v
with
##am
##ter
##ere
P
as
M
##od
##res
al
an
##un
##uc
on
that
be
##if
##um
ex
##em
st
##ts
##ab
.
##tic
F
##ver
##ity
##qu
r
##st
##ag
##ir
D
##ate
##ad
by
##si
R
com
##oc
##ain
B
are
##ure
H
##).
##ated
##ment
##her
##ati
##00
res
E
##pp
N
us
3
##rom
##..
##op
de
##ay
or
0
was
ac
##og
##ud
L
##se
##ted
##ess
##ap
at
In
##ri
W
##ell
##ore
[
comp
wh
##ch
were
##und
G
su
##ant
from
##ers
##th
##ff
=
##ine
##iz
##orm
##pl
ch
im
##ical
we
##vel
sh
dis
se
4
##per
tr
##pec
##ations
##and
##igh
##ies
##),
O
##ich
it
this
##ase
##ents
##ib
en
##iv
5
le
##ge
##te
can
##ign
##duc
not
##sion
inc
ad
ne
k
##ition
##able
per
J
##ence
##up
##form
##ion
par
##ous
##ans
co
##ave
##01
##est
##red
##eren
##iff
0.
sy
which
##ance
app
##ect
mod
##ther
##ach
##ial
##age
##tive
U
##lec
##.,
Th
K
##ie
##ug
##ys
##ort
##ak
cont
whe
##act
he
##end
cons
stud
##ip
##....
diff
have
##etw
cl
ob
##ary
V
200
6
19
##ill
##low
et
##ue
##ific
gen
##ari
##ist
##all
##ard
##tions
ab
int
##ally
##our
##ep
##ors
ass
##olog
un
imp
##yp
cell
inter
ind
##ear
(1
y
pre
##tiv
##ost
show
##tim
##ren
me
eff
pl
##stem
met
##ased
##ata
##pres
differen
##ong
##ork
str
,
sc
di
##ond
##enti
##ber
resul
##ia
##so
sign
##erm
has
##enc
##ord
sub
##uch
des
ev
##ph
##uld
##ide
##een
7
i
gro
##ang
##ates
##ub
##ome
##erv
##cess
##ight
##ative
##ular
##0.
sp
pres
This
##etween
##ons
##av
##ose
##ass
between
##ast
tim
model
rel
##ple
+
##ugh
trans
##unc
system
all
qu
##ech
##ind
##ory
(2
det
rec
anal
##rol
spec
##].
##wo
##ility
also
We
8
data
##ens
##iti
201
##ution
##ound
ph
ar
##ual
used
reg
##ble
sam
pati
than
val
pos
##ied
ro
9
other
##out
sim
##tain
using
##ater
##dition
und
##ection
these
##ace
two
##pt
##lic
cor
##ree
no
been
j
more
##are
##ack
##.1
vari
−
##aus
one
incre
##ail
##gr
)
time
study
##ely
##ating
##hod
their
##ces
num
##pos
Fig
##oth
10
man
##ting
pr
inf
am
func
##cri
fol
##ten
##ures
out
each
form
##one
-
may
##rec
such
##trib
##1,
cells
##lud
##por
##ite
patients
##.2
##ni
##ulation
dec
where
appro
##hen
but
##ever
##ob
gener
##ath
sur
acc
##ile
##ice
##ould
over
col
##hem
follow
##ysis
##........
##oin
##ments
group
##oci
inv
199
##ik
there
high
ag
##rap
##ture
##tical
##ros
method
level
results
Al
tre
x
##fter
##ues
set
##tern
under
##les
##velop
perform
##ases
[1
em
##ects
prov
only
##vely
##ne
##ization
use
control
##ized
meas
process
do
##ood
low
signific
its
different
##ax
##ined
##ms
##yl
##-1
ver
conc
##als
def
so
##ature
1.
exper
activ
##arg
sol
##entr
##ability
##ology
##NA
will
number
u
comm
##ici
##vers
function
es
An
fe
our
##hed
For
##uring
mo
##formation
partic
fact
develop
into
significant
op
##owever
##ark
##ym
##ust
##irst
obs
##der
##now
##ix
both
Y
##vi
z
comple
when
##art
supp
equ
resp
##ra
##ange
includ
##lu
present
##anc
exam
expres
##tein
##rent
analysis
##2,
bl
St
As
if
Pro
##ered
##fore
min
##ex
##duced
work
pol
##acter
It
##ung
##ency
typ
non
##ise
X
##hes
“
##inal
some
##ational
fr
##ared
##erg
##put
##action
##ved
sec
##0,
Z
id
after
##ays
measure
ins
requ
##ause
##tit
##ress
sm
12
loc
##duction
bec
disc
observ
##ox
##ric
##ize
Ch
##ann
cur
##ants
##gor
##rough
##ult
##iel
##cc
##ene
##ild
then
##ven
##atic
##edi
##til
##yn
first
consid
they
##br
##old
##iew
##.3
##ks
ref
##ities
up
##its
##ci
##rel
most
descri
##.5
mul
##truc
##ected
##entif
well
protein
struc
##amet
##ption
bi
shown
rem
condition
##ality
##ft
##ov
##Fig
##ough
##earch
##ages
associ
gr
##tal
##ilar
##led
##ield
mat
obtain
##1)
aut
##ane
##ok
##gen
der
indic
during
##ute
poin
found
tech
##raph
treat
However
##ement
:
##ings
Q
same
repres
information
giv
##10
##ive
##ines
requi
determ
dep
through
##cept
anti
experim
any
based
mon
er
case
##lement
cal
##ry
studies
##ological
char
hig
##gg
proble
Re
Com
respec
##atis
15
|
##alth
##1.
##ale
class
Con
dem
had
&
know
##oun
##ural
Res
##gorith
import
##ions
##adi
new
##yc
test
##ake
##urther
##rect
##over
##par
##],
##etwork
##ivid
##sible
hy
##rop
##ination
##lis
##2)
end
##istic
##tively
##ited
##yt
three
conf
##bed
##ential
##vious
(3
##ade
##ject
##alu
##eng
##hib
[2
##ties
To
term
car
multi
rep
<
ser
##aining
##ently
distrib
##ior
There
pred
estim
##3,
effect
##ism
could
##ove
##iss
need
Figure
main
av
##ON
expression
##.4
addition
cap
sugg
identif
treatment
small
would
##ulated
value
(19
##requ
provid
##ier
##ock
##de
design
occ
expl
mem
##com
order
elec
algorith
##ator
##ful
character
values
##ince
20
year
##gan
who
##ains
##cer
##amm
repor
##mun
line
path
lim
11
##2.
##ode
##of
##arge
∈
pot
oper
higher
gl
##resp
ed
##ning
##con
similar
paramet
tem
about
rate
mic
vol
##versity
network
given
##ples
##nal
respon
following
These
##4,
sequ
##ew
##AT
13
should
##agn
##ves
##-2
within
##ically
dist
represent
##................
..
##oid
##ication
observed
levels
lik
##sive
##iron
##osis
evalu
selec
compared
##ness
##ormal
add
hum
find
##air
##face
##ived
those
Ph
##5,
##echan
gene
2.
activity
important
bas
##posed
##atory
16
br
##ink
because
##ental
##ective
##inc
##val
impro
##respond
##0)
##tig
##other
comput
pap
second
associated
1,
effects
dise
14
chang
lo
frequ
##ics
concentr
applic
##ma
##ores
##ower
beh
##ital
##ty
##isk
##itive
##que
##fer
calc
##ins
##12
previous
##usion
##ividual
##iter
##epend
pe
Uni
##CT
##to
obtained
Ex
–
prob
##ey
##tro
##ER
complex
el
grow
current
##ross
approach
large
##view
##line
due
predic
long
##iod
18
##ron
stand
sing
produc
pop
pat
##viron
ma
##idence
##lear
##5.
specific
while
##hip
##11
##ward
##ai
##ES
aff
mechan
subs
(200
increased
individual
##ision
cr
result
##3.
##the
performance
example
##uce
dom
##4)
μ
reported
state
total
##6,
prim
##4.
##ences
respectively
mean
gre
research
En
problem
##ergy
##ogen
0.0
##SA
##cl
dr
prot
##aw
##7,
##50
systems
##ified
proper
##ission
tri
initi
depend
##ume
structure
decre
increase
##5)
development
syn
paper
coun
clin
##arget
behav
##ian
·
Ac
comb
extr
size
##min
##oy
performed
conditions
den
##ately
occur
Table
part
##7.
##erence
very
optim
##3)
possible
##6.
invol
max
correspond
University
consider
single
##onstr
health
100
lead
##ced
##sed
lower
algorithm
compar
##xt
198
##ick
many
mark
less
##oph
On
period
##8,
allow
contr
abs
##ording
human
power
##ograph
type
##verage
models
general
ext
##lo
response
compon
##tivity
cases
##ables
##ension
bel
##ish
##els
groups
risk
II
avail
##tt
years
##ffici
standard
signal
##elf
Am
##ices
inhib
field
commun
del
##though
30
point
Bi
{
##omet
##arm
##ount
##ists
##iver
sever
inves
##ained
/
##.;
described
##6)
##ynam
##ensity
##ustr
##xim
##ium
Tr
##ateg
##ner
showed
##tric
investig
significantly
disease
med
proposed
sym
ear
>
*
particular
##ually
organ
assess
without
vis
3.
##pr
##CA
##tegr
‘
methods
He
progr
pers
rat
target
te
changes
techni
##irc
##round
##8.
##ld
serv
solution
##ters
If
analy
Ad
rece
[3
##ification
particip
##jects
##vironment
demonstr
##ety
##9,
shows
q
##reg
fil
real
sit
##ull
normal
##based
##utions
among
##ength
##erest
local
##imum
##ependent
exp
correl
##aterial
further
##13
Sci
distribution
##oh
De
pub
factors
All
##ote
##sequ
pattern
##ule
them
inst
##ody
energy
##sy
medi
Ar
sen
temper
acid
above
##ource
##%)
##-3
##ets
##onal
##ector
potential
##own
##vant
##osp
##ested
##uted
##oss
##9.
relations
##olution
α
##ou
##ither
##ype
##andom
direct
##row
mut
•
##ern
including
fl
##ame
##ank
Med
##arch
##acy
child
##20
Cl
##eed
##duce
how
##mit
##7)
does
##tional
##ests
surface
bu
##urn
neg
##tics
##ler
##ger
##be
role
##AR
bound
≤
err
##org
support
##enter
available
range
tum
##omen
##ules
##af
##ily
age
change
hyp
parameters
collec
several
##SI
ep
##ware
region
##anti
##ival
##ving
discus
auth
factor
##atures
##8)
##sc
50
lab
24
rele
##hel
##asing
common
##dro
##000
25
related
"
tra
17
samples
Thus
growth
log
even
##cent
pri
sample
clinical
##odes
pur
micro
did
##15
defined
flu
##ulations
##orph
immun
phase
considered
being
##ression
##−1
##zed
##plic
positive
##NT
##actions
integr
tak
intr
flow
##inu
##cop
post
hand
##imension
contrib
±
water
provide
step
cancer
##jor
##//
lear
##AC
##man
prof
##istr
##ances
At
Un
##ient
bet
species
##pro
att
die
four
random
##och
##itor
patient
Le
implement
tiss
sl
##ool
##ah
Im
##CR
expec
ach
##ttp
##io
vir
radi
##osph
nec
techn
environment
average
##cep
##14
area
position
rati
##lished
##://
##met
molec
##lied
Sch
ele
care
effici
achie
presented
tas
##ocial
therap
##me
##ledge
differences
before
interest
since
prac
##ST
Let
(4
cyc
##ke
##sing
frequency
##rix
influ
##isc
again
measured
cre
4.
phys
caus
##bers
larg
##16
consist
see
temperature
diagn
##az
major
terms
##ET
ox
circ
act
##OR
gu
image
manag
##25
hist
No
strong
proced
##ams
##19
space
orig
##ators
population
struct
either
assum
est
suc
##ords
improve
##asc
##sure
difference
relationship
foc
##omic
##ife
dynam
statis
~
must
fac
Se
##eration
DNA
##medi
input
Ind
2,
construc
##ison
##MS
##ised
conn
##ploy
off
strateg
CD
##ible
##stand
##atively
sum
characteristic
known
##9)
##au
approxim
exc
fin
ques
multiple
Wh
Therefore
suggest
##ae
##hesis
##read
whether
##RNA
ge
mice
##ton
##way
##upp
##app
##uration
##IN
go
sens
top
inj
presence
##very
##not
lay
##ults
##mission
accur
Ne
stim
prom
exist
##tice
##ering
intro
required
fam
1)
##AP
spectr
(199
require
##ixed
##ibr
various
call
back
##ources
length
quality
sequence
...
##onic
section
##osed
behavior
##inding
initial
thus
material
loss
matrix
##we
might
ret
variables
##ogn
linear
##sh
##17
separ
##ended
##OD
##1).
experiments
;
const
##⁄4
##hy
mg
dat
developed
hel
review
determined
mm
##18
Further
##sych
dev
##ling
##irm
##ardi
##SC
reduced
focus
according
Rec
##5%
genes
##ude
##isms
##ole
conduc
made
properties
##abil
chann
clear
cost
##ored
##las
More
way
least
##imal
bre
##ournal
##ont
blood
##ason
follows
http
ow
drug
##ucle
##erc
##ales
##MP
##ques
however
0,
%
##40
appear
corresponding
##5).
##ansi
##ystem
concentration
##IC
functions
##hold
cho
Sh
times
Ins
view
knowledge
##30
prec
sk
##yr
##uk
plas
conver
points
β
enc
##oint
##artment
evidence
ill
##land
identified
cyt
##ably
electr
much
]
##eric
every
ve
better
##AS
##ird
##amp
##EM
##ina
experi
##ouse
##hemical
##2).
antib
applied
super
Our
ratio
##see
##sib
##ticle
##son
limit
40
Research
##ND
deg
features
##verse
recept
proteins
##ument
Met
(201
production
##aging
##tically
continu
22
##for
##60
##tial
fail
soft
App
##OS
##Figure
mass
clus
##fficient
ang
user
types
′
##till
##rit
λ
included
detail
[4
direc
##atisf
##ulate
stress
##/2
When
##ste
##ols
output
children
##spec
##ret
##ulture
necess
##know
good
##uf
##get
##usc
##position
provided
application
social
Although
##ides
sensi
##ots
likely
##ths
men
##))
##tif
adj
##GF
short
weight
stat
wor
##AL
##22
days
##utes
##ying
Sim
##atal
##ike
rates
enh
transi
my
schem
##oma
relative
prog
error
graph
source
Since
×
##omy
##entral
##olic
increasing
5.
iss
##ights
often
phen
therefore
constr
##text
##ze
##80
isol
cer
calculated
primary
AC
##hyl
##aking
negative
read
##omm
##oms
reve
##anced
pp
##vent
Be
##3).
##-4
0.00
##mon
Sc
like
means
hyper
##istance
##ero
After
##tis
components
##here
Co
key
Sp
lat
help
density
satisf
Then
Pr
problems
##PS
One
hydro
##21
Ass
early
##uture
##angu
##aps
##ways
##ially
##less
##aces
##itro
##omes
analys
##ars
##70
##den
tissue
##ED
public
sus
learning
node
understand
##time
fib
defin
##IV
(5
23
##any
interaction
ap
##oper
previously
Gr
self
against
util
eas
probability
access
determine
light
##6).
##urb
prior
phosph
prop
Me
constant
##inary
run
pa
regard
load
##lying
##--
make
consum
##izing
greater
domain
Fin
##24
link
##AN
mit
cross
Ab
bene
women
##ges
##23
##ospital
##reen
address
##RI
maximum
Section
sw
estab
cos
still
what
neu
sem
resid
vector
detection
##more
effective
##ogene
##icult
management
right
success
contrast
##__
participants
##zym
experimental
reflec
processes
down
##uit
##ij
##4).
pair
seen
##lation
φ
##tor
left
##orem
##7).
##aneous
Br
here
life
characteristics
expected
via
##roup
additional
images
##CC
few
##ems
findings
Par
employ
band
membr
reduction
tumor
wee
authors
Dep
##term
##ION
include
neur
Col
content
across
##ching
recogn
σ
(1)
hom
##ference
coe
##8).
interp
##75
10.
##itation
valid
By
##ople
60
##aving
suppor
With
##roscop
CO
##TS
nodes
adap
##pling
##II
experiment
carri
percent
phot
distance
theory
simple
benef
applications
open
yield
best
##let
##aches
##port
demonstrated
block
sch
body
impact
techniques
(0.
##echn
##ysi
##ash
uni
##arc
cri
##AG
##1;
##ino
ide
capac
free
##EE
fem
##CL
##aled
pressure
transcri
involved
functional
index
independent
report
##Cl
fram
rob
liter
his
hypot
seg
Cor
play
28
##lex
##active
∑
δ
##abor
Intern
##ape
provides
along
la
mechanism
software
##lor
context
21
##atural
variable
##ray
##tering
##9).
activation
##ck
≥
expressed
formation
doc
task
displ
active
training
day
treated
##=1
binding
another
##90
##lish
##ising
now
physical
therapy
site
larger
θ
transfer
constrain
electro
Gen
##roph
##10.
regions
0.5
able
increases
∂
generated
##uth
ent
impl
##alle
concentrations
comparison
question
##ascular
##ections
situ
areas
procedure
visual
##38
26
##);
dri
Mod
ol
##gine
##sp
USA
reason
Health
IL
summ
dimension
arg
Pl
ampl
later
equation
whereas
[5
##pper
selected
technique
##ocyt
component
##obal
##tle
→
parameter
##vention
##vere
Fr
pack
protoc
che
##78
γ
pul
##rm
her
##AM
amount
##ext
6.
New
##by
po
repl
##off
containing
(2)
##ii
states
wid
certain
##ours
adv
##pri
Or
##bit
##AD
Di
##ession
red
musc
countr
individuals
##li
##acc
criter
program
feed
resulting
##0).
volume
Int
metab
star
reduc
langu
below
##come
rather
##IT
##lamm
Vol
ax
people
brain
elements
product
##ef
##ones
cour
correlation
search
Furthermore
future
bro
overall
recent
1⁄4
measurements
##acts
##oles
##Table
##ining
Journal
culture
##ire
##CD
subjects
Instit
Trans
##35
3,
near
##ography
##inant
nucle
peak
##load
Chem
polic
detected
##tex
##26
##agne
##tre
surv
'
##99
ir
months
##onses
##IS
reaction
limited
degree
ability
record
evaluation
scale
Anal
optimal
family
lines
Moreover
bo
Stud
move
exten
sites
System
27
##ID
##2-
les
events
side
confirm
highly
##CH
##int
nan
sympt
stage
##2;
directly
Science
ul
patterns
##45
necessary
cannot
channel
##+1
##(1
difficult
memory
So
##like
##28
structures
processing
##EN
Cons
cardi
layer
##aced
They
##equ
full
##27
complete
altern
chrom
enzym
##order
simulation
coll
##rob
basis
received
expos
analyzed
Bl
29
infection
cent
##ceed
users
admin
studied
##29
article
compos
influence
##go
##65
responses
medium
##jective
followed
mM
possib
repe
##itude
##ury
##epti
appropri
##AB
##brid
sal
##Cs
cm
##ired
##aff
carb
chall
ess
##izes
##erve
Americ
action
maintain
literature
##1-
spati
analyses
Des
##ework
affect
Cell
35
opp
Li
taken
atten
##gery
nm
Finally
toward
##eline
estimated
##34
last
final
##rence
Department
econ
mechanisms
##reshold
indicate
polym
##trol
Per
Ca
educ
Data
From
Results
decrease
consistent
Supp
reduce
##ns
##ram
37
service
wave
measures
##OL
differenti
fixed
lack
though
hem
indicated
next
volt
Pub
receptor
##ring
##eral
##otype
selection
respect
##RE
##oding
place
version
membrane
fund
##wise
##ify
reference
##tition
ec
induced
vi
lip
##antit
arch
vers
although
Phys
ein
compound
series
##IP
197
Is
##induced
##bo
τ
##des
transform
##encies
©
##pping
##SP
account
##ert
decreased
networks
students
equal
##ope
##uz
##bor
##bs
7.
assign
ST
attrib
detect
feature
bacter
vs
let
dig
communication
##raw
##gl
Dr
RNA
useful
natural
called
##amin
##back
original
mix
fit
decision
conducted
##related
concept
##hers
autom
##3;
tested
event
critical
inhibit
##ground
noise
aim
quanti
##0;
resistance
##2(
molecular
around
activities
behavi
added
##36
##ulin
##ift
relatively
take
unit
algorithms
approaches
##%,
##ream
combination
##UL
##ery
##thesis
##BS
five
surve
First
##pir
[6
object
##ids
##pression
accuracy
measurement
subst
needed
collected
identify
sets
##iqu
##EL
Pre
##iving
interactions
##ml
continuous
##ats
##acted
restric
##-5
##0.0
produced
mob
Sec
rap
exec
##TP
Fe
services
##osen
central
##agnetic
##atin
eth
Acc
##inf
##4;
rest
sci
##cell
CH
##ymph
##ili
propor
strategy
##pecially
##otyp
framework
##ta
80
solutions
##ead
dose
air
##aling
element
Sub
Techn
efficiency
threshold
illustr
##uble
##imals
##hood
tests
equival
##icity
exposure
exhib
1).
psych
she
##wh
evaluated
ρ
status
code
##ense
##95
speed
Ag
estimate
prol
datab
##RO
diagnosis
##ancy
##icine
enti
get
coord
zero
Inc
revealed
##1(
##ands
definition
cause
##itect
genetic
##orb
sequences
hal
diss
##bl
sex
appropriate
serum
special
advant
setting
##SS
##imin
##ime
supported
##type
##,”
pain
global
##ologies
derived
turn
##anes
mal
cop
scheme
hold
##EEE
Comput
allows
##olar
##comes
##entially
##igr
##ula
##aries
subsequ
##ulating
##tation
##33
magn
##akes
##67
fig
heter
hard
##6;
##di
##esis
##urop
π
trad
##5;
##unction
##ME
products
III
agg
##iness
testing
Rep
Sur
##most
##grad
##erences
##ryst
cou
##ulf
##set
##ffer
National
numer
relevant
variation
technology
language
aspec
MD
##allel
distinc
pH
##gether
##ographic
##erved
especially
together
##reng
market
##arily
##64
designed
##ott
cycle
Method
mac
Theorem
48
own
##lusion
##overn
incub
##anning
having
survival
##igen
mid
##cence
delay
examined
Bec
##MR
association
project
PD
reli
gas
capacity
voltage
##otic
##specific
##CS
##arr
##98
clos
mess
great
transmission
##enced
requires
##Ps
##37
whole
chem
acqu
discussed
##hr
##odies
world
Clin
Using
location
##ronic
AD
##eness
##ites
relation
##MA
rapid
conven
distributed
##terior
#
CA
##istry
consequ
##oll
experience
spatial
While
investigated
avoid
##urs
done
##7;
plant
##9;
suggested
food
(3)
##enz
death
score
therm
plasma
belie
IEEE
##use
##ocytes
contains
##urity
medical
##isted
refer
evolution
dynamic
##str
practice
operation
ke
Here
##ategor
SD
Note
4,
IV
45
##cript
Each
##Hz
morph
CT
##IR
##overy
weak
##100
Man
minim
author
head
Inter
correct
##ral
##1–
represents
carried
words
become
##SION
##lin
smaller
##ember
ra
##eloc
suggests
##arb
direction
lit
[7
CON
##oti
##istration
mode
ww
implementation
##eu
por
AND
labor
##3-
dam
##oung
virus
(6
quantit
others
##.)
##PA
arter
stimul
0.8
##SD
colum
pass
ion
animals
2)
##2]
##dependent
##urrent
Ge
successful
##orption
caused
∫
sensitivity
upon
Spec
needs
outcomes
##zy
wind
www
##1]
Institute
Similar
symptoms
base
improved
lymph
signals
spe
approximately
##tices
El
recomm
build
screen
∗
substr
criteria
streng
##operative
broad
Comp
facil
34
industr
Mo
complic
ur
understanding
##ectiv
subject
monitor
achieve
gluc
usually
##8;
course
##truction
##CP
statistical
##enari
AP
evaluate
##hic
##otor
numbers
##ept
failure
resources
##outh
bone
far
And
inflamm
muscle
oxid
mach
0.01
internal
protocol
return
##2),
veloc
##trans
members
##ww
##otes
##astic
.0
##hest
##iform
agents
novel
##mail
achieved
writ
##na
Exper
nature
##abet
origin
Dis
##arri
respond
transition
##gineering
##39
cat
!
assay
rats
third
assessment
define
six
##incip
tend
##aged
##certain
##alk
##mic
just
community
36
until
CI
surgery
##sk
basic
[8
intensity
##ternal
history
##sis
Op
0.4
controls
fa
##imensional
repro
sources
ω
close
sil
swit
##usions
##ortun
##vari
##pose
##CO
saf
SP
liver
DO
Ev
assume
##uting
Mic
##www
##mitted
combined
##ending
regression
$
generation
##gin
config
imaging
minimum
Ver
give
neut
fraction
transcription
##icial
architect
##linear
##ociety
##MI
interval
8.
wa
##dr
countries
always
##ocy
rang
##LE
##ancer
severe
concern
tree
nam
##urope
##rup
##orth
##orn
##rome
objects
##aster
90
mort
categor
##atives
32
weeks
upper
##asis
##ogni
##ee
##itional
##emb
##NF
##-6
##ellular
tw
Intro
neigh
tool
##ious
##iting
33
generally
outcome
##do
##97
Na
produce
importance
##uments
poly
cut
##ises
list
policy
##ley
adop
American
##pped
uses
parallel
you
PL
published
##co
stable
OF
emerg
Pati
indicates
Dec
representation
programm
sensor
##ognitive
##ump
frag
##emic
costs
soil
##level
##dom
##ict
particularly
International
##omer
Hence
##lier
neurons
Because
exact
versus
leg
rad
map
Er
classification
##day
segment
equations
tempor
##omb
poor
incor
mes
motion
spectrum
38
##NO
true
Qu
##ometric
##sw
agre
##ception
CR
Reg
##helial
##1),
scenari
observations
Zh
##aves
##ident
##In
strategies
Ste
##)(
absence
transport
##9]
##ements
instance
introduced
trials
2.1
fat
##itis
device
##ender
##ached
Neu
##ready
##aring
implic
##EC
entire
##mod
Key
vitro
TH
##known
##68
ca
pepti
Lem
kin
##amine
##ek
CP
bus
Europe
regul
conclud
prevent
ε
leads
Cal
##1/
consumption
isolated
exists
Eq
display
describe
##ectors
##32
agent
devi
affected
choice
##ostic
Sm
metabol
online
track
##pled
##EP
existing
##ares
Introduction
##ye
lung
school
thick
norm
scores
check
##ivo
##ygen
force
(198
efficient
proof
core
##elling
label
chronic
constraints
guid
##ches
table
discre
discussion
las
##oplas
issues
prep
chemical
database
1:
deriv
highest
hospital
heart
##bi
note
##uclear
tox
##sian
coordin
##RA
##3–
already
##uary
2-
established
##GA
##ensi
squ
stability
##ocks
person
forms
slight
##dimensional
whose
##48
almost
remains
gly
##ibri
Two
2).
##arent
##utri
##pite
MS
pathway
duration
baseline
70
##erate
##mediate
##acement
dynamics
##CI
unique
occurs
princip
##isation
##gn
kind
##pective
fore
##MD
Some
alternative
secondary
##max
mortality
theore
trial
longer
cult
##omp
computer
resolution
estimates
##):
estimation
deliver
slow
Mc
cluster
##abetes
##oses
##apy
half
##US
##agen
chosen
signaling
inhibition
vary
release
##ocal
∆
RES
5,
According
##ada
0.1
##ibility
##omal
##GT
land
##ll
##tual
Medical
populations
electron
##reat
##berg
3.1
accum
recently
hypothesis
##titution
##96
hours
##geb
curve
##abilities
##andid
##xi
document
devices
finite
##tructure
recorded
requirements
Analysis
mRNA
contain
biological
##ameter
structural
text
fluores
##cepted
strain
errors
ground
lig
##tioned
upd
govern
mi
velocity
rule
assessed
equivalent
##94
##uscript
external
But
##ifically
##ocation
preval
##cin
buffer
complexity
##ometry
##bes
##CM
leading
##ogenesis
tub
vivo
##ilibri
##...
##une
orient
##normal
acute
making
##9].
Other
datas
##itable
tasks
00
##atric
rules
##3]
##icit
induc
##ories
bal
##eter
##77
predict
AR
Experim
SN
education
fast
##armac
sched
shape
}
2.2
uncertain
##iles
##orts
environmental
steps
interface
composition
divid
##ogenic
promot
diag
##ffic
correc
sin
China
plants
gives
mouse
synthesis
antibody
boundary
Lemma
interpret
improvement
little
##fold
consists
##inger
attention
ER
##rem
diet
fo
background
##BP
##tered
1.2
edge
##ney
filter
##faces
aggreg
mainly
Disc
molecules
##ML
##state
[10
1.0
##atically
HIV
distinct
draw
located
optimization
##umin
gain
migr
symmet
carbon
essential
cellular
represented
##otherapy
goal
Germ
dependent
becomes
attem
easily
cryst
chain
Mul
computed
##atur
##1].
##ched
law
PCR
breast
ful
Model
materials
ml
##with
##ica
##gical
appears
##acellular
alle
Mat
young
challeng
IP
hep
##group
asym
percentage
particles
collection
noted
##EG
makes
##74
##kg
##anol
units
finding
male
recons
contact
##ds
observation
objective
(9
magnetic
##opath
microscop
survey
##IF
##85
##mark
1.1
##year
Def
si
controlled
coefficient
##aj
emission
Information
##encing
includes
enhance
inform
Addition
Pol
dys
Rev
issue
plate
characterized
‖
optical
spl
demonstrate
elev
sampling
generate
Elec
compounds
##eli
##76
Min
Both
##emia
##IL
##IG
don
priv
##3),
##rents
##oe
cle
investigate
##dle
trend
diseases
clearly
##aching
##ses
##activ
synthe
##era
predicted
##oking
##ask
√
##9–
color
##acture
##eres
##side
##hal
compare
##2].
glucose
confirmed
attack
accept
##2/
η
##DNA
recognition
vide
wide
##)-
extent
##roc
prolif
connected
implemented
##LA
past
(4)
biom
tools
procedures
##ticles
catal
##ooth
incorpor
suggesting
##ungen
##change
plan
”
MA
ð
variety
##____
apop
purpose
##ply
vehic
assumed
identification
Em
##44
##loaded
31
hybrid
parts
regular
##LC
##200
Gu
column
Jap
home
wild
rev
resear
seed
##tract
angle
##OC
##iven
44
epit
center
1.5
depends
damage
regulation
tissues
Medicine
Based
sent
questions
Gl
##aim
colon
Inf
##point
?
3.2
indicating
actual
##arrow
property
##ilibrium
cust
mom
cognitive
loop
°
Center
root
robust
##PD
(8
##enn
Second
host
Of
##olved
degrad
##-0
too
##nder
##fficients
injury
PA
##31
Concl
##0.00
conventional
candid
involve
fully
Sw
2.5
quantif
##chron
Hz
##ider
##bry
##3].
sense
classes
3-
##entific
##nce
alone
##66
##ht
etc
##4]
du
substanti
developing
US
##mm
##uman
Cr
grad
advantage
enter
itself
female
##rolog
regarding
underlying
simpl
profile
##ohn
Control
##inter
wall
providing
correlated
PC
relationships
pan
##MC
enzyme
Eng
Also
##ultaneous
inn
Mon
synd
demand
##ighted
strength
variance
modified
polar
##ptions
##knowled
organization
fer
reports
Str
subsequent
##rich
##aily
(7
Can
sufficient
##oring
##ends
Methods
uniform
towards
oxygen
dil
55
ord
aspects
strongly
##lim
##aph
figure
##jection
coefficients
##IM
physi
resulted
##omial
##CLU
put
##words
establish
Car
compe
immune
NO
placed
monitoring
##plant
constit
##izations
AT
feedback
working
Such
typical
Eff
facilit
bond
traditional
##orders
##itr
##ateral
earlier
extension
Ed
flex
drugs
intervention
9.
enough
##VA
exerc
##-8
implies
0.2
channels
items
##RP
instead
##ished
modeling
rank
identi
possibility
##col
yet
Die
strains
##treated
complet
##UT
##orage
exclud
situation
##OH
partial
##yst
##estern
Diff
##free
skin
Over
start
transl
##ounts
instr
architecture
formal
##entric
remov
fields
\
##CG
simulations
wr
CONCLU
zu
latter
details
prediction
incidence
operations
ultr
cere
metric
6,
##inity
prepar
motor
seems
mobile
##’’
detailed
tax
occurred
##ytic
economic
##gence
—
AL
##err
##2+
##NS
CONCLUSION
##%.
adult
heat
39
double
begin
##ged
##ache
word
hence
formed
remain
95%
##ipher
extended
##eth
##mer
##ochond
##itz
Given
temporal
Bo
amino
Hospital
##coh
neuro
programs
During
capture
statistically
##icht
##ressive
frame
pix
doi
substrate
##TA
##7–
##rief
##ologic
prepared
causes
Auth
##ications
interesting
∼
proportion
##omas
##bedd
learn
induction
##no
bias
gradi
##sia
que
##ills
May
behaviour
assumption
phenomen
##-7
Group
pref
##uct
enhanced
sections
mutations
##isions
joint
neural
media
Cancer
##.-
security
0.6
##ATION
RESUL
antibodies
analog
##tosis
diabetes
##:10.
##hydro
extract
contribution
Ro
computation
Proof
pairs
mL
receptors
##oved
transformation
Society
##agement
trig
seman
##ening
##etr
prevalence
Γ
denote
mel
matter
##ochondri
##otal
##iction
overl
accurate
manuf
examples
simultaneous
##ao
coh
##ogeneous
ste
##ser
employed
tumors
ic
INT
##ogenous
AB
pay
unc
week
description
arr
reson
depth
##EF
animal
ensure
##6]
pen
healthy
typically
sup
majority
researc
Hy
Af
##atform
retr
allowed
room
Technology
qual
integration
##4].
liqu
##raft
##CTION
##53
emo
##ociation
RESULTS
agreement
Statis
Psych
mixed
remaining
symb
slightly
cover
adhe
showing
Ref
##ontal
bur
Jan
Ser
MP
operator
##eting
##oxid
sensitive
supplement
##ancial
fluid
##ano
administration
acet
##ticip
widely
##FP
Ω
pi
##ussion
answ
daily
face
##ct
hor
stimulation
spectra
##ss
carcin
embry
removed
ng
Te
##SM
extracted
Ig
solid
##(1)
##usted
##truct
‘‘
MET
pregn
summar
radiation
suitable
∣
ED
mill
##wid
##asons
throughout
theoretical
Another
insulin
##2–
rol
explicit
contin
equilibrium
##pts
marg
significance
polymer
injection
apply
resource
transf
vacc
manner
price
fav
lesions
Ob
##RS
wi
##55
##abe
##otypes
taking
),
Equ
Most
od
responsible
rights
perf
##ilt
nor
phosphory
Do
fir
##AA
IN
5-
RT
stages
counter
plot
repeated
United
##OP
contribute
##def
completely
2.3
iden
van
##lecular
PP
##stream
smooth
aud
spect
##uly
##ample
ξ
mentioned
〈
##hing
ask
##5]
particle
3).
mapping
chromos
pathways
movement
intern
ti
currently
2010
metast
expect
##aired
differentiation
##----
##ectiveness
CS
belong
idea
##oted
1-
Immun
##tingu
presents
decom
decl
##46
##tives
personal
differential
##bal
cardiac
laboratory
##ips
thermal
storage
##cepts
magnitude
Mar
forward
takes
domains
##last
##The
once
##cal
dele
##inated
##jected
##yright
##head
syndrome
written
##roid
##FT
ist
auf
##ão
video
##idity
da
diameter
examine
construction
:=
align
traffic
incubated
adults
session
circuit
shift
##ured
therapeu
##edu
##enge
das
Det
##ils
##4-
##istant
ID
machine
conj
##ategory
delivery
##anal
##fl
##inations
toler
nutri
##sized
propose
explained
Systems
closed
##urg
opportun
European
ψ
##MT
invest
distingu
ce
Similarly
plane
ν
##uck
46
surgical
##ochemical
clusters
Pa
lin
##acing
contained
##oids
created
##zing
separate
##antum
scat
##47
##.0
empir
nuclear
simply
##esthe
2015
eng
500
meaning
orth
eine
##ervation
##rin
benefits
recovery
##ament
rare
1/
alter
##organ
##istered
gel
##istent
mutant
##93
explain
white
2014
mixture
actions
##doi
business
hab
Gene
##mann
propag
##seud
inser
##6].
##poses
Si
conflic
mutation
message
Material
laser
divided
##nai
quite
bei
charge
unknown
hier
ones
vectors
computational
−1
DOI
create
##7]
PR
##ev
School
##width
platform
fall
Labor
##osing
curves
4.1
sa
##osa
von
acids
##ades
ann
(5)
abund
##ING
grid
marked
47
otherwise
extraction
##amb
Commun
share
Non
##88
renal
2017
rout
metal
numerical
John
array
Num
thickness
commerc
query
except
rs
##ided
commonly
benefit
##gi
endot
safety
ways
##orr
##atch
Develop
configuration
apparent
mitochondri
##ansion
claim
thank
miss
led
apoptosis
parent
##rim
moment
construct
house
0.7
(10
reducing
proliferation
old
##RT
##itud
##orld
_
##ayer
HP
##utive
∞
##itrogen
IF
effic
nonlinear
maxim
42
Rel
integrated
keep
om
digital
stem
##”,
##5].
assigned
##ps
##6/
##ards
##101
categories
##knowledg
retrie
window
##bre
div
##ceived
##gebra
emph
##bitr
##mediated
parti
##ingly
##gu
motiv
accel
recur
neighbor
seem
formula
##ford
##49
##oud
supply
approximation
disorders
2008
3)
Progr
methyl
##HOD
##vals
##tained
manuscript
##agon
Mark
Compar
vascular
median
PM
Sciences
chlor
exercise
Study
Germany
##Ch
embedd
##ovascular
exchange
markers
10,
amplitude
subset
explan
##7].
##DL
prote
##chem
PT
job
##ras
easy
Not
##dis
2000
75
##well
computing
##men
##oster
flux
##ani
##ocyte
##monary
break
identical
##ensive
##omorph
distributions
stored
##pha
##ENT
frequently
height
2013
43
spectral
Aug
##ochem
fi
appe
##tib
##comp
beam
65
epid
reflect
independ
genome
##ynomial
minutes
examination
##ather
##arv
Press
##elines
2009
##che
aver
late
##rs
operating
exposed
##cohol
bir
##etal
7,
screening
##5),
##%),
##amental
axis
potentially
UK
SU
3.3
##lege
METHOD
kinase
##umb
##ollow
##4),
##1:
High
iter
variability
reach
Afric
hi
##mL
anten
bott
DC
##ato
Val
##1⁄4
Engineering
##uber
##erson
##-10
##going
similarity
##uzzy
196
Ma
reasons
).
Discussion
##ativ
constraint
##ki
cam
##ibration
gran
older
Four
prove
Biol
oste
amb
##omatic
abnormal
deviation
Wang
##−1)
port
##St
IC
##SO
file
depending
Cop
300
imm
##illed
profession
works
spread
focused
arbitr
Austr
Sever
##function
IR
frequencies
##raz
minimal
##ls
holds
##used
##wa
##ethyl
York
therapeutic
##asp
##scill
considering
##emi
##leep
expansion
researchers
Patients
##MM
uns
Now
reactions
Clinical
decreases
horiz
##zation
cytok
##FA
edges
quantitative
##atics
oral
probably
date
ant
treatments
inhibitor
positions
Japan
##/10.
##mentation
##@@
##aro
##take
Keywords
virtual
degradation
Multi
specim
##kin
##eff
##nt
rot
##ench
##ux
fiber
58
Sign
interview
corresponds
say
practical
mil
54
##urch
secre
differ
variations
recommend
fluorescence
##roke
occup
##inking
investigation
End
##irus
##tron
Indeed
##alian
##cium
##tension
nd
##vis
##cos
##6),
##abel
##odium
##ued
dimensions
##8]
##section
layers
na
##(2)
gradient
execution
##acent
interpretation
##mid
##PC
##ana
conclusion
States
##icians
##opro
expon
Web
liquid
##uation
bacteria
0.3
manif
diagnostic
Id
56
entr
##eding
##actor
peripher
efficacy
technical
##xy
Chen
##rehen
Serv
0.9
##ura
diversity
##sch
financial
ut
category
2012
specifically
constructed
mechanical
ha
MR
##erent
extrem
starting
Ep
peptide
identity
##ectively
##)]
fores
##zen
##band
##mediately
##oscop
##201
OR
adjust
##ara
Acad
desired
##oral
middle
polynomial
dies
##imer
##tribution
industry
suppress
4.2
##ini
##ophil
Network
ri
##overed
coupling
highl
matching
##down
schedul
ten
harm
##velength
recr
inver
Work
##ynamic
##ham
##.6
##reless
feas
compute
obvious
##MB
##sub
8,
##oxic
quad
scenario
oscill
effectiveness
artif
activated
##8].
absorption
##sively
June
tun
government
##43
##UCTION
web
electric
yon
collabor
Acknowledg
##raf
La
##oded
bacterial
##57
invas
Aut
þ
##PP
10%
##vironments
deep
dataset
Under
##rees
##irect
##tra
black
dependence
ms
Gaus
famil
2.4
confidence
targets
mental
eigen
infer
comparing
pure
blocks
bit
Prof
compr
##ROD
Several
##86
inflammatory
##gative
ens
involving
Proc
##ries
complement
lipid
profiles
jud
mamm
compens
barri
##otrop
##elihood
##td
discuss
onset
absol
organic
fal
concepts
randomly
##herent
49
Algorith
##control
Among
##ran
bul
Apr
Pe
planning
vehicle
##isition
io
staining
##)−
inside
heav
##avity
pool
##LS
##ien
respir
induce
##arant
recomb
##EA
elimin
##DM
yields
quantum
##iral
look
(6)
poli
spin
commit
calculation
viol
That
MT
##ibrary
metabolic
fundamental
`
row
plus
periods
outside
progression
complications
intermediate
onto
DI
##5–
##ether
challenge
hierarch
offer
##where
##flow
instruc
locations
##rosis
Found
##73
humans
THE
##0(
station
##iment
##eck
##water
SC
##icon
##nals
comparable
transmit
bil
choose
##went
aus
nur
synchron
intervals
gender
mathem
##times
##rown
ster
reliability
limitations
dual
partition
uncertainty
females
discrete
SO
##lig
##ives
Human
Es
##NP
##elves
diffusion
##sequently
mis
##ella
existence
gap
technologies
(0
##RODUCTION
advanced
adequ
##ocard
##pe
Bas
##ifying
sizes
immediately
intra
##dx
interven
Cont
sat
##scale
pulse
involves
Su
interact
##ush
pert
reduces
##care
cycles
obes
CL
sed
##anch
depression
controller
shif
calculate
##atical
##occ
national
##tile
adaptive
ta
0.05
meth
susp
Development
thought
##radi
prefer
##aker
vess
count
accumulation
##uel
residual
##ellig
protection
module
State
vertical
Volume
41
shared
##FS
##PCR
11.
prin
##estinal
horm
INTRODUCTION
empirical
posterior
##romb
##apter
fish
perm
##kele
2011
##2:
##tober
linked
lateral
##cm
describes
##eh
July
never
accepted
traject
##sm
manip
##DA
CM
bey
income
##)|
alcohol
packet
2007
##ifier
questionnai
clim
##lementary
inequ
simulated
beyond
environments
sensors
##ociated
[1]
Rece
team
##endix
##-9
##umm
##yle
game
##activity
sound
orientation
cohort
suscep
##tenance
solve
oil
Many
ON
##ycin
Interest
Association
analyze
##EV
59
##DP
Sal
speech
excl
##%).
##genic
bind
trade
##oration
physiological
connection
ring
metabolism
angi
South
artery
Char
why
##alled
binary
##ames
##bral
Red
probe
##aper
##ifi
maps
referred
Mean
PS
stabil
denotes
##ners
decisions
##63
scal
Computer
commercial
kid
bandwidth
##ifications
disorder
##inition
fix
males
Rem
modes
57
##(2
METHODS
ni
See
explo
residues
2016
classical
##fr
##isons
aer
balance
##onary
##apl
##},
eye
##taining
##42
effort
##ng
calcium
##kt
##.201
width
##ken
migration
##len
Hu
minor
Vari
##ha
##positive
charg
firm
ratios
robot
server
##LR
aden
SA
##stein
inte
building
logic
##87
inhibitors
separation
##HA
##ón
preparation
IT
##omers
##rices
classified
elevated
##bing
moderate
##eg
##isp
##theless
eight
rise
carry
stream
green
Additionally
##assive
innov
##GC
sleep
dest
53
Out
country
##omics
completed
firms
Sept
##bert
war
maintained
##ees
##ulus
cruc
##asi
CC
fre
##lands
vor
NP
150
wavelength
introduce
uptake
cloud
AN
tag
NS
##urban
reserved
Conference
##med
observe
principle
##III
64
CB
##la
centr
ter
4-
neutral
theorem
electronic
removal
drop
coding
Process
##ding
sulf
72
comprehen
namely
@
changed
##eling
replic
reached
##versal
sodium
What
complexes
##=0
##HC
um
split
stimuli
successfully
weights
##lich
Po
##ille
Ber
##itively
guarant
cultures
’
actually
##ging
##ariate
##ori
phosphorylation
round
candidate
capital
fault
##illi
effectively
##ho
inflammation
kg
relax
progress
thin
ideal
brief
Proposition
perspective
##oxy
##ients
applying
##cast
##hi
kine
##ceedings
##resh
infected
panel
##ournals
DM
rapidly
##att
pharmac
March
surfaces
deb
##olester
##.7
Statistical
##sen
Cu
AS
primarily
composed
##vol
Gaussian
##UR
GP
Ap
matrices
##.8
RA
coverage
##ellow
Kr
month
95
happ
January
progn
arri
Oc
acquisition
AA
promoter
Author
Organ
##HT
pig
##ka
fusion
cortex
lowest
##ister
Materials
##ilities
impair
roles
invari
amounts
simultaneously
growing
infections
receive
links
##ancing
##pon
##hand
receiving
##data
expand
##uits
private
disch
SS
challenges
availability
clustering
programming
largest
##tee
assemb
##onomic
RF
dry
##05
pulmonary
##LP
tor
2:
systematic
statistics
peripheral
lys
net
##oS
reproduc
phases
##69
protocols
convergence
viral
[1].
##astro
temperatures
absolute
IS
normalized
remained
April
exceed
sti
interpre
fuzzy
4).
conclude
##net
contributions
Nat
despite
birth
(7)
mother
excluded
closely
Mal
.1
NH
square
##fig
TR
Zhang
##forms
Follow
calculations
your
defici
dominant
surround
HR
kern
##aria
utility
Test
##}.
##ancre
intake
##atus
science
##ened
proxim
400
repair
NA
separated
methodology
##field
nerve
algebra
ventric
practices
exhibit
malign
##lip
reliable
fed
##opar
meet
##test
SE
52
bes
##chang
How
##otide
##apping
enzymes
##OT
[2]
Φ
seven
##–2
##–3
maintenance
inner
consequence
##ogl
Definition
likelihood
marker
PI
box
##BL
leuk
pseud
Ann
##cor
##asure
assays
interference
varying
manufacture
families
##ado
##pub
##HR
thems
##BM
01
regulatory
##plate
reverse
##CE
hydrogen
themselves
##erden
##–5
##89
degrees
Total
Time
name
SV
##41
##ensus
##ky
attr
adverse
##mg
household
static
false
##iffiff
##DS
ded
Public
##wide
glut
##oints
cred
9,
##igu
running
guidelines
standards
circum
χ
##62
##ypt
bottom
--
κ
covari
##anted
North
##ogeneity
beginning
transplant
vit
##uff
Bay
##http
behaviors
Ltd
##aight
##HD
50%
##elt
iron
allowing
changing
##amide
publication
asympt
workers
Despite
tail
purposes
Design
coli
##unt
3.5
##sibility
ln
skills
diver
limits
representative
argument
conve
##gal
Ear
Foundation
segments
Review
measuring
macroph
specified
##axis
kn
Sol
Three
##aptic
##enous
radio
##itt
NMR
Step
representing
##thal
stroke
##osyn
##mat
Dav
##ondition
requirement
##ama
assumptions
##value
engineering
##oxide
Av
randomized
[3]
specificity
moving
[20
##ensor
AF
Received
##LI
parents
purch
CF
inputs
##ergic
explore
##6-
partially
teac
li
Copyright
Only
bounded
##ieh
proved
anterior
plays
exhibited
living
blue
addressed
interventions
Park
##ECT
51
Environment
Ni
Cent
##range
schemes
leaf
doses
##79
Del
##titive
##aternal
Care
electrical
molecule
SM
Bar
pregnancy
NF
Internet
2007;
Ti
hardware
Mac
operators
translation
belief
student
adjacent
##BD
experienced
Soc
substantial
##OM
trees
determination
##lies
##rine
suff
##rig
##mosp
crucial
express
polymorph
illustrated
##84
prospec
1000
##onn
##mo
stimulus
Correspond
[4]
zone
select
recip
##lets
perceived
olig
coronary
severity
Σ
-0.
deal
involvement
Syn
distinguish
scales
arbitrary
●
MC
presentation
ions
extensive
SR
situations
muc
##troph
wireless
Western
##.1)
##ads
August
coupled
Even
ont
##rog
##igma
2006;
rotation
substit
##cy
##hav
sexual
tracking
independently
scientific
carcinoma
conversion
lic
engine
implications
appeared
attempt
write
##estic
attributes
Due
localization
##anks
intracellular
stre
Educ
##.:
##tility
maximal
thereby
straight
2008;
##ico
Algorithm
##IA
##MENT
##regulated
Spr
nearly
##lection
termin
efforts
Sym
##–1
##iol
advantages
urban
antigen
policies
##iring
September
##erests
summary
2005;
werden
UV
6=
Case
possibly
qualit
##tid
##iotic
asked
October
conv
120
meta
##”.
Path
Experimental
sector
Physi
adoles
Applic
Never
##orting
restricted
##abric
##eb
##oming
Cre
##actic
##which
endothelial
5%
##BC
##neum
vertex
fragment
##obic
)(
##OG
##olesterol
2009;
sich
##lusions
##ault
front
##illing
capable
strict
correlations
3.4
##Al
General
entry
extra
Class
(197
phenotype
frequent
Lee
criterion
[5]
##ulator
College
largely
cardiovascular
##haps
##rot
page
occurrence
messages
##itors
indirect
Arch
0)
international
##empor
quick
Cam
request
match
adjusted
obj
predom
99
BP
rough
Page
##process
Studies
decomposition
She
scenarios
##inese
##ading
initially
cy
##8%
subun
film
Her
poss
encoding
instrument
inclusion
Laboratory
built
##GG
##mol
vac
miR
determining
Ha
Conf
acces
displayed
##illary
##ida
2004;
##ür
settings
##oto
◦
biop
December
##obacter
soci
##awa
##zer
habit
##requency
rig
staff
##As
grade
recommended
institution
exactly
##pected
##plex
##erated
##0),
reading
##TC
ATP
varied
##tration
##ker
correction
superior
ads
##inn
comparisons
remark
##negative
##ediatric
Sing
paths
introduc
determin
kidney
radius
##mber
##ungs
adopted
Child
forces
vertices
##arities
respiratory
##mi
Management
##antly
[6]
##uss
##associated
##ometer
mmol
behavioral
ing
BL
101
##atter
leaves
goals
mitochondrial
My
##6%
##yroid
camera
Nevertheless
Adv
har
##formance
##yes
##7%
stead
##plete
acquired
AM
Proceedings
##idine
##cription
pancre
Consider
##sities
denoted
Form
##TR
##orter
##class
##actory
washed
subgroup
ris
disrup
selective
##hn
##SH
consideration
pel
##ba
gal
##-1,
EP
disturb
##61
##ytes
disp
dark
graphs
Current
##Es
myocard
ble
##cut
##isher
Conclusions
adding
##orted
2010;
##fully
records
##insic
##ovember
##Med
TNF
instances
##)2
reconstruction
administered
WT
oppos
##)/
embedded
##itory
2.0
Interestingly
communities
fluct
resonance
steady
rational
consisting
km
##assi
aspect
Chinese
##ciples
##iat
##ician
labeled
said
semantic
Fl
2(
##phase
##rams
##ERI
mar
TB
4.3
epithelial
nitrogen
Wil
World
stated
variants
faster
##UN
come
2003;
##inite
##ogram
geometry
phenomenon
##arp
Δ
2006
##roscopy
incubation
##isting
(8)
##lik
##bruary
##xiety
##phosph
adaptation
2007).
[7]
fair
mostly
**
##−2
##83
conduct
##gel
##iding
cultured
##7),
##amples
Published
compan
Pat
##usive
precision
2006).
ischem
PBS
nl
press
modification
parad
##YP
grown
##WL
specimens
English
##link
introduction
##uate
##EGF
gest
microscopy
Max
modulation
micros
##ochastic
believe
##5-
Lo
attributed
decreasing
Mol
##/-
##Ns
annot
serious
Econ
underst
##regulation
Kim
##8),
##=0.
é
want
ye
##.1.
ranging
als
Pos
depic
pow
Particip
12,
regional
political
##ortic
2008).
arm
⊗
SH
PV
toxicity
##acet
satisfy
Patient
Dise
einer
##ously
ea
dB
##ontaneous
##urance
##54
##SV
basal
2005).
switching
##osystem
mediated
∧
systemic
##va
Hist
##ischen
prevention
routing
integral
Radi
prem
narrow
member
##atitis
consequences
nanopar
respective
##ema
##log
##ecting
allocation
away
promote
considerable
glass
precip
##pass
Pres
##–4
triang
##DR
pic
##force
Next
##immun
deploy
diagnosed
supports
projects
reasonable
twice
##apse
.2
##traction
tex
##uma
formulation
asymmet
tube
##ifug
notion
EM
else
isolates
serve
##arse
##aken
##hell
interests
MRI
Bes
vul
veget
##amil
20.
Comm
fresh
##/0
item
bio
million
November
dro
Stand
##UC
##72
answer
Appendix
##ava
inverse
approved
neighb
(9)
##iley
receiver
analytical
Ze
[8]
##bound
scattering
diagram
atmosp
horizontal
none
1−
compact
##92
##ifer
##inson
##terminal
emphas
##acr
paras
pages
Molecular
facilitate
##unctional
affects
2011;
hypertension
Λ
##ectivity
rib
recognized
##ional
SL
##sue
encour
popular
ple
∩
2009).
transferred
##onia
##aine
2005
∀
##eries
##ester
sn
big
##Co
pixel
##ratic
extend
ME
attit
##verex
##urations
##pd
extremely
smoking
bar
trace
2002;
perception
peaks
explanation
chemotherapy
compet
Canada
CV
Consequently
##OF
dop
##unk
alk
rating
##ett
##ski
2004).
concerns
Conclusion
nt
HC
fung
coordinates
##9),
##oks
ci
codes
hypothe
oxidative
##ção
##ita
ub
chromat
dial
##mia
accoun
bands
equip
jus
chromosome
instit
Calif
4)
experiences
subsequently
##(0)
mutants
influenced
antenna
visible
questionnaire
##Dep
##mean
##binding
##pty
##________
lesion
necessarily
generalized
##oz
tom
propagation
defects
purified
conjug
##aten
morphology
former
validity
kernel
##,1
##ectives
Suppose
Cells
PRO
stock
##idge
Following
AG
sequencing
dysfunction
##Is
##hol
##+1)
ultras
##’,
enable
participation
thromb
##athe
[2].
##ordance
PK
##nel
##56
##vier
Tri
##pati
cool
##char
switch
ov
nach
tolerance
solving
##Th
improving
##aly
##reatment
##81
alpha
atoms
fabric
Liu
portion
Sa
expressions
##mal
mild
DA
predictive
favor
reviewed
##eld
walk
documents
##cessive
DR
arrang
##heses
##bridge
inhibited
update
PH
Open
loading
FA
numerous
satisfies
anat
2010).
##itch
blot
Lett
ns
##hern
regim
ty
1;
perturb
##alia
listed
xi
##ondon
##duct
concer
##PT
##iber
##ecutive
2003).
irradi
≡
Ox
##NR
associations
decay
San
[9]
precise
understood
Zn
##82
underwent
cul
thor
nucleus
directions
Once
transient
##abetic
aged
##elled
⊆
client
accomp
##71
missing
usage
depos
proportional
##derived
##part
##lectric
https
##.2)
validation
11,
possess
##path
##oli
indeed
performing
symmetric
Previous
##wards
radical
membranes
piec
Where
##igm
MI
identifying
Evalu
adequate
##ca
feasible
##king
EC
agr
Rob
̄
##forward
Soft
shap
2001;
potenti
farm
##−1,
##ornia
ligand
##versely
Bel
excell
ii
##roscopic
endogenous
HA
tit
[0,
##cul
Social
papers
signs
##ppoc
##lammatory
implant
∪
##conn
cham
Nor
neuronal
##ylation
RP
pump
ign
##irr
Eth
Post
##Ar
Cardi
February
scan
principal
ES
topology
option
##istics
inequality
appearance
wat
##tibility
##cr
comprehensive
supporting
CONCLUSIONS
processed
##icul
##but
##ophag
Pri
secretion
##stead
industrial
failed
diverse
string
nicht
##osin
Go
##DI
2000;
195
nerv
replication
canc
##oked
modern
##DC
##amic
Mart
Number
2002).
Equation
Lim
Prot
à
2004
##TM
tract
multipl
conflict
(10)
-1
replaced
1),
##su
enab
crystal
perfect
##oglob
beta
MHz
##etric
##tention
spontaneous
Mg
produces
mobility
##02
ves
63
minimize
combinations
##91
##BA
compression
distances
forest
became
separately
cDNA
##ellar
##sin
##Fs
##hyth
native
##9%
sharing
##anz
climate
rein
sometimes
occurring
##(3)
LA
India
melan
altered
articles
bank
##ppocamp
ice
Program
phosphate
utilized
turb
##lasts
##TE
fatty
Recently
##timate
GA
lattice
##RNAs
centrifug
##URE
Fund
valu
##icate
cholesterol
semi
##SCs
##ochemistry
2012;
antagon
SI
(0,
##acial
Type
adip
##tible
EX
packets
Micro
##what
##etry
generating
##luding
timing
##erge
Down
##work
##fficiently
[3].
mathematical
auto
promising
cytoplas
250
weighted
##.[
wur
##ony
excess
annual
ethanol
acad
targeted
##PR
15,
1%
##ga
##tz
Chr
##FC
Overall
remove
exception
##sevier
lost
##journal
inhibitory
##gent
started
mind
conclusions
California
##iller
##perm
rich
##ji
heavy
##aci
pal
##ben
infants
##treat
##cons
analysed
Å
##fall
lif
Protein
genomic
##udes
cortical
emotional
##és
flat
options
pixels
outer
LC
disper
##prising
specification
detector
##ught
##Department
France
##**
injected
abundance
pip
phyl
IgG
3:
gate
##NN
Their
Þ
##ulty
think
IFN
bed
##methyl
##reme
##izer
##tures
anxiety
ML
dt
##pi
sensing
approximate
Nature
symmetry
##ectomy
##dep
fragments
peptides
≈
##6–
⊂
##anned
##eman
route
Initi
investment
##nat
oxidation
##BR
integer
85
##ogenetic
##analysis
multic
##Pro
dx
infras
2011).
##Ca
quantity
kept
##SE
##trial
Pet
.5
##Me
dim
ct
obesity
scheduling
oxide
flows
synthetic
Appro
evident
enhancement
induces
stochastic
mol
overex
##lect
[10]
##Supp
grant
risks
predictions
directed
extracellular
concerning
live
Chang
##iger
##rew
poll
Back
capability
##ref
opposite
pneum
accompan
vo
5.2
##inder
iso
##keletal
prices
shock
##new
frames
Green
##vered
excellent
shall
##ropy
SW
Bu
companies
competition
library
preced
plastic
plates
slope
##graph
instructions
placebo
##3:
terminal
VI
##sec
automatically
##amination
participant
##ritis
##4–
electrode
##3/
MAT
tion
##gans
slic
indices
iteration
##cing
##cience
##top
spaces
##orrh
concluded
postoperative
continue
2001).
restriction
movements
assembly
derivatives
Low
[4].
5.1
controlling
Accepted
##ione
isolation
clar
##itudinal
coordinate
predominant
##Si
LV
plots
##GE
PE
travel
##rogen
views
consent
##olation
##oot
##idal
##esian
trust
offers
2000).
epis
##idden
##oney
multiv
greatly
##Br
statement
##formed
reactive
affinity
decline
reveal
##ulative
##vance
##ulates
adhesion
Comparison
perme
##cribed
gave
Den
losses
Set
Education
nons
contributed
rab
##yth
recall
##1016/
representations
##)).
bulk
Kore
convex
derive
projection
bits
durch
enables
##DH
##lated
mesh
maternal
probabilities
##ported
calibration
neurop
composite
bud
teaching
##TT
germ
languages
##inflammatory
topic
shorter
principles
##otox
branch
##rench
format
##dri
##henyl
##umes
##cont
##oman
consisted
prostate
recruit
Ba
equally
68
extracts
histor
.3
##enchmark
##right
##rical
4.5
##han
Mem
ie
##alities
fibr
nloaded
20,
imag
anomal
difficulty
pyr
##osity
##.3)
##opathy
spinal
TE
66
##values
CE
respondents
sufficiently
satisfaction
flo
illness
contents
Cd
##label
driven
12.
tele
comes
##dominal
##activation
vacu
##tious
##fe
Mich
alloc
PO
doub
##′)
barrier
Fac
colle
62
##itary
Univers
##ention
elastic
ech
MO
psychological
covered
journal
##ocl
Hol
fine
5).
transitions
2013;
expressing
Bro
para
qualitative
##onym
educational
##essor
##uli
ts
##ulatory
94
discovery
Article
ventricular
efficiently
##ows
##ceptions
conserved
##03
discharge
Coll
ball
(100
equipment
company
au
intellig
Treatment
##:5
London
Neuros
arth
iv
sind
Smith
FP
##′,
##iii
constants
##ova
Qual
subjected
Ret
stop
datasets
surrounding
safe
prolong
##DF
cultural
utilization
returns
electroph
[11]
acts
##iro
crystall
##rete
neither
́
1(
##eta
stronger
##zi
ET
[5].
myel
copy
developmental
transformed
collagen
(11)
released
##ologists
scaling
##HO
##rought
##Bs
modeled
arc
positively
Ul
[1,
hepat
summarized
##weight
Au
essentially
Lu
continued
Participants
##abs
segmentation
fewer
cerebral
domin
null
##dehy
##nc
##Ab
modules
cod
alignment
##ycl
organized
precurs
solved
##icated
§
##GS
variant
Part
Vis
Gal
cum
##osomes
Cur
##ozy
interpreted
##oprotein
##heric
^
matched
##ience
##ono
##oidal
Pi
conceptual
##rest
preference
##burg
nanoparticles
waves
##phal
FL
DS
##lag
retrieval
enrol
##oton
toxic
excitation
feeding
medicine
##ificant
Bal
organizations
fibers
queries
##olds
Tur
alb
##ensitive
##8–
explored
regulated
ranges
##ognition
explicitly
Australia
##lie
genotype
connections
waste
hippocamp
##orbidity
1999;
Service
knock
derivative
Mass
dram
opin
##adily
Microb
macrophages
##acer
myocardial
##isely
accurately
67
##BV
partners
14,
evaluating
##otropic
trained
imped
cond
improvements
TA
clock
substrates
##gly
satisfied
ACM
vision
##osomal
Ta
allele
Ram
saline
##.),
irre
##night
##ortion
heterogeneous
os
wound
DISC
compati
sustain
##trom
##ipped
Dem
overlap
dip
##aki
tet
##ya
took
##key
trends
propos
##ailable
join
HD
informed
##9],
##ulum
valuable
##timal
kinds
.4
##can
attribute
96
fri
##ette
SF
bis
deposition
6-
Plant
regen
##ortunately
targeting
##BT
perhaps
##arbon
proceed
feel
nom
##from
reporting
##ontinu
hemat
##oke
Use
vic
cold
indicators
egg
Commit
##akers
synthesized
##tes
##ptive
##treatment
##operation
optimized
var
metrics
files
##04
Bio
##HP
reproduction
capabilities
transmitted
##ishes
##nic
ss
drawn
runs
morphological
##HS
NC
.00
[6].
##amma
##anese
arterial
collis
impaired
##ryp
dog
##1],
card
##avage
##plicity
cytokines
illustrate
professional
polyp
counts
lob
##hentic
##ko
##AGE
##ief
##itig
book
intrinsic
motif
consensus
hormone
##enh
flexible
interested
2012).
##00,
##Da
Biology
ij
indicator
##orient
##otechn
him
dos
##da
##ospit
foot
##rimin
anesthe
Obs
peer
##nn
[12]
Effect
##fit
hydroph
giving
chains
consecutive
usual
adapt
MAP
primers
Braz
mus
repeat
applicable
fetal
held
interf
intrav
solvent
77
complicated
immediate
##eller
##grade
Dig
downstream
##ellen
opportunity
(95%
##asts
##MO
##.11
(12)
finally
##iling
Power
vulner
Behav
##idi
degen
traits
##ellite
scope
##NC
##iquit
##ership
##luores
##emat
cycl
preferred
aug
Recent
limitation
2018
##ahl
driving
ζ
stained
##fi
##ago
disk
##omed
##.5)
##rene
BMI
leak
##typ
consistency
13,
producing
verify
dietary
auch
Supplementary
vitamin
##emble
bp
sole
beneficial
quickly
##VI
aimed
aggregation
Elsevier
discrim
##eph
Long
demonstrates
##ompl
abstract
fluctu
##itored
##mented
overcome
clinically
##ivision
##perf
crop
##adder
##gers
1.4
##BI
##avig
prospective
20%
centers
1.3
##ui
##ifies
resol
donor
##elle
[7].
##pre
recommendations
ideas
Incre
##137
boundaries
yeast
lists
1998;
Specifically
Electr
##hl
##queous
sugges
NE
automatic
replacement
trajectory
conditional
Arab
ia
##rend
picture
##acturing
##reness
GC
##fol
transcript
##ira
recurrence
impairment
##Ac
antioxid
Proble
assistance
requests
##iatric
Chemical
##inear
initiation
Mor
##outhern
##icultural
evolutionary
##.).
persons
invariant
100%
Van
2003
institutions
Act
synt
##rological
##ergies
##ancies
medication
zur
BR
reag
(1,
assignment
##umor
##9/
##luor
heterogeneity
RO
61
hepatic
theories
##Ms
HF
legal
Plas
vaccine
##size
cerv
hour
spectrom
routine
deficiency
fracture
##onom
pil
entit
Oper
##.9
Mi
Identif
##ophys
prelim
lie
contract
assuming
...,
increasingly
gastric
clean
##nas
Integr
filters
Log
Example
##.4)
heur
homogeneous
retros
##derly
defect
##was
##ozyg
Its
society
deple
throughput
##oo
setup
coinc
relevance
nine
##])
accordance
Africa
Additional
stack
17.
inters
GR
dors
documented
##ACK
cavity
##51
Mit
similarly
RS
Software
currents
salt
0:
suppression
ho
monitored
longitudinal
ranged
##mental
somewhat
##oustic
ai
definitions
processor
asth
clon
affecting
##pus
TP
normally
Energy
##.10
74
susceptibility
productivity
cathe
refers
preliminary
sensory
Yang
solar
##gue
Lear
infrastructure
##ische
Willi
dispersion
##opo
tumour
##Sch
##gar
Typ
∣∣
##eterm
##ala
marginal
worth
##relation
African
ANO
illustrates
resistant
milk
latency
regime
drive
Measure
##-(
Pharmac
Har
4.4
organisms
##try
benchmark
Character
##open
fluor
##erenti
localized
Sl
##ube
Theory
##-12
cultiv
extreme
displacement
##uple
##asm
##Re
participate
.7
cytos
remote
##zo
Prim
##ington
Index
locally
evol
creating
##step
[8].
##tensive
customer
modifications
##Rs
trigger
powerful
HT
##utation
awa
reflected
scanning
films
intestinal
colleag
distal
##ola
##iculties
admission
DE
Vi
infarc
##ologous
ACK
##nm
haz
##ospitals
##helium
symbol
cation
##58
##--------
correctly
precisely
##ails
template
##⁄2
rain
##odynamic
Brazil
Evaluation
Der
rural
##uge
##ycle
##annel
vessels
69
attached
Sil
thread
seconds
##ota
Circ
oder
roots
generic
##iliar
Ke
##............
[13]
transplantation
elic
intended
##2],
fractions
##respon
sto
relaxation
opportunities
ou
bounds
suspension
##thern
##pa
##opes
exponential
lens
16,
academic
Bur
##Tr
delayed
plasmid
##1/2
sequential
burden
##sim
columns
##,"
substantially
recombinant
Centre
ure
##onucle
chamber
##vas
dead
behind
oa
Sk
##ogens
sampled
biomass
databases
guide
##cents
##ander
##aut
angles
##ICA
##Am
Instead
characterize
##then
geometric
##idation
varies
ANOVA
##irable
Committee
preferences
ana
sessions
combining
tuber
overhead
##cha
stere
##cean
cancers
References
prost
West
##aceu
##achment
Ho
##dehyde
lact
##adj
coordination
FR
Access
##USSION
figures
carrier
mature
Lin
##lected
unclear
##rowth
ith
......
Law
98
adjustment
objectives
##erential
transcriptional
incom
1999).
justif
##bar
Cap
##Ds
insight
undergo
margin
##anger
##usi
periodic
tip
correspondence
deletion
helpful
##edom
whom
.8
##ogonal
train
acceptable
78
challenging
properly
manufacturer
Pers
investigations
causing
OS
nic
finger
inherent
##Fe
Wi
residue
amplification
attacks
##PL
##pressed
##pol
##CES
Black
##ez
operational
writing
describing
nod
2014;
Figures
84
##nes
##lan
##tization
DISCUSSION
Sn
hous
cache
##keit
##zero
revised
outputs
competitive
##otion
##Sh
##amily
##body
##yg
##icular
[9].
##after
1997;
newly
influences
cord
##standing
MM
Ri
RE
##We
difficulties
##wer
##rected
##rank
Issue
contrad
permission
dend
conformation
##PE
Effects
physicians
##sol
Diagn
priority
wird
obser
Pan
validated
entropy
##osome
Scientific
microb
Wiley
generates
Experiment
##such
##."
moun
.6
overview
copies
regardless
TM
##ona
##uction
maintaining
##edia
für
hot
10-
##iliary
##etary
(13)
tight
actin
polarization
Add
Drug
##ieties
##.2.
providers
##war
105
aqueous
impacts
Vir
season
mixing
artificial
##called
neighborhood
arise
##armaceu
package
gold
discrimin
##ucl
colleagues
stay
##NAL
BS
[14]
##7/
##stract
notation
implicit
##haus
Nan
Hig
##kl
lot
2013).
##shop
manifest
##van
##infected
##undred
abnormalities
hat
microscope
2008,
##ingu
##rd
reflects
candidates
Central
penetr
##.5%
##totic
##olip
America
##chen
creation
##ipl
600
##08
rect
comments
##stage
fitness
nuclei
diabetic
elderly
##Ph
21.
filtering
##vey
##okine
store
Image
embryos
biomark
##rology
Swed
economy
teachers
##Ad
##mma
hyd
Chapter
##auge
batter
##za
insertion
##activated
2002
##iotics
captured
Mil
aims
##06
facilities
##using
antic
##vents
proven
##IST
alterations
GL
BA
requiring
##52
py
Che
Bre
Are
Blood
eyes
recording
##erative
##istence
rh
choices
Pal
Italy
##mem
ju
Hear
oc
reasoning
Mathem
73
CN
(%)
Dev
accompl
His
Ol
atom
##fortunately
Schem
road
##acchar
BM
[10].
foreign
regulate
##ivered
compil
76
##uries
bund
##@@@@
signature
13.
Through
##rie
1998).
##itone
2010,
readily
(20
infinite
##unctions
PU
atomic
##asal
BD
.9
Assess
biopsy
##(1,
generator
##cology
2009,
constitu
constructs
##′′
Cho
##.1,
Remark
##timately
##changed
concerned
inoc
city
primer
refr
kit
##nis
glob
##atif
##vision
Comb
##Se
##+)
0.25
FOR
Scale
chromatography
∥
##defined
Commons
##aint
Anti
viewed
##TG
##urable
##ectious
##GFR
judg
Agr
beg
obst
##atories
agon
†
##word
##ented
##life
ps
##uncil
(50
improves
configurations
bring
88
##itrate
4:
##uv
2007,
Compared
##patient
decades
King
bip
##WLED
##ohist
Altern
Dat
galax
attempts
flexibility
fibrob
Appl
tel
modelling
intact
markets
##lined
invasive
##journals
bird
##texts
##fact
##NOWLED
##atz
##UND
##cale
Bri
##anches
##rose
##ollary
))
Off
##TL
shear
##aturally
passive
Tra
malignant
Os
protective
sediment
verified
considerably
averaged
Wu
proximal
macro
ped
##59
##nee
Exp
∇
Future
##oline
##imm
rend
NaCl
##aturated
##∣∣
densities
supernat
wet
Hep
marrow
insu
abdominal
connectivity
stimulated
5)
##ora
formul
IM
notice
tro
Term
designs
angular
##OX
caps
##usp
offered
Fre
##oting
Ga
##isch
raw
Cambridge
bin
OB
##etz
radial
Fourier
97
##itudes
##book
##Le
neon
empty
##stable
adapted
Tel
##ohy
NR
##07
##rep
##uan
incident
interfaces
Standard
ze
depicted
reconstruc
DP
Fed
healthcare
bodies
##alling
2001
hydroly
hierarchical
mand
reveals
##je
fold
symbols
gastro
##otin
arguments
##–10
semantics
##cf
surprising
Summ
locus
reader
SY
quantities
interfer
000
satisfying
urine
patch
##iner
5.3
compli
innovation
optimum
defines
promin
##=2
##amilton
##illance
lifetime
ig
2011,
##lease
##icrob
conform
merg
speci
##iton
TC
1996;
##ena
threat
##ami
##apor
updated
placement
2006,
incen
emissions
determines
hundred
verte
##0.01
ll
intu
LPS
camp
TGF
negatively
conservation
##containing
##arin
##aved
fuel
division
manual
Before
##armaceutical
phenomena
[15]
##economic
ds
Performance
stationary
##eptide
110
dimensional
##ART
going
##ima
Food
##ourse
##-,
structured
delivered
##anta
employment
biochemical
##3],
##uming
authentic
sperm
##+,
classifier
##.5,
Hyp
hol
infil
institutional
proposition
##likely
impos
resection
retention
PF
Pred
references
##arter
(14)
##illin
##NOWLEDG
asthma
fract
cohe
schools
##tral
##space
##ilep
14.
NY
HE
functioning
Kn
##itter
defining
##habil
emerging
redund
awareness
##points
rt
##uated
spectroscopy
##An
motivation
hospitals
NK
##10,
##aka
aggregate
converted
analyzing
ROS
expert
comparative
##omat
##iang
Ir
##otypic
2005,
navig
18,
##emper
nucleotide
substitution
##wan
hex
arrow
circuits
##ermal
metall
##olin
stret
entities
##/201
[11].
##frequency
cervical
##pted
##fort
##opic
0.02
79
SEM
Mechan
##reci
Therap
integrity
83
fourth
methylation
discontinu
Stre
pancreatic
87
##lux
Know
calls
ACKNOWLEDG
advance
MB
cereb
incorporated
emb
ly
Sequ
JA
purchased
intensive
surge
sinus
recurrent
##0.5
fulf
PG
##version
invasion
Chemistry
adolescents
nM
Project
##heres
assessing
mask
board
customers
##4/
##add
orb
domestic
##vation
shifts
los
perman
##pecific
17,
mineral
Learning
##cious
TS
None
##ologically
handle
##ailed
##lishing
##(4)
##dt
EV
Natural
consumer
PhD
consistently
##’.
lum
predictor
administr
##ovine
highlight
Third
##adian
eq
Within
##ishing
muscles
##ewise
Sun
paradigm
##oder
##itance
vag
machines
universal
hidden
comprom
contributes
Ein
emergency
##ressed
##veness
recovered
Direct
proton
subunit
forming
uniformly
##osh
guest
##FR
Springer
Creative
HS
Aus
cyl
secret
inference
##uj
automated
##enza
rely
subsets
Disease
Paul
##arcin
Besides
hypotheses
Rich
Global
##09
##FL
##omical
plotted
##omycin
younger
##izoph
White
Age
##onical
starts
detecting
##risk
recruitment
mer
##diff
[12].
##7-
absent
eV
##aylor
Tw
##oxia
aid
ot
venti
limiting
smart
gi
volumes
##draw
##onch
socio
continuously
multim
demands
PB
lengths
Imp
##IO
##cher
##pm
##ito
+/-
Gold
##etherlands
##GFP
metastasis
Graph
##heum
absorb
##unced
15.
antim
71
93
##anguage
Mn
completion
Authors
electrodes
ubiquit
(15)
##oriented
lies
##irk
Phase
##isti
persistent
orders
il
instruction
triple
ISS
Expression
##brane
##urine
1990
vas
ovari
##NH
iterations
ultrasound
une
##yo
today
##ticular
##independent
##amming
OP
fruit
bleeding
##oxyl
unable
hos
##:4
##orous
##elec
dimin
Grant
performs
quantified
fire
hair
##obs
straightforward
VEGF
freedom
Mel
discussions
visit
##TH
##osynthesis
curv
kinetic
ga
occas
raised
##that
vehicles
unlikely
fluctuations
##anth
2012,
viability
biology
Port
corpor
prognosis
Gre
energies
1997).
##press
DL
##gens
##oon
##squ
cytokine
##IDS
prolonged
versions
##non
mining
##ashion
ever
##onent
consumers
86
logical
##auf
106
##OCK
aux
viruses
argue
doing
anth
30,
agree
##labeled
##Us
progen
loci
strictly
disapp
##aspase
BC
Council
neck
##asia
manufacturing
heating
##pace
Different
92
realistic
RR
thyroid
ONE
reviews
historical
Netherlands
##Ex
things
multivariate
potentials
##Gr
organs
Wash
transgenic
82
Kar
LS
##olytic
[16]
rst
sea
concurrent
causal
funding
functionality
dissolved
##emporal
##ococc
undergoing
subjective
imply
nervous
LP
visualization
##urses
Fisher
regarded
eventually
reserv
schedule
sentence
Mach
##4],
Prov
tension
neuron
warm
dense
reproductive
##500
microbial
##ulose
##ige
urinary
##ilos
UN
##ysts
bor
##orbed
fluorescent
##abilistic
##angl
circumst
names
ǫ
rod
##arest
vessel
circular
##hene
##auer
Ak
##GR
destination
##icient
Bayesian
ecosystem
Life
closer
##ael
SDS
instant
GHz
lap
probes
initiated
organizational
volati
vesic
unless
overnight
fitting
##itus
##IE
adsorption
Us
89
Super
Ψ
Lic
collaboration
##allow
21,
##ua
contexts
insights
##ager
[30
stiff
singular
Gi
players
22.
trauma
AV
##phone
##AMP
realized
EU
ppm
2004,
casc
flav
##omorphic
##Ag
supplemented
send
##3(
##omething
saturation
##ymmet
1995;
ellip
##cutaneous
progressive
##-1)
discrimination
##IVE
##110
thesis
Clear
sie
Hyper
##making
try
##izophren
scene
reflection
constrained
searc
Physiol
##pan
unex
webs
hydrox
##rosine
transfected
##including
ongoing
Dan
##erman
##inement
orthogonal
##ald
synaptic
acoustic
##artments
##uthor
Computing
##aque
##ylated
incons
sel
neglig
Consid
neutroph
##cation
Pot
Tor
##||
GM
OH
ff
studying
##ación
cumulative
RN
diagonal
Downloaded
CG
##DE
##.00
focal
soluble
eryth
diges
##aline
discovered
##dec
accompanied
epidemi
momentum
(−
##IH
##po
fashion
naturally
##idel
son
David
focuses
2008.
##prise
##supp
Background
##1371/
conserv
ordered
Ts
##emy
Environmental
lag
prototype
##.200
CK
##wood
impedance
Ci
Applied
guarantee
Indian
entity
##owel
infusion
clinic
aging
##omorphism
10.10
##ublic
##chlor
##aton
##otr
[13].
Hamilton
learned
##gt
instruments
complementary
custom
obtaining
##Wh
inh
##4:
##print
Roy
6).
kinetics
##azole
pathogenesis
##ei
##ensis
Ly
trop
##ameters
az
##vo
##enes
credit
deviations
81
Mur
##entis
instability
##orec
##gluc
charged
protected
30.
##icrobial
Organization
consult
180
gauge
##oni
##tish
manage
beliefs
##.2,
Unfortunately
(196
physician
2009.
CYP
##uster
Heart
standardized
##otoxicity
bars
##lements
accounts
benz
Level
Children
##amate
concentrated
operate
##ifiers
Again
mammalian
potent
vein
copper
reward
Water
##pH
labels
2007.
19,
rever
blind
permits
experimentally
##gene
corrected
fibrosis
elevation
##enses
##ectin
##otoxic
##sip
Π
covariance
expectations
##kins
##elfare
helps
named
(1−
Hel
25.
provision
athe
Simulation
experts
##spr
##∗(
recognize
##inator
familiar
##oglobin
##opsis
7.4
discl
##oren
2010.
catalytic
deformation
##opulation
##lot
##hydr
80%
cis
Assume
poorly
91
##lings
##cn
##advant
spot
([
##-2-
aortic
Markov
interviews
[17]
1.6
2014).
Acknowledgments
Ur
worse
believed
eluc
truth
aware
##dy
##agg
Professor
30%
##WT
Applications
##del
electrom
ligands
mothers
Any
##vised
##8-
2003,
##regular
##atigue
2006.
##sten
competing
(2.1
bonds
##0/
##uro
wie
default
##month
meeting
SNR
##′(
##...,
Sy
simplicity
##)),
##BF
excit
morbidity
Estim
presum
something
##house
AI
recover
ends
labeling
faces
entries
verification
filtered
2005.
##loop
estimating
facial
limb
robustness
transpor
secure
##ographical
##-200
react
##-1-
Report
##,,
Figs
considerations
barriers
ND
employees
blocked
inserted
gradually
##gov
##writ
ACS
16.
genotypes
##culosis
prognostic
1]
polymerase
plans
1999
##acle
Bus
protect
Korea
isot
##EMENT
##onomy
##brevi
therapies
##recip
guidance
##hard
childhood
##ulence
tu
compensation
##ynamics
antioxidant
GFP
##iaz
##olysis
VOL
sustained
##teen
privacy
Local
gir
LD
seiz
Multiple
Camp
##eme
##oscopic
Medi
wood
##GL
##JECT
resolved
anticip
[14].
intravenous
##ograms
reality
smallest
##hend
ben
##idin
irradiation
##plo
##UM
##rared
impossible
retro
##forming
##hm
tendency
##gestion
texture
wt
Japanese
##itely
##cre
##",
##driven
bovine
Real
Rn
(0)
##cap
(16)
Fil
discrep
Pur
diffr
##ATA
coc
ambigu
gains
##rophic
##mitt
exhibits
##-15
5:
rm
PET
abuse
22,
90%
Pt
##−1(
tables
##herical
blocking
precipitation
intensi
1996).
skeletal
greatest
Aff
Lik
extensively
##ulse
Rus
Lab
Cyt
ei
applies
clones
acting
trajectories
executed
chip
##sur
bilateral
deter
demographic
Quality
transcripts
examining
((
25,
FIG
##length
chance
##utch
knee
Lou
spent
mapped
pathology
sparse
expensive
##ococcus
##trict
##nov
scalar
lex
grap
##actin
##ubic
encoded
Brain
23.
GS
##enden
##room
##7:
##oscopy
cleavage
##box
handling
##acco
24,
queue
cited
alleles
GO
aspir
Du
Mad
##ocrine
##vestig
##sche
Wat
##GP
nutrient
##ados
diluted
##RD
ovarian
surveys
graft
##week
easier
##aden
##tructural
ˆ
dorsal
lacking
##ceptual
Conc
ages
Hand
presenting
transaction
addresses
attitudes
##imination
##ymer
games
individ
##.01
communications
mor
##CN
Pen
cyclic
Ben
Prac
##habilitation
displays
##rous
%)
TT
catheter
##+1,
adopt
1–
##venue
predictors
eliminate
closure
Six
||
2015;
2),
CPU
##ovirus
2004.
anne
##norm
quasi
##riched
chapter
overexpression
amplified
valve
##protein
Washington
##luorescence
##HI
focusing
Epid
profit
ontology
metabolites
##vin
Jac
pathological
##)=
##unte
##resistant
Franc
##uced
putative
cues
7.5
##/$
##arian
detectable
began
fixation
Ill
##iology
MMP
##rency
##,2
offset
EF
cooling
expanded
##ogly
Coun
substance
##pot
necrosis
Risk
Rad
equipped
injuries
##6],
0.000
yielded
plasm
##sectional
##osine
hierarchy
##obil
##tors
tomography
##arding
pilot
silicon
characters
bronch
compatible
Calc
served
terr
looking
24.
logistic
larv
ity
##uited
upstream
##lers
dental
retinal
player
places
topics
art
LT
mim
##-20
vacuum
interactive
##.15
Surgery
##romatic
##vasive
dispers
##xx
interconn
##knowledge
selecting
##-201
worst
asc
inhibits
##iffiffiffiff
##++
Hall
##opol
##<0.0
##PSS
##exp
##tized
##pread
metastatic
##:3
belonging
Considering
##ja
##ashi
##beit
landsc
buff
##5],
[18]
##plicate
##roscl
City
iterative
##high
appreci
FT
entirely
0.03
Abstract
encryp
,,
sand
Nov
cas
##linked
TO
consequently
retrospective
##ilateral
Physical
##aryn
##atase
[15].
estimator
##GRO
##processing
(17)
sides
prominent
##oclonal
##intestinal
978
lymphocytes
##ulsion
drain
MV
desirable
carrying
hypothesized
##otechnology
unf
disadvant
##anner
submitted
permit
sep
##array
##oresis
Young
goes
2000,
02
platelet
quantify
##.12
predominantly
ber
##/3
glyc
##Ti
electrons
##tructures
//
arrays
(2005)
Import
(2006)
relig
##ogether
compliance
Corresponding
1994;
acceleration
##MRI
##Li
##.(
1.8
Williams
Wol
Top
deaths
##)}
revers
##SN
harmonic
century
##while
cc
##ritic
lemma
2013,
##resolution
##GB
##endit
inher
phone
##transfer
23,
rice
master
antibiotic
acceler
Lip
##orectal
abundant
choosing
serial
IGF
predicting
Brief
depletion
2002,
Tech
##ducing
surveillance
##inate
Intr
##jug
DES
##lective
quadratic
Math
##4+
125
intersection
triv
1998
##entists
fear
restrictions
##wave
Services
acetate
##DT
##arcom
inspec
tensor
##RL
104
claims
roughly
−0.
haem
partner
STAT
negligible
Taylor
achieving
adver
loaded
penal
untreated
susceptible
returned
battery
statements
##angi
insurance
##01,
biof
##tw
tang
gut
##ommod
Mid
##usively
##plane
conductivity
aqu
2003.
TLR
##tise
##rane
exploration
race
trunc
##oler
meaningful
centre
western
##lab
2%
DT
##)+
##ologist
hr
transformations
envelop
ordering
Digital
recon
3.0
virt
yellow
forecast
reaches
Assessment
Correspondence
##idespread
(12
reaching
bright
##retion
##zes
BACK
Hg
oriented
Problem
ker
##anine
##core
##ohydr
##La
argued
nurses
bad
moves
grain
demonstrating
AK
TF
##arith
##idae
2011.
filled
##osal
##has
Animal
##osterone
schizophren
##otides
attractive
##zyme
mitochondria
##enen
withdraw
(2007)
hole
curvature
##gs
(2008)
##through
rarely
dilution
satellite
photo
Land
##OLOG
phon
relay
##rite
8-
##controlled
##entation
##siveness
nursing
hapl
##cks
carefully
Gener
facility
EL
0.04
concrete
##icking
Brown
Corollary
##obile
incomplete
tends
MOD
kDa
##/~
dy
Da
##iculture
disturbance
Analy
equivalence
dried
##domain
##aped
additive
clients
becoming
antibiotics
pseudo
seeds
geomet
##Os
pulses
NT
##dose
mitig
##PH
rabbit
converter
parental
Lag
ischemia
MN
undert
##illus
##pressing
##isson
acceptance
Electron
stars
##ulos
##illa
German
##ophila
intrac
precursor
caro
REF
HO
Early
##syn
(2004)
##pone
calculating
##(1−
##7],
Java
rectang
128
genus
##GROUND
##mentioned
(18)
Vers
laws
Division
emotion
5.4
fro
replace
10−
##0000
syst
##erer
Polic
manipulation
recombination
##oir
Processing
##bp
partly
[16].
combine
Available
##power
Est
East
moist
permanent
##ör
##He
##1.0
pathogen
Ang
##.13
Tok
Optim
(2009)
ultimately
treating
branches
##real
hip
Hi
circumstances
practition
sharp
##lichen
1995).
Faculty
masses
canonical
bladder
Ka
##fil
symptom
##arth
##11,
##acic
recruited
torque
Summary
elucid
synchronization
##uron
LR
##-17
##EST
BACKGROUND
Industr
##ned
2000.
5.5
##arvest
perp
MF
0;
Ges
proj
##ALS
mism
quantification
Ger
modify
contrac
##pred
AMP
agricultural
pore
reads
originally
probabilistic
Universit
heuristic
##sign
pneumonia
##ires
MG
Flow
##ronti
##forcement
really
mutual
enrich
colour
2002.
##edy
##lock
Eur
##mb
##entia
distortion
emphasis
##–6
neph
mere
exogenous
wurde
##pectives
##ometri
manager
[19]
delays
opening
trait
Tex
##tub
##UD
##UV
je
nc
##lines
pointed
EEG
harves
##ABLE
Θ
widespread
dominated
##fficiency
##isen
suppose
ART
##ios
Numer
##ERS
activate
[2,
habitat
##clin
department
simplified
Monte
LE
EA
stratif
##omon
lingu
ee
specify
(2003)
attachment
3(
ischemic
Alex
belongs
physics
##light
##iden
discipl
prono
##lam
medial
fatigue
Johnson
atmosphere
##ativity
briefly
Main
##erving
prime
leave
2012.
managed
##12,
certif
managers
##itzer
Full
##oxin
ammon
2001,
PLOS
##iatry
asymptotic
gland
monol
thresholds
##assium
##ESS
26.
##case
##ostasis
DF
Sam
hybridization
ecological
##<0.00
accommod
Detection
##Na
-2
##cipl
##WS
covers
volunte
infarction
##itoneal
anis
contrary
800
suppressed
18.
corpus
Structure
##:2
Spain
##300
##ocol
posi
GAB
##atio
orbit
elsewhere
auditory
##Pr
soon
span
sun
0.05).
deterministic
##odal
opinion
gray
households
##umber
chloride
Tai
pronounced
scaff
asser
##gered
circle
tur
##EREN
Cross
##ende
##poration
##.3,
dogs
##mes
Esc
Abb
decided
implicated
simulate
##INE
expendit
British
covering
##ophage
##lar
frontal
passed
stiffness
membership
##ried
ELI
neighbors
chest
collision
##orbid
##ahr
TG
overlapping
HLA
ambient
##stim
thinking
##ville
Genetic
Impro
unstable
##bility
hepatitis
##eur
professionals
##Hg
university
circulation
##ensitivity
SK
Yu
Fer
##‖2
##holders
##oblast
Tak
superf
serves
##hex
Martin
##mut
ratings
econom
visits
##Ga
emerged
##istor
elong
linearly
Cost
Random
LM
1/2
##athy
shapes
maximize
introducing
cortic
##valu
talk
servers
Normal
confound
turns
##.3%
Single
ISSN
accounted
exclusion
Dom
brought
ba
6)
PAR
Mut
Inv
Clearly
BLOCK
implementing
##emperature
border
peroxid
sentences
##model
elig
caspase
arrival
gramm
##tricted
##-2,
venous
advances
tubes
immunity
wavelet
(2010)
evid
Student
##olecular
died
ges
Self
Tris
##lein
##static
intention
##loc
preventing
SB
supers
##natal
##html
axial
##bu
CX
##::
processors
##layer
[17].
##factor
Psychology
money
airway
ip
walking
##employ
−→
union
Tables
Application
0.15
Determ
cooperation
tio
##pdf
unres
##((
adoption
collect
⋅
coating
indication
Networks
##.14
1993;
##ozygous
##AV
rhyth
License
Govern
Schw
possibilities
decade
Cong
aligned
Physics
permeability
##–12
Tim
expectation
differentiated
Ministry
accessible
JM
thym
technological
jump
##-13
phyt
healing
##opl
4.0
workload
##elli
elimination
mV
cry
DN
markedly
##ministration
Behavior
Ques
pediatric
differs
Academy
##arged
paired
contributing
##opy
gamma
feasibility
siRNA
##system
HCV
clearance
##only
epilep
nominal
##ivil
phr
3.1.
28.
sure
spring
circulating
Asian
loads
keeping
relies
##my
Technologies
Online
Sigma
antimicrobial
grate
##NK
assist
##heim
tradition
leakage
cytoplasmic
Small
⊕
##6:
Unlike
accounting
(2001)
2001.
Investig
ELISA
##ports
Thomas
NAD
fitted
##ocytosis
monoclonal
adm
##+2
polymorphism
jobs
contamin
slot
##iert
disability
coast
junction
neurological
anch
hazard
##hydroxy
##target
bases
River
##omit
unchanged
40%
Survey
shell
##agm
pathogens
Yes
##phthal
##rang
##/6
McC
##tributed
funded
neoplas
##Sigma
27.
##ique
hearing
0.05)
ef
style
##osure
##board
##ih
music
embryonic
Das
chick
larvae
##spring
binds
##being
Visual
contraction
Pap
copyright
##ivariate
GH
##8],
medications
(3.1
worldwide
lumin
ib
collaborative
##Gs
6.2
calibr
fif
decide
night
##deficient
assessments
Evidence
HM
##ilosoph
vegetation
ren
rigid
budget
provider
myc
party
specifications
NM
vital
VL
participated
failures
##parent
latent
phylogenetic
methanol
Acta
##ensed
perturbation
fertil
receives
albumin
pac
tot
cu
phenotypes
victim
specimen
residents
##aceae
##:1
←
##appro
pit
chemistry
##nec
scler
responsibility
##dem
amyl
uniqu
tyrosine
birds
considers
alternatives
marine
homogen
promotes
retained
Knowledge
Err
̃
2.1.
stake
designing
contamination
##benz
##du
resc
##immune
##No
Accordingly
##Ver
regeneration
MW
slowly
viable
##sensitive
−2
descriptions
checked
univer
constitute
continues
pup
TCP
conflicts
optimize
Huang
follic
whenever
dye
arising
##ny
##±0.
##steine
diffuse
##ät
Natl
##thing
Ve
##MSO
Mus
goods
##itated
##iae
Cer
OBJECT
zinc
Mex
140
Sep
assumes
##liers
photon
adherence
Bank
##otrans
##ians
##levant
##pin
lam
inferior
fractures
spherical
##ountered
exclusively
##-11
##onomous
[18].
solely
##ropri
arises
(19)
##.16
##DD
strategic
##usting
driver
French
scans
War
SNPs
nearest
nit
DH
##acking
substances
(15
##vity
(2002)
lib
evaluations
6:
welfare
audio
correlate
zones
2014,
registration
##.3.
antigens
##icits
Language
##metic
##ias
differed
insufficient
##uvant
contro
##ATT
sphere
stations
loops
Yet
summer
##yan
immunos
distinction
moved
coherent
##onymous
regulating
eigenvalues
##itol
Metab
BLOCKIN
Surg
command
Phot
ak
##isis
hemorrh
2013.
[20]
dot
##ymal
supra
influenza
planar
contacts
supernatant
##RF
negoti
encountered
##glut
Good
##Sm
0.0001
##aud
##→∞
dielectric
immunohist
FE
Unit
##atit
individually
breath
##(−
##idopsis
ranking
##rontiers
##hydrogen
##world
##ulti
interle
(1).
enrolled
outper
metals
consumed
Ko
##ilarities
##types
neighboring
DB
earth
transverse
Individual
∅
1.7
Pac
MAC
aggressive
##ete
##yclic
Primary
##ibraries
excessive
Whe
##cs
flood
murine
##antitative
##hre
##pect
odd
##rosophila
ethical
graf
Prior
nond
19.
einem
mirr
enabled
balanced
##-01
Kal
Condition
crystals
7.2
exhaus
onc
##ensing
chose
##asonal
highlighted
##Cor
##play
##uchi
woman
infectious
creates
win
Field
comprised
manually
[3,
dab
##Uni
##–7
##umab
Hong
Ren
fibroblasts
##win
shad
Oh
Instr
##ysiology
interacting
schizophrenia
removing
programme
##olars
Vor
##uer
##place
##ATP
##tur
hypoxia
melanoma
wel
odds
##|2
##icious
obese
tuberculosis
##eyer
##-3-
banks
Therm
{1,
##mp
##vable
thorough
wider
disj
##tructive
VA
harvested
buy
teacher
Evolution
infant
##thetic
divergence
Neuro
##heimer
Et
linkage
Michael
Xu
##-18
reductions
autophag
Bern
(2000)
vaccination
normalization
deposited
perfusion
Samples
##PO
rows
##published
Oxford
massive
Editor
formulated
Louis
##renal
chromatin
(2.
interrup
seek
##ylene
regulates
##ido
maturation
favorable
##circ
##′-
traces
##Supplementary
Kit
##otomy
ACKNOWLEDGMENT
validate
##gew
voice
##born
##adic
remod
perceptions
ment
fairly
swe
squares
##adequ
RC
Mann
CNS
atheroscl
epithelium
subunits
asymmetric
##–8
##5.0
drinking
hydrophobic
nanos
discover
##liche
aper
incorporate
##owski
came
dissip
Epidemi
##1−
##oped
tob
Wind
dissem
##(1):
Sample
##eds
searching
lept
##NG
##umar
##overty
(2011)
extends
hoc
##ceptor
dramatically
sought
solub
willing
equality
waters
BI
70%
##iable
parties
courses
analogous
violence
histological
Hal
Berg
##xn
##rophy
28,
##arti
##-100
answers
promoting
LO
103
##lemental
generalization
##istribution
##-14
##/1
Saf
introduces
magnet
Conversely
atmospheric
quadr
RB
HPV
dedicated
embedding
1994).
DD
astro
##umination
##onds
##NE
##posium
(1),
##vic
##apped
29.
##yll
Paper
[1],
Experiments
##199
moder
bic
##keleton
utilizing
(4.
Ki
logarith
eti
##embl
xn
##self
integrate
7:
100,
wish
##erosis
protease
anuscript
chromosomes
cores
##oplast
deficits
##En
##ppler
0.12
dynamical
##bec
publications
##ducts
participating
relate
descript
##chemical
hope
##atum
RV
##/(
##-1.
streams
MATERI
##2.0
sulfate
05
Lang
##airs
preceding
##two
##rectional
acknowledge
(2012)
potassium
##ells
##empl
dependency
##∗,
Models
declare
carriers
opposed
##aign
##Be
##left
##ogue
160
26,
leukemia
walls
stands
formulas
##ermat
Mater
Proced
slower
dealing
eliminated
##bach
tt
0.001
[19].
##generation
1.00
approval
tuning
played
##Res
Arabidopsis
investigating
enl
##cerol
strengthen
##discipl
3.2.
##plications
incorporation
intensities
bid
utilize
diffraction
##uclide
##aire
Orth
pas
1997
pressures
##plication
Chic
##okers
2.2.
sple
benign
uter
wire
[21]
arteries
LL
gets
##utable
ü
##bro
##aux
〉
Strateg
⎥
##cd
##icide
Christ
breeding
conjunction
##ICAL
##energy
Intellig
mention
##QL
Statistics
HPLC
##ocardi
##9-
trivial
robots
gli
hind
contour
##ops
Drosophila
2.6
crypt
##aks
Five
dans
patches
bill
invent
reform
colony
##acht
counting
##titude
fever
Adap
##oside
gained
erg
Women
##olism
##ece
Mer
##abase
Earth
Sweden
coal
(20)
dé
##HM
Activ
afford
##sky
psychiatric
Cour
pregnant
tobacco
Tan
compl
allocated
##kle
apoptotic
architectures
commitment
attenuation
##local
##9:
##uous
unus
##ERENCES
dust
1992;
soils
##ação
flight
##ochrome
##SR
surviv
Hb
Doc
letter
##phyl
2015).
emergence
Special
friends
Republic
##ographs
##odi
##ophageal
vibr
##1+
episodes
##ASE
Miller
floor
coil
##ario
##yte
observer
##ocor
colorectal
AJ
Initial
Ros
##pressive
##(·
convenient
isolate
##ér
interpolation
##ocarcin
(11
sort
specialized
disruption
lith
##arded
matches
Diabetes
##dl
##chi
employing
symp
##(0,
sav
27,
geographic
##weighted
##]).
##soft
cooperative
signalling
uncertainties
algebraic
##clinical
HL
Those
##HL
teams
inversion
organism
registered
XML
moments
facts
proximity
##MSE
##channel
Supporting
analytic
regulator
##aeh
plaus
distress
##0.1
25%
##Ne
Signal
Security
navigation
Meas
preserved
Poisson
4(
##________________
RM
##PI
1980
sul
conservative
##BER
##imp
##comput
tryp
DG
Mr
##nik
galaxies
Prob
##ductor
arrest
108
##ueh
##atial
##aratus
kann
Attribution
collective
dex
wheat
##-16
atrial
forced
##CTT
##ynchron
®
##CAM
NL
12-
##rences
TI
##ivers
Ku
pose
Carlo
counted
England
(30
viscos
extending
cros
powder
donors
##elles
Average
##ears
Policy
enabling
burst
##10)
##0,000
Functional
soph
##acin
Jones
##carb
Bios
damp
##shaped
deployment
personality
##Bi
license
biomarkers
computations
##leg
TABLE
oscillations
falls
enriched
colonies
Hom
felt
checking
##otyping
LDL
dich
distinguished
lipids
Conflic
undertaken
apart
SNP
neonatal
weakly
##cephal
(<
faults
deterior
Sus
Air
Bet
frozen
##umatic
Ax
Linear
[4,
Wood
##Con
##BN
##ischer
##reported
operated
##CF
##rotein
metastases
topological
##fa
hosts
Briefly
Nak
##aints
##AF
differentiate
drople
leaving
##ante
##ée
##icher
Serum
##site
##heumat
bridge
landscape
##dd
##iph
electrophoresis
##inen
unter
##optimal
microbi
apparently
[20].
##det
imposed
cutoff
##astern
coded
Cp
paid
##tica
##ophosph
prescribed
turned
##dig
proposal
assets
shifted
Pattern
##udden
ethnic
selectivity
dementia
##yi
silica
1999,
##tia
encoun
Without
##itting
##ologie
mission
##ois
moisture
Royal
Complex
##/200
Unters
##enosis
##utor
##0.4
Lie
##onz
##De
actu
vast
107
Les
inflation
incorrect
Respon
exploit
RD
pitch
##yses
31.
conscious
arthritis
##Bl
##umn
Theore
##iking
fails
Communication
Stat
##OU
##GM
##arrang
##idad
modular
Every
minimizing
sales
monot
malaria
pollution
(1999)
coherence
thous
ordinary
prevented
preoperative
excited
compartment
Pb
##zt
##amino
PW
elabor
##inge
outlined
born
pooled
grav
centrifuged
cartil
Scheme
coming
pour
passing
##App
2014.
youth
##rate
warr
60%
platforms
##Di
winter
##tree
sugar
Pear
HCC
##integr
##auc
ensemble
##prop
##sey
couns
##itations
corne
Proper
##earing
broader
##lung
Han
1999.
explains
##irty
Xi
##lity
linguistic
##umption
##600
194
amplitudes
stom
north
equals
##xk
Yam
##Figs
Identification
##acterial
cone
similarities
harvest
6.1
£
130
User
communicate
(“
Berlin
Box
planned
##QU
Phil
cytoplasm
congen
ensures
Asia
Requ
pin
##BB
##nl
bub
vox
##.2%
Chrom
rehabilitation
Ont
##400
worked
REFERENCES
defense
##ACE
Mas
##ureus
story
ago
Imaging
##rod
layout
##nings
reporter
Hil
##7%)
gaps
desc
unlike
legis
certainly
Bon
Repres
correlates
##SIS
embryo
6.5
Ray
extinc
hypoth
evolved
##ogr
Mont
Publishing
##hips
Function
establishment
##-30
mixtures
bundle
iod
##6%)
RL
1995
##uty
(1998)
##atid
fet
intense
lymphoma
03
rejection
ven
29,
rn
[22]
complication
##8%)
##utrition
stir
8:
MJ
##38/
mell
prohib
burn
##tructured
Technical
##block
Lind
##tier
XX
##heng
##ali
##.25
##icks
(>
##isy
##bits
inadequ
##rote
gravity
successive
needle
hippocampus
exer
##rowave
##tag
##(5)
##rst
##UP
##DG
1996
velocities
##.4,
happens
developments
subgroups
accumulated
##dam
switches
##iers
dopamine
##IX
subc
0.10
##',
transfection
transportation
reconstructed
perspectives
charges
slices
hydrolysis
##ilding
disturbances
Though
enhancing
##ilic
Cy
##ametric
intelligence
deform
eggs
Notice
interior
bearing
Cro
##gram
ease
Reference
offspring
##NOS
electromagnetic
##sa
(21)
Twent
implantation
##atr
4%
##ticed
performances
partitioning
##efficient
##ysiological
ay
Fem
Hor
##aphyl
Sons
##rey
JP
##vascular
tac
##kr
triggered
##/10.1016/
Economic
##artz
##arose
reservoir
iff
##quin
signi
brow
##:10.10
##uria
Taiwan
antagonist
wrong
7).
Board
sophistic
scientists
Currently
cities
integrating
occlusion
##CB
arrangement
register
Basic
carbohydr
Far
splitting
manifold
##ystic
##KO
enhances
determinants
##oor
remainder
[21].
##regation
scoring
enzymatic
##0.2
[2],
##Sp
EXP
Core
capillary
scri
Hen
transmitter
entered
flag
begins
fungal
attitude
attempted
kb
##/10
recordings
Inhib
priori
sectors
##effective
1998.
##ulent
##cht
irregular
girls
##oprecip
spine
##ugg
1998,
##zens
spectrometry
ocean
minute
##ACS
Recall
derivation
purification
##zel
rated
##breviations
##aldehyde
Inform
TV
1970
Frank
##Com
08
##azine
pick
einen
official
glutamate
##user
skill
##rection
##()
##oupled
viscosity
engagement
centrifugation
##Mc
Imple
Alz
##uni
102
Fax
##abin
exon
Lew
##uter
Chicago
predicts
Support
##icing
##cient
##idase
##irms
##:10.1371/
Alternatively
##odic
##polar
Spe
citi
##agulation
##kel
yr
bath
##uent
teeth
##Ni
##het
##osion
establishing
##disciplinary
##ximately
antennas
diagrams
##31.
SVM
Jo
##response
granul
reactivity
obviously
##uses
##∗)
stimulate
[5,
catalyst
##SL
antis
##.17
acknowled
##actors
computers
##ecal
stent
projections
##nam
Transactions
retrieved
fractional
diast
enrichment
unexpected
##ARY
##eper
##3+
northern
vesicles
Classification
Je
Examples
retin
##bc
[3],
Biological
strom
tes
##uler
committee
foods
nutrition
Hard
dc
##nit
ove
reflecting
Mag
##prot
##BE
∏
firing
Psychiatry
decoding
nasal
grass
libraries
##120
scar
ventilation
clinicians
remarkable
Gh
biofil
##ionic
##feed
notes
##*,
prevalent
QoS
Commission
##oC
##chied
Office
Terms
##CSF
Gly
news
##mode
##.20
Jr
south
##stit
##iao
suspected
##rystall
2016;
admitted
##ICS
##unch
##prin
TD
peri
grants
Tokyo
##ducible
envelope
yi
##estr
Publis
##uns
posts
31,
anesthesia
Hem
Doppler
##nan
attend
artifacts
##.1%
8)
##GD
OD
sends
##worth
steel
##ausal
##luid
NJ
##sies
waiting
##functional
##ococ
Pf
seasonal
independence
##meas
##dB
##cellular
##-19
Please
##unic
skew
dynamically
hemisp
„
1991;
shr
Sand
##Vs
differently
proposes
motivated
##ayers
moral
aberr
achieves
Hydro
synth
southern
Rh
##etts
Depend
[4],
spp
2;
##KA
##tium
abilities
broadcast
##under
IA
##plasia
dieser
PLoS
biosynthesis
careful
##she
##/4
##RR
VP
strip
gangl
##uclidean
##ese
housing
speaker
aneur
⎢
injections
anatomical
trim
connecting
##igan
Cas
##amycin
##Gl
bif
mas
prevents
advice
recommendation
Rod
exclude
revision
crack
engage
##tism
resting
glycos
Chi
109
##ultural
0.99
spleen
Day
retain
Architect
neighbour
##(2):
##tage
Source
Dynamic
polynomials
##alli
Ter
GF
##ucifer
verbal
##idents
##ORT
##olean
drawback
visualized
(2013)
drift
differentially
##ía
subsystem
##ilation
communic
##rile
##itzerland
##membrane
suffer
accomplished
Ra
tags
##ethel
##oston
hippocampal
##GI
##uh
##izable
##idium
Changes
preparations
You
##edge
CSF
PN
website
concomit
(13
acetyl
Twenty
gh
Hum
##orest
stabilization
endometri
37°
1993).
##eto
genomes
updates
GE
marri
Subjects
##tir
##ensin
verb
miRNA
grouped
wage
acquire
supplementation
##Pa
gall
inactivation
polymers
##=0.0
##ascul
2015,
cardiomy
Lev
[23]
conduction
RI
bypass
glomer
aureus
##apol
underes
tone
##nia
##enic
homeostasis
agonist
medic
routes
##ocytic
##ATIONS
sudden
attain
mounted
thre
gradients
kinem
Australian
editor
crude
7-
##én
batch
spir
##etheless
pg
##.18
wit
implementations
emotions
Target
chemicals
transactions
Texas
Modeling
##orus
punc
rup
pt
radiotherapy
##.4%
cyst
Dies
poverty
agreed
Wilson
relating
phenotypic
practitioners
dass
##quality
rings
bowel
##rc
supplied
Growth
Hamiltonian
##human
PCA
##alam
dendritic
##coming
ventral
##aft
##bone
Sin
weather
aneurys
subspace
##PM
Higher
[5],
tumours
##1,2
Pseud
##agent
positioning
##igene
##KL
hypers
designated
addressing
##alt
homolog
apparatus
regimen
##pc
investigators
WHO
MH
##index
Measurement
##(6)
stresses
##ysacchar
voc
systolic
##Ins
industries
classify
systematically
satisfactory
##endicular
##depend
Large
polymorphisms
##stant
∨
Biomed
Auf
distant
opi
scored
Electronic
##Pub
##hyper
reversed
labour
##iments
##eless
##ORK
actively
tour
Kh
finds
inducing
24-
extensions
##Ald
strand
rearrang
##kn
Object
HER
Hill
(22)
kHz
##trum
shortest
##uccess
agar
recipients
##ubes
[22].
stores
authentication
##ulators
##ukin
Fi
##(3
histone
shel
##tracted
observational
graphene
projected
Anderson
RH
modest
##ompati
Kl
continuum
TL
Abs
inferred
##heit
Paris
lamin
illumination
magne
wir
′′
##Figures
depressive
##idade
clone
dehydrogen
##OLOGY
⇒
Ru
##organic
##ria
reagent
ERK
Cox
##inin
##Inv
debate
pieces
immobil
inspection
lobe
Ø
TX
Biochem
realize
cartilage
##teness
wurden
(3.
ester
Last
##Cr
##0.3
Diseases
##conjug
[6,
##ellec
(195
femoral
Que
Symposium
convers
2.7
radar
translocation
FM
##aments
##acryl
infrared
Corporation
BB
refinement
statistic
congestion
Nucle
simulator
weaker
EN
Rout
##doc
af
##py
##ensors
Alzheimer
##aver
renew
##apses
cloned
Up
Switzerland
##SF
narr
comment
cann
Advanced
##operatively
annotation
Values
replacing
huge
(25
attract
##brain
##rocytes
##df
adjusting
##CV
weakness
ath
##enger
Emerg
piece
##urally
cascade
7.3
##clusion
aggregates
sheet
turnover
peers
##repres
Span
centered
ry
##okes
reflex
termination
Fall
chron
##TI
OA
pairwise
CAD
##anda
primitive
nothing
##anic
Subsequently
##valued
nutritional
homology
LH
tap
##cells
averaging
##parts
Color
generations
##list
##ymmetric
##ITY
cytometry
Otherwise
(14
Genetics
{0,
6.3
conference
dent
Jacob
ui
esc
##ðt
##adap
##atinine
##ront
parametric
expertise
##ieht
discusses
heavily
axi
##kh
penetration
nation
##bel
TN
##emporary
erent
actors
thanks
Biom
eosin
tetr
##invasive
microscopic
¬
[6],
zum
(2),
coex
##ichia
##umer
##ropriate
mellitus
##ocrin
::
Federal
##prec
##dim
##oden
prescri
##Im
##”)
IH
5.0
##otics
oblig
EGFR
sept
vibration
2.8
Administration
Mes
perceptual
lipoprotein
panels
##ogle
##.19
herb
3),
cha
river
college
##oche
gon
##5:
eating
Pediatric
##+(
##ums
Question
abstraction
04
rotor
norms
##ady
(2,
physically
lapa
payment
##EX
avoided
15%
translated
Database
##roy
Tod
##uls
transduction
##iciency
Assuming
##ensen
##New
##orge
Raman
##nen
attenuated
electricity
KL
##Ge
isoforms
coated
shares
subd
(1997)
pull
Business
immigr
##deg
elementary
Neural
shed
helped
Continu
Medic
resolve
«
##ophilic
1997,
##ircraft
strept
ionic
##arcoma
##Pl
193
tooth
arms
##orer
##];
Fram
spatially
ACT
personnel
Tiss
##Gen
##phosphate
##oic
Patienten
pharmacological
2015.
##1.4
carotid
##TER
Thor
Flor
##ankton
##ORM
##omeric
Jos
(2).
Laboratories
sucrose
##density
##berts
geographical
Free
Iran
histogram
persistence
##acerb
Enter
DV
##ersonal
prophyl
approximated
asymmetry
Importantly
GPS
mediate
NPs
Government
##chain
gels
MATERIALS
iner
importantly
##ARCH
1.9
encaps
holding
BT
##ban
saturated
lu
sett
##igare
##arity
cytotoxic
##ellectual
questionnaires
fill
##tase
letters
presumably
Arg
##were
)2
Error
##cession
##alpha
merely
taxa
capacitance
Differences
CAR
converges
[24]
wealth
Marc
orbital
proportions
Orig
digestion
##isco
Immunol
conducting
[(
##ocr
32.
slice
##aya
##OA
miRNAs
semicon
Relations
##inase
[23].
Bol
reciproc
ulcer
##3.0
fu
fits
1990;
xx
breakdown
sho
apical
Annual
ned
advoc
Ye
Sex
Common
##inine
reagents
Nag
deployed
##geal
LN
##yzed
##dL
Plus
Innov
crisis
indirectly
##Aldrich
##mill
gross
agencies
Various
##km
suggestions
3.6
mos
worker
proxy
1997.
[7],
campaign
graphical
definite
Generally
##pyr
mA
##review
comprising
Southern
sophisticated
##8:
corner
##zz
Tom
dissociation
##~~
##icillin
Community
##Ts
wavegu
##coprotein
passage
Taken
office
fabricated
##lastic
7)
Ai
supplementary
##jo
9:
modulus
Myc
##··
##TOR
lives
military
##pired
brom
ablation
hepar
Distribution
FS
leadership
screened
##9%)
##ailing
modulated
touch
1⁄2
LI
##athetic
James
anthrop
30-
favour
##toral
nanoc
Taking
circles
Oct
cast
absorbance
(23)
intest
spacing
Liter
crow
##triv
gle
##aware
friction
##ranial
pigs
Autom
Ec
parasite
##LV
cognition
hydr
EDTA
##−1.
Electrical
closest
jed
##ciences
beads
comprises
##(1),
tended
spike
phosphatase
##arts
##strand
Gro
getting
developers
bile
Ele
##compass
##20,
Electro
vulnerable
Richard
kinases
Academic
relational
+1
hypertroph
marketing
##pf
BE
tib
##alc
Cs
##ming
##ontrol
multiplication
funds
contextual
LB
##veolar
subtypes
transduc
##untary
Boston
Synthesis
##imb
Lat
Consistent
sustainable
outbre
06
osm
mt
incorporating
##pur
{(
bran
##uciferase
6.4
fragmentation
##rid
learners
plasticity
##zone
Bell
Stein
connect
##urbed
workflow
weighting
owing
coarse
termed
##hai
##hu
##nex
3%
rub
DMSO
Sen
perpendicular
GABA
##HF
Space
highlights
glycol
spor
0.001).
purely
arith
GI
##GO
holes
mobil
##ietic
Zhou
keys
estrogen
hands
##ventive
advers
##ité
ethn
Between
eligible
yielding
sow
compares
VII
savings
##ailability
formulations
infiltration
inhibiting
patent
##cost
simpler
Robert
##run
##ahn
##bras
##luent
microorgan
soc
ect
curric
trying
##ulmonary
lineage
##wi
analges
nest
encompass
vill
Joh
Kong
incremental
extinction
##ilst
filtration
Find
Clark
Short
synthase
##+/
eg
Contr
cot
managing
Euclidean
##ijing
##Based
Gastro
classic
stain
exacerb
achievement
agency
volunteers
splic
seemed
saliv
##athione
permitted
##rad
##square
organis
descriptive
Computational
exchang
1992).
subcutaneous
drivers
##beta
Grad
Ultr
Bac
seeking
severely
##adjusted
immer
##adata
Light
##onc
##fund
Mary
Expl
75%
0.1%
SAR
uncom
##aryngeal
microarray
dimer
autoimmune
##acles
Occ
Collabor
Bul
Jack
##ubation
mucosa
tried
aber
Task
identifies
(~
NIH
wavelengths
##.22
##meth
stenosis
##perfusion
##4.0
PER
discrepancy
##Cu
pathogenic
OT
##ukary
##Xi
##borne
intermedi
##iop
##WA
##agonal
[7,
cutting
##6.0
IU
##ball
Mobile
##ston
says
##inely
associate
##odon
View
realization
Address
##FF
biased
bonding
##affected
##0.8
AE
strengths
plausible
##igned
broken
angiogenesis
unemploy
electroly
##enth
steroid
##lycer
converge
multil
Hay
classroom
continuity
mood
##aser
̈
(1996)
Regarding
##herichia
ECG
GST
cylind
Biotechnology
anomalies
occasion
unusual
Related
plain
suit
EB
Canadian
350
##ocket
fun
rg
[24].
(2014)
Ent
spots
##lecules
##vector
effector
##utter
Kingdom
Sie
0.06
##oderm
jet
COPD
happen
##osol
##efined
dramatic
exceeds
enterprise
##ocarcinoma
##trivial
pu
07
cite
determinant
Plan
instantaneous
2016,
inconsistent
##ohl
##bas
Response
##CAG
ré
##environment
Union
Gib
##necess
##acetyl
Mathematics
##hou
##'-
Secondly
##uscular
Pacific
##2.5
##aran
signatures
increment
##ods
##fin
minimization
Workshop
##putation
##viously
VM
##rontal
slides
##inescence
Ethics
##loud
symptomatic
##13,
##15,
##5.00
Whereas
MK
##/10.10
)]
##ospor
##hea
selectively
##Invitrogen
raise
saw
afore
percentages
■
[8],
sterile
Cri
[25]
oligonucle
idi
tropical
philosoph
autonomous
115
Oral
Rap
noisy
totally
##ivalent
SG
##–20
Att
install
noch
mu
relapse
silver
categorized
##OV
pet
Men
pharmaceutical
joints
##role
somatic
deficit
##car
(18
pole
cue
Wa
Ps
inadequate
Stan
##this
generators
##uning
FF
##ensation
(-
Prevention
##acting
clarify
##otstr
classifiers
annealing
##versi
##opoietic
mammals
Fast
monthly
intelligent
fabrication
##itions
##sover
formally
Fo
##offs
##dc
....
inactive
(24)
##At
##iser
++
1996.
reversible
LF
encryption
dosage
##mn
Wal
depri
df
##aterials
avoidance
Search
perc
##−→
Jun
##oxygen
##jp
corrections
Harr
fungi
##Net
conjugate
GDP
mini
##bean
##Ig
##01.
0.14
diction
modulate
(2008).
##cine
##eras
Nur
Institution
explanations
1996,
##period
##yd
##Qu
##PAGE
0.13
voltages
##itoring
mirror
constructing
diets
humidity
##sl
perce
email
artic
toxin
HDL
##1|
schema
triangle
Specific
tab
##balance
accessed
##variant
Pharm
restoration
FC
emphasize
bab
quark
Ant
qui
Genet
conditioning
##gest
diese
Cat
##cam
speaking
##ugin
##atern
##auses
remodeling
##IGN
summarizes
pent
scaled
##iance
dehydrogenase
##urate
planes
##PK
##luence
Tumor
Zhao
Communications
##rt
autophagy
Upon
33.
guarantees
Lake
##total
[8,
700
2.3.
Environ
exit
##paration
polyg
microtub
Plasma
lungs
Lam
xen
09
##rex
(2007).
innovative
##21/
##ACT
Escherichia
wear
critically
##xj
weekly
[40
Family
cytotoxicity
##ynaptic
Gy
(1.
##wing
summarize
brown
##abolic
inequalities
Activity
redox
Cohen
##drug
Associ
conductance
runtime
##ocon
accelerated
aircraft
Significant
resonant
##phenyl
People
citation
##!.
Prec
Ok
##Sc
chond
Culture
unrelated
problematic
(2006).
horizon
Los
Phosph
##0.9
mouth
Run
Economics
mono
aforementioned
unrestricted
Ext
farmers
dens
##tilled
##mM
nitr
aromatic
##lt
Quantitative
echocardi
##cel
##assemb
multiplex
avoiding
facilitates
ls
phospholip
backward
alumin
astroc
eigenvalue
##21,
##irrh
##RC
nutrients
##14,
̧
Library
##7.0
modalities
transparent
export
neutrophils
ket
premature
Nic
asset
##standard
##–11
knockdown
##–15
obstruction
Likewise
Change
observable
Fox
Pd
civil
##4(
adipose
freely
(2009).
bat
0.001)
Prin
Wall
aort
(2005).
auxiliary
##oupling
Hans
divide
Agency
cattle
danger
incoming
##lass
scr
concomitant
foundation
##".
probable
##cemia
responded
Rab
influencing
Rather
##gebras
PEG
Poly
Genome
mmHg
##-00
lesser
Coch
redundant
rRNA
penalty
deeper
##ICE
##ofluorescence
##ommen
FPGA
##pn
regulations
incentives
WS
Animals
REV
rpm
drawing
##GN
disag
WI
##ELL
Increased
##elson
lane
0.11
##ela
EXPERI
Don
[9],
Eqs
authority
Sem
corporate
unw
rupture
synchronous
2/
phosphorylated
stakeholders
Art
##ipping
restrict
##ordered
COMP
##ictures
WA
waveform
promotion
AU
Notes
##–[
Hop
##On
##itate
rock
##green
pretreatment
##jk
Ten
axes
Gol
##LD
Mu
degeneration
DW
nurse
##aze
phag
counterparts
congenital
##(3):
Road
soy
federal
shallow
##ln
(1995)
Bei
##opor
##oinform
Neurosci
##agic
commercially
##ocular
colors
Population
juven
Tab
amplifier
##:10.1016/
Davis
##hom
Zhu
crossing
generality
Nav
##both
bag
##uling
##112
##vian
##uspended
installed
##tri
Bor
##ubin
debt
preserve
##utz
##×10
controllers
amyloid
adjuvant
adds
##responding
[25].
Text
Kol
##tification
##termin
##.23
plaque
epilepsy
Firstly
Block
echo
Luc
##enk
NMD
pathoph
##tte
va
##igt
accession
motifs
conce
Jiang
resemb
Kon
Eg
lifest
FI
##ochrom
##iler
##enty
##ando
0.16
gather
combines
Link
una
accordingly
##aded
MHC
##feld
##etermined
1995.
Input
##amous
emit
Il
bear
recursive
execute
sequenced
##ermark
##opter
sorting
resin
##stud
##shift
List
##best
gait
978-1
##isters
Frequency
omitted
##ague
Role
##forced
##omonas
Internal
##ellows
vom
Trad
##stone
perfor
Vo
##El
tin
gew
Mill
suited
nano
windows
grateful
encourage
declared
intram
##ups
hash
10:
nu
ki
##parametric
##This
Mexico
ready
mismatch
innate
collecting
34.
diarr
##develop
##Ind
##bur
192
KO
duct
speeds
Spanish
virtually
entering
##GTT
acidic
50,
occupational
##coding
##ercial
Ham
rainfall
##imeter
##Per
Conn
##fs
##report
secreted
##abit
sepsis
Head
##identif
Funding
Pearson
vice
##unicip
rotational
##uity
Dar
hall
MAPK
lock
histopath
##ichi
##ittle
##bra
##figure
linking
supposed
Isra
JC
##pectively
creatinine
##achus
nitrate
¡
seizures
111
##omotor
Male
comfort
expenditure
##ju
Court
plasmids
ACC
##XX
##umbar
129
##ignificant
Selection
##uzz
wells
checks
##-25
microwave
dropped
homologous
interacts
zw
supr
fibrin
minority
tan
[26]
usefulness
##.24
portal
withdrawal
##onald
vaccines
Institutes
noticed
GT
pyl
smokers
NN
Bone
##8/
drops
engaged
##itan
diminished
(2010).
Dir
chart
(25)
Northern
requested
suspended
retail
Santa
##plates
Miss
brid
1}
God
SCI
(2004).
Bcl
vapor
##transferase
##opathic
resist
##.21
##base
##orf
ensuring
##osphere
hormones
##-22
##coated
dialysis
xk
Like
metaph
##HE
##echanical
IG
##ierung
constitutes
diagnoses
Institut
##aa
ICT
oh
Contents
religious
(3).
augmented
ger
confirms
couple
HBV
0.75
syntax
dividing
observing
##igkeit
recipient
cytochrome
eines
critic
35.
##ofl
guaranteed
arithmetic
NU
##DO
##una
irrig
sending
filling
Abbreviations
##inery
##rac
Rd
##rupt
fading
asymptomatic
granular
implants
##nih
mucosal
##cycle
##ulsive
confined
##abul
amph
subm
AIDS
##ustered
3.3.
802
workshop
##,(
competence
Cognitive
##otine
hon
##hydrox
crops
neutr
positioned
[9
drainage
##:10
lg
Prom
forests
regulators
immunosupp
(0.0
fertility
dissection
##west
trap
190
##rically
##Mod
##Te
##written
molar
Fa
##ommons
intellectual
∣∣∣∣
CW
EXPERIMENT
Magn
##nnen
permutation
boys
quin
sib
1994
edema
examinations
repos
##missions
##wend
synerg
wk
##grap
##affin
Microbiol
canal
##access
##CK
′)
integers
##folio
##EY
washing
0.18
ich
##NTs
##emann
##rick
powers
alteration
Beijing
##rombo
##lice
suffering
##health
adolescent
[9,
inten
appropriately
##mt
ownership
##joy
leader
grains
##rotic
##ynec
##conjugated
Antib
##noise
harmon
##8.0
Prog
36.
intestine
##platin
cohorts
disjoint
spreading
conject
50-
Bh
OBJECTIVE
immunore
vulnerability
conformational
sliding
##Or
Vic
8).
##four
##phys
##CAT
##speed
(16
##acket
##arrier
duc
Veter
1995,
Together
##(2,
Sea
exploited
##HV
##tiviral
encode
##.33
##ulo
##osan
convolution
motility
detectors
##HCl
##ersen
discourse
scheduled
##atitude
nested
##ideo
coordinated
prey
##==
inventory
threads
##osynthetic
Maximum
lexical
Catal
Guid
1989;
##plantation
PubMed
Factors
simplify
Working
allevi
Training
##itin
Tre
transporter
Safety
Mah
##erobic
##assay
##:10.11
##ressively
##pen
desire
Sel
##aven
island
standing
1991).
##regn
opinions
##yles
pipeline
researcher
lm
##acher
Code
volatility
cAMP
mé
##acity
##hour
sink
[10],
##Zn
##fficacy
court
Decision
Kur
##frame
Practice
##hedral
BAL
branching
globally
stopped
HB
##Ls
Fort
behavioural
BSA
cf
##ophyll
eukary
[26].
relates
SPSS
unnecess
##ocyan
Impact
##uki
7→
optic
lysis
GW
compensate
##plus
##mu
macrophage
Liver
revenue
evoked
##posure
bot
##about
##Man
divers
##Sr
##idirectional
ru
demonstration
-0.0
preservation
Perm
responding
sacr
##tisol
##achusetts
Joint
exploring
20-
##otensin
##PubMed
bipolar
delta
##ikes
temporary
scholars
mot
»
guided
monocytes
COX
-3
haben
faculty
(4.1
hemoglobin
##ommun
Techni
Fu
##trophot
helic
searches
##ius
heparin
ECM
Jah
promoted
Ast
Email
40.
MIM
Positive
##ello
##plos
Tissue
Parkinson
##burgh
##teil
spite
folding
foss
##schen
readers
Ce
WM
##fish
##oblot
nitric
contradiction
upregulated
refined
##%;
hemorrhage
alkaline
##QR
Peter
administrative
##nea
##LAB
##1⁄2
ignored
shocks
123
##-23
retic
##prises
##entative
CRC
##----------------
meat
Machine
motions
Protocol
##uitary
theoretically
##source
fasting
encodes
##är
##Fi
##etra
destruction
##condition
##16,
dispar
exposures
##also
##disc
##andem
exponentially
vertebr
multimedia
Approach
##5/
MU
##EB
mast
Area
Cruz
ile
##arying
##station
incentive
infiltr
Mice
Wnt
(2003).
##aturation
genetically
fluxes
rendering
lar
adequately
pros
Gas
numerically
anim
Gmb
##entricular
repeats
hydroxyl
proc
glycerol
computationally
GB
##avirus
Google
perfectly
routinely
##sided
0.08
##usamm
⎤
[10,
indicative
predicate
zo
##long
##AI
##Mn
equity
##wall
##otropy
Chronic
retina
Gram
##issible
collapse
chromosomal
220
applicability
##agul
##.26
##–13
documentation
occupied
##ATE
##uda
Island
Sup
Star
precursors
explaining
dipole
viewing
4.1.
reuse
sheep
##learning
chol
Dri
##output
convert
blotting
locate
##ieder
##obacteria
computes
##lym
cyan
subtype
dominance
chim
pricing
Factor
perturbations
reasonably
landmark
gyr
##LT
succeed
5(
##opausal
journals
##opa
arranged
##.30
##table
##kB
pictures
analyse
knockout
arrows
Healthcare
##fen
Whether
##enchymal
Structural
##–14
Mos
##ottom
activates
##appa
##erating
degraded
##Bio
boost
governance
gra
Hypot
##ITC
rr
##Ed
comorbid
##ostics
speakers
fly
##Met
cycling
regimes
Map
10.11
cigare
citizens
##1.5
##bell
Description
Lanc
dif
labelled
Georg
mist
(0.5
ranked
ionization
2017,
exempl
uthor
approximations
bending
scattered
##ISH
codon
assembl
photons
JS
Haw
asynchron
elicited
operative
grows
earnings
##)‖
microorganisms
leaders
strings
##Hs
zer
##first
paralle
Pain
playing
##1,2,
mating
percenti
replicates
Body
(3),
##ativec
Ken
quarter
##:12
texts
capacitor
Major
##lit
inapp
prepare
Wein
MODEL
Testing
##][
nitro
##eptides
[27]
##keys
1990).
Trend
Qi
simplest
emphasized
escape
Framework
ét
Carol
Stock
##sil
activating
##vement
##anghai
McG
Fried
catch
##University
Surface
##timated
noting
Gar
##@@@@@@@@
##turing
##eda
Norm
′(
methodologies
##icard
parasites
Hart
2007)
##alg
dar
GmbH
##psych
##apsed
crim
calibrated
##arma
##arvard
fifth
##midt
Value
title
dependencies
##expression
internet
##ées
##izers
##ede
##tributions
##public
Hir
district
Nam
##,3
##ais
Columb
billion
##oelectric
Kre
Massachusetts
(2.2
Oncology
Architecture
covariates
##stere
TiO
utter
subtle
ray
Um
excretion
trading
Nr
[11],
Obviously
##tiary
print
##OVA
##ignment
functionally
resultant
Define
atherosclerosis
CAP
scatter
bare
PKC
spirit
socioeconomic
interfere
##limited
(26)
40,
surfact
##mass
BMP
forth
microm
Angel
##LO
terminals
Neuroscience
rhythm
Gil
Seman
xj
##Sn
peroxidase
##8+
initiate
##oul
imper
nas
##unting
Rot
metadata
##terms
Lys
grand
convenience
phenyl
##It
##mas
Akt
oscillation
/2
##exper
##quir
##onto
TEM
purs
atyp
##titial
survivors
combinator
135
##amoto
Syst
raises
Resp
Limited
##)[
##450
pyram
unity
biases
profound
pharmacokine
UC
MDA
beams
mening
(2011).
implied
BER
tow
37.
MIC
450
Characteristics
mechanics
Az
Comparing
bios
ours
ethics
##ulic
blast
##bild
##01)
Ah
stomach
glutathione
insert
got
cirrh
##onents
##imetric
costly
maize
[27].
##kes
##itives
##amer
declined
Pit
Kan
captures
pollen
concludes
(5.
sera
manifestations
Oncol
Fore
Sant
##ophen
##holder
(1994)
4.6
Microbiology
uniquely
##berger
pointing
Relative
##viral
informal
##For
conditioned
scaffold
Mess
sick
##bolic
##entration
##ders
Glu
##asy
BF
##VP
balancing
##alid
programmes
behaviours
##infection
##osystems
portions
(2002).
240
legi
updating
collections
methodological
##oform
transpl
##bus
##4.7
laboratories
absorbed
sein
(40
Moh
Christi
bootstr
##2−
redundancy
rectangular
##etin
##–9
127
grey
0.20
##directed
Jul
##CTG
inverted
modality
##atenin
exclusive
nearby
##kov
210
PTS
0.17
##adher
##endly
##otically
##ocortic
anaesthe
spectrometer
Meanwhile
##small
rd
##NPs
Acute
vaginal
##hrt
##cross
Denmark
alph
##lat
abol
thing
emerge
whereby
Nonetheless
##iana
2016).
minimized
Therapy
##ru
Rate
varieties
fee
lec
operates
##:6
confer
agriculture
crossover
oxidase
Period
##page
clustered
##unit
##To
Gra
Street
##acements
##aland
##rox
2017.
cooper
##relations
(2001).
1994.
Cloud
profiling
##tin
Belg
Company
nonzero
##how
impulse
judgment
##graduate
##oval
Prop
indications
reproduce
neuros
Fif
##⎪⎪
##nian
switched
##asser
##RNAL
biopsies
Diego
##KK
##ACC
sacrific
editing
NSC
(2015)
ft
256
proofs
necessity
reactor
wrote
##abulary
JL
Bot
##uri
GTP
##oprop
heated
38.
ether
insect
habitats
prone
##Mo
cav
repeatedly
(4).
Implementation
electrostatic
breaking
##expressing
##12.
subp
signed
porous
FD
##pes
diastolic
purchase
Transi
rising
ascertain
deals
##law
moderately
boxes
cylinder
solubility
swelling
amin
Conflict
anticipated
##igenetic
fused
hit
##Ci
##UE
##onder
RMS
0%
Lewis
APP
Salmon
Numerical
HSP
##performance
##versial
zi
API
syntactic
unfold
truncated
incl
##respective
##-[
Rosen
##oides
trache
Version
##FET
Optical
##conf
lifestyle
##esium
explor
encl
##bow
backbone
##icz
AUC
ht
confirming
breaks
##ethylene
##001
annotated
INTER
##ões
transfers
notable
##random
##uniform
splicing
##AK
urea
PPAR
neglected
attributable
##−(
##acies
##erentially
strongest
##ploid
radicals
rejected
wors
39.
anc
microgl
congr
dashed
##umental
Wild
2008)
thrombosis
virulence
deficient
cameras
psychology
replicate
Adj
##aplan
drought
##reprene
enjoy
endoscopic
3.7
Generation
##third
##ader
##cope
Mats
elongation
##write
sehr
Optimization
mutagen
depolar
contemporary
##vive
duty
damaged
tetra
remission
affili
##cho
##wick
sieh
##imilar
aggregated
anomaly
Gel
##=0.00
measurable
SIG
##ðtÞ
confocal
©201
Quanti
Nach
antit
##VE
mathematics
Diss
##hop
##airy
BY
smoothing
VO
Ö
assayed
##erves
Prote
resuspended
metabolite
ADHD
∥∥
chi
##orms
Kir
unaffected
##38;
Grid
##wind
latest
(1.1
##ventional
interleukin
relief
##encia
DCs
##RACT
(27)
CCR
2004)
fluids
##itu
##0.7
seroton
Biophys
precondition
##glich
intuitive
distilled
Bart
Prel
##án
##Str
striking
##sam
##ativecommons
videos
##sets
evap
##ener
watermark
##DB
##ila
trem
empirically
##alamus
pm
regularly
(2000).
##chip
##osocial
mimic
inject
##Pi
transmembrane
##ALL
[28].
offic
coastal
##aques
##assisted
4°
INF
##ompson
EE
plug
##RY
portfolio
[12],
Biochemistry
consol
SAS
expanding
[28]
vig
ultimate
len
##ervice
Sum
handled
symbolic
Virtual
##ст
ICU
2005)
subscri
GeV
Sequence
silencing
##zu
##nature
##adiol
ACKNOWLEDGMENTS
##hep
##cur
900
##ichen
##arum
Cheng
damping
##ku
##orsch
##graphs
##})
spanning
metallic
save
isomorphism
32,
iii
templates
wheel
doctors
126
screw
chiral
lactate
##blind
##ül
SIM
##0.6
maintains
coping
Ocean
##athered
PSA
meant
squared
contracts
VS
Distributed
sediments
2006)
oocytes
##Un
##rowing
##ocus
surgeon
1993
aperture
(%
##OB
HIF
ers
physiology
hospitalization
Fab
##enders
cubic
Memory
pus
##eptive
mediators
##kens
3.8
##OURNAL
##inating
push
##Bo
NG
entre
excluding
[11,
Measurements
##stimulated
brand
##Rad
platelets
##Car
##terdam
monetary
nucleotides
inability
0.07
##UI
snow
10.100
##/2)
regimens
##bb
Gall
suicide
1988;
##−3
Lower
vortex
frameworks
ingred
2002)
seedlings
overes
buildings
##CAA
##irth
##catenin
##-4-
0·
proves
##uper
centres
dumm
Leg
sounds
##cp
ocular
Newton
arrive
prescription
opt
##yclonal
faced
##luded
Potential
differing
##romo
##axial
graded
##etch
Understanding
upregulation
books
entreprene
##agraph
Pathology
##ðx
Nano
##:11
ammonium
Programm
Person
fibrill
atrophy
epidemiological
##.27
##tik
8.5
MED
SJ
offering
broadly
Morph
redistribution
##axel
feelings
##valence
Active
(1:
##factory
112
predis
Date
analogue
##adren
inoculated
exert
thi
tell
##apop
0.05,
##multi
rotating
dissipation
##seh
Parallel
laparoscopic
1994,
Kel
Lapl
depicts
RNAs
##−1∑
respiration
margins
Fas
cellulose
dictionary
TCR
Dun
MCF
informative
##ductive
##neys
wanted
7.1
##itney
versa
Ross
episode
##.28
amongst
DJ
##wt
114
DESIGN
consuming
cow
2016.
diam
##pret
##zon
2003)
##elastic
visually
##oric
ka
About
ey
saving
IMP
malignancy
thoracic
##010
0-
Aer
##eder
Ü
##proble
<0.00
Wireless
##utr
̊
biomarker
##lantic
outline
##cardi
(2012).
##2|
2.9
alg
Enh
deposits
conjugated
parity
acknowledged
grammar
##-21
affective
##udi
WW
Pharmaceutical
0.35
Predic
##~,
Seg
Preparation
116
vascul
SYST
bifur
leptin
cysteine
filament
117
triglycer
luciferase
Ju
##ocking
corneal
##matched
Interaction
##-24
CDCl
##ensory
##ycline
##empty
ethyl
IB
ld
0.5%
##LL
era
##affe
mag
arbitrarily
spectrophot
controversial
pun
unnecessary
searched
stratified
quantitatively
devoted
##rip
REP
exponent
executive
overweight
(28)
responsiveness
##otom
promoters
Chap
Ban
##letes
Arth
passes
compressed
rc
surgeons
##loss
spind
implying
##don
inverter
evolve
additionally
biofilm
intermitt
unpublished
survive
##mj
##uing
##urons
clause
##oinformatics
##ATG
##adel
lign
Ess
supervised
House
##fat
Middle
Notably
triangular
JOURNAL
Roberts
Rog
Building
BW
##ellt
##adas
4),
##tising
##median
Vit
noc
EG
##Time
RG
Cz
Dist
develops
categorical
##bond
facilitated
##’)
prev
##iche
adenocarcinoma
¢
pylori
shoulder
transm
SOD
##aste
constituents
HV
1992
über
ran
##sibly
##phen
anemia
##assen
##asome
##growth
VC
goat
reversal
Endocrin
anonymous
corn
oct
##rangian
Intelligence
angiography
LED
polarized
##virus
Sect
sorted
cortisol
cardinal
Moore
Gn
Boolean
Zeit
Resource
pelvic
##titis
Programming
buck
##utt
##pler
##PF
##ograft
compromise
##inea
Mb
Transport
##mar
assignments
(+
outpatient
MY
serine
quantization
Lung
##ycling
progenitor
concentrate
##comm
MIMO
fatal
##content
cement
waveguide
Pu
carbohydrate
TRI
##oge
trypsin
Recomm
##olus
Cos
zwe
##ен
agarose
′,
partitions
elucidate
persist
Having
##item
assembled
obstacles
PDF
CAS
starch
implication
shadow
##obi
Bra
collisions
##aryng
Trust
##oplankton
170
reject
estr
axons
##onuclear
##]:
##rio
sulph
NB
2000)
observers
##eping
Ky
##blue
sap
fasc
wing
(3,
##sample
dots
melting
##tk
п
modelled
Citation
⎟
merc
[12,
Mental
antico
cyclin
##oprot
##hode
##1.1
undes
twenty
##onge
caud
##ophore
indexes
##zw
deline
feeling
assim
1,000
lumbar
voluntary
##17,
Carl
118
##inence
##olated
##rologic
pollut
metam
reconfig
##map
##105
sympathetic
sac
##ermis
Invest
uterine
137
##oelec
##bul
pc
hin
##amen
lect
wait
aorta
nn
##ounds
cash
electrochemical
token
##issen
biomed
RJ
Constr
resident
##ostatic
⎡
BH
##rer
Priv
##elve
(60
##ishment
##osition
Florida
Shen
⎞
flash
alveolar
sciences
FB
##iolet
Kenn
vocal
Israel
##location
0.19
##quito
curriculum
preterm
##Bank
##essel
Tang
##ughter
insec
##18,
##onit
##initi
thousands
1+
##casts
##See
11:
280
DSM
4.2.
responsive
doctor
GD
##adherin
ik
sham
##anium
Hier
tunnel
granted
Region
-0
SER
capacities
Va
##ogenes
##FE
restr
Cochrane
univariate
piv
Very
##baum
restored
nanot
##nah
hors
##estab
##RH
##reement
##tance
continuing
(5).
spr
CRP
Ophthal
hop
immunoprecip
Morr
[29].
##olo
Cle
[13],
pestic
accommodate
spending
0.45
CMOS
Line
stic
Sar
antagonists
Institutional
##atom
ambiguity
CVD
Event
##osyl
##oka
(1993)
978-1-4
Repe
slots
tions
aliqu
shoot
gradual
Recognition
nmol
##abled
##cat
Respir
telephone
##molecular
##Fr
Forest
##oL
JH
meal
cess
Walk
##Gal
MIT
elasticity
clamp
##agi
##tailed
grating
Zealand
##feeding
##rogate
sclerosis
Malay
directional
Upd
infl
41.
##utely
##Eq
guess
doubt
ecosystems
reliably
##oplasmic
endpoint
##ingual
Artif
##uracy
##ials
Stage
Algorithms
Technol
spons
witness
Stim
unemployment
blockade
6.0
Mort
##MAP
fur
Treg
IBM
tal
lysates
Toxic
glands
cocaine
etiology
##apore
contaminated
##uginosa
polarity
##aga
##krank
Hybrid
(4),
lose
1993.
triggers
##reland
indoor
completeness
scalability
124
CAT
URL
##uy
MAN
##vir
113
QTL
##creativecommons
Squ
##charge
stimulating
##umen
Output
##.50
leuc
adrenal
[29]
param
rounds
##ologia
##.3%)
corticoster
##lick
hystere
till
Inst
##istors
preserving
##AGG
Panel
neutron
ISO
evolving
charging
HCl
appearing
Estimation
##SIT
##dic
##:8
##matrix
VR
gover
rheumat
(29)
drives
fibre
##angle
Garc
##alamic
##balanced
##number
##(-
epidermal
junctions
##TB
accessibility
gem
##seg
##elian
Cart
0.95
sulfur
##ygd
##atellite
municip
Series
prompt
Neurology
Agg
glycoprotein
2009)
mammary
##restrial
##-3,
epoch
##continu
lac
dioxide
ihre
randomised
##∥∥
##uates
##bearing
KR
##prim
##inos
Observ
2010)
0.22
119
##romy
ACE
din
shaped
refractive
centralized
Ide
##SCC
##emed
tertiary
crystalline
(1999).
History
##enda
##tail
unters
KA
Strept
##lay
##26.
Why
##heast
##eters
##isa
##FI
##riz
KM
##child
initiatives
##OE
conting
##uts
phrase
##thood
Daniel
aerobic
##carbon
Vector
Collection
Latin
##’-
career
polyc
activator
##NI
##130
##dynamic
##varying
##gone
REL
tracks
##uris
FGF
rationale
##average
(3.2
Alt
##onate
Bacter
evidenced
themes
mutually
pod
JE
Personal
gravit
Card
isotropic
JR
##alf
dur
facing
Frontiers
Well
Force
##choline
##years
correctness
##oradi
1960
##organization
disadvantage
Net
TRA
##asitic
interpretations
genetics
helix
aerosol
Rho
Untersuch
##ropol
aeruginosa
Will
resis
##3.1
(17
subsection
VT
pie
dehydr
ASD
smoke
##00.
eastern
Industrial
mehr
Shanghai
##VD
##three
download
##qi
COR
Students
##tracting
stretch
Production
##arium
##25,
superficial
machinery
conflicting
BMD
modifying
infin
fruits
9)
lumen
##istingu
##apeu
##rab
Sections
sug
##Val
##sex
duplicate
mRNAs
##hren
1987;
2017;
mutated
Graduate
morning
Correlation
##icidal
thr
inev
IE
##tivities
==
35,
##utors
##oretic
##11.
Obst
Italian
##obacterium
##when
Princip
cations
regards
gathered
tn
seizure
OCT
dispos
Percent
##usk
##UG
nicotine
abnorm
##fo
##ovepress
OC
##rafts
Surv
##VC
(24
snap
anatomy
hepatocytes
breathing
Fol
Yan
##reek
42.
solvents
##oglobulin
##var
cisplatin
descriptors
##isi
contig
discarded
##plosone
FIGURE
Pn
Screen
##hor
Fc
Trop
##ppings
##biased
Ras
##okines
Trends
identities
##9.0
Just
Baseline
##ploys
spray
##(4
##grams
lowering
##givers
Biomedical
##romes
Ach
TRP
accumulate
governments
tack
stocks
##ialysis
##outs
neurode
kV
employee
hypertrophy
Rock
##oblasts
Resources
confusion
##2):
gestation
polyclonal
productive
orientations
Wer
nal
tendon
Hilbert
cancell
deleted
##mouse
vent
bottlen
repetition
mov
tightly
synergistic
##+-
contral
Finland
asymptotically
polymerization
Put
epist
##oter
##−−
##ambigu
inorganic
(±
##available
##arer
##tiveness
Ireland
roughness
basin
visited
translational
Var
cloning
##unov
novo
%,
arrhyth
##eps
NW
##.29
0.98
marks
ents
##complete
##rib
##ersed
##modified
tier
##phrine
GG
myeloid
scav
Applying
##obe
flank
##Americ
Increasing
##astom
##umann
##ostr
photoc
WORK
hematopoietic
##ographically
[30].
disappear
6(
[13,
alternate
Niger
obstacle
[14],
agonists
exceeded
##([
##ibular
oxidized
progressively
testosterone
Py
##3):
Portug
##.5%)
Euler
Sympt
promise
Differential
−−
transforms
irrever
autonomy
##*)
forcing
##oken
excision
epigenetic
bigger
implanted
inspired
RCT
authorities
transforming
##Col
Ecology
MAR
fMRI
vocabulary
fermentation
ventricle
outperforms
irrelevant
##KS
hundreds
cient
reserve
Swedish
selects
##eor
##NL
galaxy
##izumab
##ket
naive
##tite
HI
Equations
aw
inacc
KS
##ncia
##existing
blank
insects
NAT
dispersed
Kle
##hole
stromal
seeded
Fuzzy
investors
isoform
##–30
Surgical
carries
looked
Candid
confounding
##ität
Russian
Nuclear
##iled
DAP
Pin
zeb
##22,
##ardia
como
averages
##akis
##urred
brings
anaerobic
Fern
##oplasty
##critical
looks
Ms
##Sim
MOS
carcinomas
##=3
placing
KCl
##iones
##azol
##<0.01
(0.1
nite
##network
GPU
##invariant
Wave
##KI
adversary
Ot
2011)
Manuscript
HH
##amura
##visiae
analyzer
Supplemental
##node
1991
irrespective
##ande
helping
Depending
##iki
Sensor
##ATED
##atile
Sr
|=
imperf
##rea
â
doll
went
dyst
enterprises
AH
Singapore
neurotrans
stretching
suppressor
##NB
assisted
##imming
##VM
squamous
Korean
##reviewed
Pow
grouping
##Par
##fed
(1998).
##phy
##–16
Cx
##0.05
Tg
##(4):
WH
Hind
achievable
microf
##=1,
WL
Procedure
##igenous
keine
##spe
##astically
##****
synapses
neutrophil
semiconductor
##reactive
##orp
energe
deterioration
Big
##avor
Ó
tic
rigorous
##ephal
Point
Protection
133
Neurop
##exc
notably
repetitive
whilst
##oving
commands
shifting
##rocyte
##uccessful
‡
##responsive
Tit
unders
voxel
olfactory
Rever
dissemination
##second
purity
Typically
Face
compartments
relatives
3000
Call
Perhaps
cytosolic
Combining
##inent
##rystal
ports
nerves
(6).
Scott
Univ
someone
ace
##Do
endocrine
##sulf
immunization
pari
1993,
paren
missed
anything
preventive
##Vol
Publishers
supervis
##roll
145
Windows
solver
colonization
Spatial
slopes
iz
robotic
Brow
stems
erosion
##(~
instrumental
2001)
hemisphere
esophageal
encouraging
senior
##catal
genera
Jackson
argues
##linking
WC
##main
origins
arsen
contralateral
##ITH
12:
atypical
##ocellular
0),
1500
paragraph
rins
Cellular
Turkey
rabbits
obtains
Aud
(−1)
discriminate
allergic
racial
oscillator
Left
Genes
learner
tank
syll
Lymph
##eler
##rogenic
Critical
##125
##And
##istan
##19,
Initially
GSH
abstr
accident
spars
##yer
##akt
interstitial
##method
##algebra
substituted
lineages
multicast
##1.2
##/−
Dutch
Ped
##.32
illumin
##Ser
microp
##ysaccharide
compatibility
##Gu
Tow
].
Columbia
###38;
endothelium
gp
encounter
deut
Bud
##idelity
##temporal
##ustion
dict
Song
##ediatr
intuition
defective
optimizing
Michigan
Female
richness
gestational
##ophysical
inversely
traumatic
claimed
confirmation
Feed
facilitating
reviewers
##ailure
Raj
vicinity
sustainability
NI
stellar
predefined
Adaptive
ê
economies
bioc
Gastroenter
##plan
serving
Ct
pancreas
lev
Pharmacol
Dur
homozygous
liv
],
Phen
##ska
dosing
ANAL
##aman
Arc
##.4.
(30)
##Pt
reinforcement
##ococcal
Regional
##ijk
constitutive
##но
##iscal
cutaneous
impose
##orphous
attacker
anion
##availability
##erts
wash
Negative
Stress
mang
##31.00
transported
affine
irreducible
Salmonella
##Ai
##halten
##oi
cope
##ounce
##-29
epidemic
144
exhibiting
incision
monkeys
adul
1989).
mosquito
biomedical
ae
Innovation
diode
⎛
##-27
geometrical
##asted
cerevisiae
qualitatively
corrup
mAb
peritoneal
##eten
##ighed
inappropriate
Opt
preferentially
turning
dox
##current
##imate
##means
Tn
##licenses
maturity
quas
tach
tuple
##etti
Curr
encouraged
Soil
0.24
comprise
jointly
impression
122
##har
##tified
combinatorial
shield
penicillin
grids
fate
360
astrocytes
##depth
##kj
##utral
extracting
pellet
behave
mediating
SIR
##oning
##XR
zwischen
##uled
judgments
networking
##orylation
Atlantic
##owa
##orthy
explanatory
inconsist
.01
keratin
##WB
tubular
##+1(
anisotropy
##?”
##cemic
Deut
##ighter
cirrhosis
##bour
cable
outliers
Lagrangian
encephal
##oyl
exercises
##.35
cant
##pine
lymphocyte
pron
forecasting
prefix
##ubs
crime
truly
Sug
universities
36,
meters
##onitrile
exploiting
##atization
father
##uplex
0.50
##liest
biotin
ubiquitin
Eight
HeLa
flap
definitive
alarm
Kaplan
compromised
##sie
IO
falling
Content
reciprocal
naeh
Mt
##tran
Nutrition
##artile
employs
Subject
investments
stabilized
Tc
43.
evaporation
[14,
kcal
##urt
##erend
##ENCE
drying
Median
Americans
Jer
Competing
##oda
##itative
adenosine
Agricultural
1992.
##odef
Band
Krank
amygd
OM
multip
sequentially
Fal
osteopor
Theoretical
##reasing
##/5
justified
scanner
##stell
subt
poorer
compositions
Loss
convey
##iten
##gmail
notions
##umina
##fected
##apoptotic
intens
substitutions
Rule
##)].
CCD
GAP
##parency
transducer
Pros
Tree
##–19
Best
pituitary
##ounting
compiler
phant
postnatal
##ellowship
usability
##econd
proceeds
rv
equiv
opened
graphics
pad
ck
mediates
dispersal
cystic
UL
##gef
magnification
commod
##lecommun
undergone
trab
confid
10)
Congress
capsule
Size
##Down
##tronic
titr
Dam
cataly
instanti
juvenile
Bull
Mathematical
possesses
##/12
##isite
##post
Cn
Interface
sad
irradiated
chicken
chooses
decoder
Francisco
155
depressed
unified
heuristics
1978
asynchronous
##temperature
##106
##uminescence
0.23
Vision
##family
Rat
##Section
##ensch
inoculation
Take
GEN
212
33,
doesn
George
##producing
2+
##tebr
Dermat
transformer
##rafish
muscular
##)−1
evapor
meetings
∃
##tu
ADC
##oreg
##(|
Physiology
schematic
interferon
estimators
dialogue
##idental
pec
##yster
gases
##otrophic
##1⁄41
##VS
deprivation
sports
Temperature
##naire
attracted
Secondary
tau
traff
syring
Org
##calc
##parameter
∞∑
##onen
##ometers
attained
##menopausal
##ispanic
caution
fiir
everyday
Â
originating
unilateral
##oT
##atidyl
##ulting
fulfill
Analyses
larval
##emp
##CAL
owner
IJ
Kin
##tains
Yi
detrim
Fib
reflections
2007),
Ratio
##ellum
##image
basically
##encephal
ICD
##iasis
##piration
1986;
expense
aj
##lism
STR
##ás
##depress
declar
grasp
immunoblot
McK
Outcome
##nk
##.34
##apt
Bras
decentral
##00)
ship
JJ
##ibt
cylindrical
amp
121
##ounted
superoxide
Bob
terminology
cure
(2013).
CY
##hoc
enroll
Simon
##nisse
lever
##fung
⎜
Inhibition
Heter
diameters
habits
Later
##chaft
propensity
##degree
ambiguous
##/100
universe
Thompson
irrigation
##Qi
peroxide
Financial
ultra
Smart
deemed
besides
##="
roll
Pare
##acs
##ster
Clinic
[31].
##western
neurom
##icin
vend
##FM
organisation
##grid
dissolution
##COM
eliminating
conception
Media
##atever
examines
Pop
twe
ANALY
sag
##five
suffered
Kumar
##μν
##ente
departments
PJ
supercon
##patients
mTOR
##CMV
TW
residence
bac
fist
quoti
##'.
##AMA
##ertation
theme
##sum
IQ
##acrylamide
##2.1
FW
architectural
##enstr
##portion
Images
tandem
tuned
Staphyl
##ammer
logarithmic
##-26
Ja
designers
##este
##orbent
digested
Anth
transfusion
voting
Epidemiology
aquatic
AW
##black
AML
##1):
Biosystems
topical
weit
Instruments
refractory
##Bu
Reyn
Master
visibility
##epit
##ramer
Andrew
integrin
##Er
translate
formalism
Singh
DFT
SCH
Great
[15],
residential
##30,
elliptic
tam
##shot
##EPT
nodules
##asks
fibres
distinctive
bos
printed
(‘
senes
modal
##timation
overload
turbulence
EST
##odynamics
supervision
##peak
referring
##complex
##,’’
##ania
##ropl
ili
Shim
Engl
2006),
replicated
##quid
utilizes
formulate
occasionally
##104
illustration
Neurol
.,
∼=
##NM
##selective
experiencing
⊥
##∞)
segregation
##door
Beck
ances
dates
phosphorus
##kar
capturing
##Tc
##bounded
hypothetical
meter
gy
waveforms
##EW
Sz
mir
bere
deduced
##hist
##rell
PTSD
Domain
malicious
##occur
(1992)
separating
knowing
##iteria
##astatin
##′.
̂
##alis
##cu
##Ste
percentile
Ker
4.8
##1.6
##athan
##ère
##bles
Mun
##002
clinics
spontaneously
islands
2005),
2.4.
Coul
Determination
0.05.
(7).
7.0
xyl
##lational
8%
Æ
##orig
0.09
allo
altitude
situated
annotations
lethal
packing
award
aluminum
##oen
salinity
digit
##ANCE
Pak
sph
Ash
##acid
script
nov
Blut
##∞,
wants
grades
Dynamics
ICA
Infect
mappings
##–18
##.31
##sel
##olateral
##score
regressions
editors
Od
##ican
plateau
immature
##hyd
225
230
Lancet
minus
##bst
Action
175
Cond
Poli
##poly
CU
134
harmful
tunn
traditionally
glauc
UT
fluctuation
Opin
referral
Monitoring
##SAR
Poll
wastewater
##raulic
Dub
Solid
##entist
##income
kernels
6%
JD
##ismic
poses
##pirical
rescue
Video
Tag
clouds
viewpoint
thermodynamic
##wart
elicit
scalable
Klein
##titutional
##ordan
merging
##aphr
opioid
psychosocial
##ACH
##ogs
algebras
Retrie
circadian
submit
substitute
[31]
34,
prioriti
##diagn
commut
##inhib
##ranean
Belgium
##ierten
##TNF
##-28
Nash
##amento
Brit
Coord
imbalance
##atri
189
Soci
##lower
10,000
litter
wen
ahead
steep
Context
issued
caregivers
Objective
[15,
##Ber
##kb
coval
##annon
##ectable
##tribute
readings
Matrix
##UME
potency
45.
cosm
ug
endpoints
##ortions
Shi
##QP
##11/
##arger
##ilis
packages
LG
enters
residuals
##avir
sper
transmitting
SCC
filaments
perceive
##bris
attending
##1000
please
Ori
valence
disciplines
Sak
spheres
allerg
##OLD
##asian
Fish
violation
kil
indexed
##hospital
narrative
##server
cessation
proposals
dd
##ingen
existed
##generative
sake
2004),
##ewe
Speech
136
amel
matters
counterpart
router
ACh
qi
50.
Cluster
Comparative
Tax
Regulation
##asse
##cox
Triton
##abine
phenol
phe
memories
##ampl
Does
regularization
decomposed
Ontario
1992,
electronics
##.36
sender
priming
Right
cows
##tn
##linik
inherited
15-
##sivity
sell
##Red
aa
transit
appendix
Eastern
Barb
##vs
pigment
Much
reflux
##rez
song
wenn
monomer
Biosciences
##ROM
enum
/1
lacks
triplicate
Ã
##aco
mesenchymal
gyrus
injured
##bedded
##tidine
surprisingly
Harvard
Roman
##electro
##:7
##ASS
##ylvan
Overview
##hot
##iders
Approximately
##ickel
##GHz
til
gravitational
##ofib
##ortium
conjecture
granules
##inux
Carolina
payoff
2008),
earliest
alternating
disadvantages
brains
##gener
[30]
##seq
Hung
hardly
floating
sheets
Parameters
Sche
##illo
reproducibility
Thirty
##KB
Breast
rectal
(1997).
mechanistic
stark
reductase
##pple
8.4
##ionine
producers
##andon
Chall
Station
depths
lake
pools
antidepress
constantly
moi
1990.
Verlag
##volution
##SIC
Less
relativ
##vectors
sacc
##olone
Ry
maximizing
Brad
##PG
##ometh
ubiquitous
SET
xt
##anche
og
threats
Kaw
Norway
consciousness
Hod
##VER
##plicated
##acks
coagulation
##cein
215
transporters
##ivity
keV
##ilipp
[32].
(22
##opt
##ludge
implicitly
destroy
##/.
automation
cad
Repro
131
##ibli
##module
138
stressed
##005
magnitudes
ö
advis
arrangements
##acetic
Agriculture
##asty
##ensile
Blue
##omerase
torsion
##product
challenged
heterozygous
##opyr
9).
univers
##hang
##fri
##trip
Fix
bent
hed
45,
Cauc
intermittent
remarks
konn
judged
##lact
Sac
##tagged
##vens
0.30
nieht
SAM
##ilibria
Cardiovascular
##PV
##MBER
##ercise
ces
Extr
##romycin
parench
veter
48,
Hsp
repository
##Verlag
4.7
gram
Wei
serotonin
Concer
imagery
bug
3.9
apo
##onstrained
receivers
adopting
visualize
fron
Diagnostic
Contributions
##......
malignancies
##vex
herein
##ocratic
(31)
relaxed
ß
##ifen
0.01).
##ws
axon
##003
##commun
Mechanical
##chers
0.26
inhal
parietal
##Mar
som
furn
##without
transcribed
##Glu
##apunov
##ographics
##ieu
brightness
##bens
fell
gates
##urities
##tsch
angiotensin
##KE
distinguishing
##–22
##functions
rail
0.28
isotope
economics
##cales
##unter
tangent
athletes
syndromes
OFDM
criminal
proving
Semantic
Activation
unp
accomplish
##volume
salient
exploratory
Mand
PAT
macroscopic
##component
artifact
electrolyte
##hrend
##ubicin
prophylaxis
answered
contradic
guideline
minimizes
1999)
Artificial
##140
BRCA
transc
##lieh
thoroughly
amorphous
##ilin
occupation
##ESI
lowered
suite
##-36
summation
gonad
emitted
37,
publicly
##004
Chan
ammonia
Ty
FDA
##hicle
Final
citrate
Feb
nos
##inois
retrieve
Gross
prefrontal
competit
##bank
##ishi
trunk
contours
##ermann
nition
##tian
convention
Transfer
spindle
##leich
occurrences
##umetric
imaginary
composites
Integrated
##..........
##-34
Ams
##Po
antiviral
##OSE
drag
equil
Feature
##white
catalysts
8.0
characterised
##holm
0.01)
##ULATION
merged
2003),
##hetic
practically
##rais
Director
0).
SCA
Standards
##ilience
nevertheless
##arriers
transistor
⎠
container
unitary
monolayer
Word
RAM
##rett
Anton
##fluor
killed
Magnetic
depar
##ibly
Petri
ecology
AZ
registers
Merc
CJ
Oste
##contr
##connected
flies
##-40
bubble
referen
Rest
38,
ROC
(5),
##Whitney
##bol
##glucose
##may
[16],
##writing
ethnicity
ectop
Weight
##anyl
immuno
efflux
aggression
ine
inheritance
[32]
##/$31.00
analogy
##stan
Still
Tele
##code
##weise
bundles
biologically
spend
moiety
##UST
##olerance
restore
FO
stig
Assumption
terrestrial
##WR
MATLAB
ud
isomorphic
gn
NMDA
giant
droplets
variances
##aning
##orphism
##23,
ZnO
incorporates
(8).
stopping
raising
-4
CKD
volatile
##ções
##tique
##orh
##etermin
longest
durations
couples
headache
tries
(2016)
constituent
scaffolds
manufacturers
2009),
tolerated
##ogeny
CpG
Cere
⎦
Microsoft
MgCl
Logic
dummy
##openia
Revised
##CoA
##onium
enorm
dimensionality
excitatory
EMG
coincide
kidneys
deletions
##bis
pn
##SEM
legislation
remarkably
##Tn
ankle
protons
proinflammatory
Province
##amps
##-)
reperfusion
odor
eld
intent
##imuth
5.6
##olymer
tar
##Instit
stimulates
Hepat
Today
UML
Tool
stirred
fs
##rosion
##Dec
OPT
##imaging
infinity
Harris
##EMENTS
##lecting
upward
##1.8
##idis
##nucle
medull
1988).
adulthood
##eworthy
droplet
##oxacin
Comple
##]]
̇
##bottom
lithium
##:13
(6.
Jin
##nsylvan
##urgery
atr
##eq
Construction
##iterranean
##kk
##aming
##gren
Apart
bread
multiplied
streaming
1998)
##aca
ej
Bayes
##illar
##enhanced
##Rn
##eared
Signific
##igration
##adays
##enberg
Carbon
hypertensive
Tum
anastom
scanned
##acental
presentations
aneurysm
executing
Optimal
Ow
ys
##jun
##sor
##agmatic
##oa
##1.7
ohne
revealing
timely
Gluc
told
skeleton
##Ri
260
##early
Bound
classi
);
void
consultation
intracranial
Properties
Immunology
##bad
intraper
##24,
paradox
wages
##fulness
actuator
##harm
gent
##urface
draft
Stanford
adjustments
46.
corrob
Brun
elegans
paral
Strong
Reli
comprehension
Inj
Dick
##GH
##=4
homes
##gp
##20.
mandatory
##central
police
Paragon
Pack
insignificant
##150
##etting
fibrillation
Ò
188
Musc
chaotic
##amyl
(4,
occupancy
combustion
grafts
##dimethyl
##aminergic
accompanying
rhe
##prol
##Life
pine
##eno
bootstrap
cyclo
##onin
##Min
subsid
characterizing
##iminary
discipline
Ampl
coincides
LU
edition
##kop
compensated
colored
Resear
prohibited
inductive
Sir
edited
monotonic
knows
calculus
(1991)
##inally
puls
Hous
##idelberg
##pton
1975
Pier
Phyt
foci
##ariable
##quiry
GIS
##ın
mitotic
Conditions
##LAST
burs
parasitic
##present
293
GV
William
##yrin
##mond
Spring
##–17
1991.
mitigate
Ei
gar
initiative
##fly
Charles
ligament
##frontiers
##ticularly
Planning
##HB
##inj
interfering
extern
Bow
##odil
(32)
signifi
44.
##ducting
RW
topologies
Problems
merge
##.38
rk
BMC
lecture
##ongue
Anat
##oxicity
##particle
OE
##(2),
compilation
senti
concaten
autocor
exceptions
mult
germination
##)1
fundament
##frontiersin
IX
autism
outflow
##rosp
##ecture
Simple
##inki
##lauf
mtDNA
perox
lt
##jan
##osidase
ARTIC
courts
Sensitivity
Behavioral
descending
Quantum
proliferative
2002),
adsorbed
spiral
verm
##oblastoma
RFID
scin
(1.0
FBS
repression
transistors
suggestion
##NMR
[16,
bytes
(1996).
specifies
##upta
obstructive
39,
styles
Angew
farms
cats
enforcement
Parameter
Stroke
chor
KD
(33)
originated
##lishes
expresses
familial
EXPERIMENTAL
trapped
##––
triangles
VOLUME
##gap
Ther
##All
Lp
132
tick
165
##aba
211
spikes
##lipid
zebrafish
HSV
##dk
##aked
efficiencies
pores
##ularities
5′-
mediator
Diagnosis
committed
Tro
Motiv
rheumatoid
ole
##leted
Home
[33].
spac
Engine
Electronics
supernatants
ABC
##ocin
Sched
stri
##bumin
##area
duplication
unequ
##ayed
##inski
periodically
##ovic
Questionnaire
##ceral
hemodynamic
##unct
esophag
##wal
99.
Onc
trip
Evans
reti
AST
MAL
assigning
Rights
##super
##epage
hearts
##nsylvania
##160
keeps
immunodef
DMEM
gaze
1997)
programmed
##Mi
slide
##bt
##ustering
deduce
##XT
stabilize
priorities
eluted
Lyapunov
Details
neuropsych
512
graduate
Reynolds
##Max
makers
Notch
creative
##prom
Kid
hazards
aph
Wir
disclosure
##eln
1985;
thereafter
##coupled
Assay
advertising
elast
##achi
amygdala
##Ox
##alo
COD
Poland
Bos
85%
MSE
cotton
Neither
DU
uncor
glucocortic
specifying
##SW
##assembly
engineers
flavon
phage
suture
##3.6
sludge
[17],
##FD
MSCs
scenes
Publication
##Bar
arcs
##falls
ferm
EGF
##roni
tape
##prof
(9).
RAS
##3%)
detrimental
Paulo
steroids
##apes
##ceptors
disks
147
##itosan
Rib
##CCA
##due
Mik
##ocene
justice
prenatal
##(7)
16-
##〉,
societies
compress
alloy
albeit
9-
governing
generalize
##RB
formats
augment
earthqu
representatives
##ordon
clade
Little
10.110
##alliative
surfactant
##American
##spl
##usal
salts
pk
##ffl
Ergeb
cultivation
##arial
Product
##buff
tumorigen
east
##ompos
Virus
Literature
##herence
valued
clarity
##sn
##utin
47.
acetic
EMB
multiplic
##pert
luminosity
PCI
surrogate
Present
reflectance
##ittal
assertion
##---
##éc
philosophy
##tip
rip
invariance
Pareto
fax
advertis
270
faith
weigh
##rints
Result
Schmidt
2010),
Lastly
descent
Transform
##iatr
remember
42,
##chr
##giene
denom
plated
##electron
##/2,
hormonal
143
Outcomes
groundwater
5000
##ULL
##amente
Hemat
Reduction
##oea
ontologies
Pere
Employ
payments
saved
cerebellar
Gran
##∞(
##keley
Rapid
##stained
0.5,
##between
alkal
##MV
60,
##PBS
shar
[50
##galact
besond
##cz
Staphylococcus
Pseudomonas
counseling
##2.6
waren
##1%
Writ
normative
gegen
46,
HEK
ignore
12.5
##strom
##800
verschied
modulating
Pennsylvania
negotiation
##]),
Polym
##Au
structurally
Amsterdam
cuts
veins
2012)
185
taste
supportive
1=
sput
divergent
buffers
Grund
clot
heads
weighed
pairing
neurob
##YS
320
pneumoniae
corresponded
Conver
paraffin
Wong
##13.
Gynec
##izin
engines
designer
tk
##apeutic
CAM
cran
Marg
schedules
##geme
profits
nanow
debris
PRE
##109
discharg
##.37
haplotype
##OO
Require
discussing
##tricts
139
carboxyl
umb
segmented
oo
##ogon
ue
ending
##Dr
legs
catech
##mel
diarrhea
magnesium
Check
##kit
absor
48.
isother
judge
sowie
CONT
divis
##inar
anomalous
Integration
indexing
Mix
Obes
##unden
Sher
aspirin
ozone
Meta
firstly
##MW
##uvate
convinc
##0:
##pat
REVIE
Jud
balloon
interpreting
##Ka
sont
Illinois
##2.8
##2=
cage
##tie
NSF
twin
poles
cultivars
Depression
antisense
##established
##oscope
##.”
Zheng
##yen
transparency
Dal
IgM
Agent
##eption
specialist
Russia
staging
Ferm
subsp
Read
##-35
##odec
tensile
Guo
newborn
##VT
ATM
1990,
JNK
trav
stories
##acon
progester
##agog
##(·)
##receptor
Victor
Kern
valuation
grew
Findings
fairness
equilibria
histology
##pic
##halt
Guidelines
intron
immunost
##UA
##.....
turbulent
##21.
Kam
disparity
himself
Jeff
myosin
compete
premium
Trial
2001),
partitioned
##orel
bins
keywords
##gas
##Ba
corrobor
##-50
##yal
fibroblast
Zur
ultrasonic
##grained
harmonics
##fast
Advances
7%
HDAC
##iatum
35%
placent
##essen
vesicle
controll
tric
##107
##erotic
trafficking
0.33
Descri
##dm
cave
##osensi
nucleic
BN
##uche
MeV
yes
##ureh
##rows
##rn
County
dairy
##cadherin
altering
##gic
autonomic
Regression
##essional
installation
##istinguish
##aceous
Boy
(10).
impairments
##:14
##surface
Solution
Quantif
##ém
click
reputation
uncommon
Christian
slip
irrit
Intel
immunoglobulin
##tillation
≃
##GTG
96-
IgE
ROI
3.4.
Mediterranean
##weg
##ograp
##:15
41,
##domen
disconn
##oshi
wake
##adium
##guided
##reens
##]-
progesterone
Ama
##293
##111
Preliminary
Rm
##ourcing
0(
Nord
flexion
##ØØ
##üller
Price
##FU
Wolf
yt
soybean
Por
Joseph
Nursing
coupl
##itories
##urgical
parallelism
##roids
stator
##conc
ANALYSIS
5),
licensed
1200
##ICATION
nonspecific
lid
clauses
instructed
interpersonal
cysts
##hedron
##person
epitope
downward
Xn
##onset
##103
##oj
##mac
##vor
inhom
Ana
##article
Broad
##anna
minimally
##inde
##venues
organisations
##Ma
##late
tailored
elect
chips
##oker
tokens
auction
Psychological
Throughout
##ingham
somat
Nik
##agland
Gender
Ster
brach
PAP
downregulation
Iss
Ball
audience
harvesting
##upus
CRE
viel
##prints
##via
Hug
##imetry
##road
canopy
##character
chir
governed
##arden
1996)
##hasone
##rost
##.........
EPA
##ador
suggestive
homogeneity
cass
##(8)
asking
rac
##Mg
##oplastic
qualities
thoughts
morphine
ligation
Ish
##ра
Win
Fuj
3;
##pers
tie
completing
##.40
##2%
Son
geometries
##optim
lighting
12%
##ochen
OL
reproduced
2000),
##idazole
216
triggering
##,4
OSA
Cast
preprocessing
##XA
UP
killing
integrals
consume
outbreak
1991,
phrases
##Downloaded
Amb
##–50
##oft
##ANOVA
10).
spectroscopic
##measure
percutaneous
##ANG
circumference
##nung
thrombo
##predict
[33]
overt
innovations
##3%
##244
undet
187
advantageous
##cripts
Toronto
PMC
trich
##opathology
Urban
##leigh
nets
locality
##odegrad
Ž
##MHz
IND
##alley
[200
Hels
histories
##Ref
##ieg
Site
##2.7
##Eds
Extraction
##itates
Tb
attended
Hoff
Plate
##similar
glomerular
##imus
##sibilities
anchor
acetone
alcoh
##cancer
tracer
synchronized
##hin
KB
Bey
literacy
##posing
Kor
registry
plaques
##dh
##author
[34].
с
APC
##olith
Implications
##fal
ç
##uller
Separ
telom
NUMBER
[17,
reconstruct
##RN
##)))
benchmarks
0.27
wires
downloaded
capita
##0]
##VO
−∞
disrupted
Measures
axonal
Kalman
##mort
##-6,
##ylate
lying
Leuk
lean
##effect
Setting
##hyp
Wright
behalf
Substit
##1=
##198
typing
dz
##oarth
popularity
##phia
##ifts
periphery
wra
exceeding
irreversible
epidemiology
button
eukaryotic
bifurcation
2−
##behav
Meyer
lanes
##:00
Taq
##amines
##partum
harbor
##50,
##dU
cup
descriptor
в
listen
ITS
##BG
Eu
##obenz
(2.5
Allen
Cole
enlarged
endemic
ram
mitral
##iri
##aktion
contrasts
##”).
displaying
anisotropic
Virgin
##imoto
Representative
Pel
immobilized
implements
##ASH
discharged
EH
##urin
nemat
1987).
leukocyte
Node
lymphoid
##avi
##aska
(6),
Bax
zeros
agrees
predicates
Automatic
Dong
adhesive
suppliers
/∈
workplace
victims
(1990)
tracing
ADP
##Cre
213
ging
secretory
herit
noteworthy
positivity
willingness
wieder
−=
##ARD
0.97
##Direct
[18],
##.4%)
##iee
Phyl
Obj
##ilent
coch
plur
influx
antitumor
##centered
Formation
##good
47,
Aust
socially
##')
##ffee
Score
simulating
##angen
bim
Fred
mercury
BG
Intra
optimality
yn
Verg
##plastic
##14.
Rub
androgen
Chlor
44,
bromide
banking
##atation
analogues
vertebral
SLE
##inv
##ahoo
Immunohist
hypoxic
⁄
kö
SiO
0.65
##1-1
ribosomal
osteoc
Corp
shrink
##ência
ja
Rac
accessing
postulated
EPS
0.90
terminated
Groups
##Hy
Xen
(1.5
ganglion
##prisingly
##1*
cs
9.5
azimuth
acuity
##date
##IND
##Ss
##Ass
inertia
fulfilled
inherently
##ping
0.36
Paras
tm
##lett
##rays
Eine
Year
##–40
eing
initialization
⎝
##hum
ancest
enrollment
##odiversity
legisl
avoids
##erentiated
FN
##aters
Arter
procedural
##cycl
Circulation
##hs
Asp
transgene
168
protecting
Continuous
##opoulos
antibacterial
hypogly
declines
⋃
alkyl
##ogenicity
hydraulic
retard
salmon
##adelphia
Original
Variable
polymorphic
aspiration
finished
##yroidism
##thick
heme
1984;
##amethasone
ultrason
##STRACT
cooled
CCL
Gef
##bj
##vac
supplier
HEP
pulsed
obsc
2011),
##solid
(2014).
(1995).
##tl
Techniques
Influence
##nell
##15.
exons
SYSTEM
##</
##engine
VIII
Alice
∣∣∣
volumetric
shot
intraoperative
Denote
Operation
##Ws
accelerate
BJ
0.40
west
formulae
myocardium
##eces
##olate
Discl
Fuk
Publications
Haus
surrounded
##esthetic
detects
##,[
osteoporosis
146
reproducible
Marsh
##STR
##ighbor
sinusoidal
tomato
##ele
Surve
##116
Russ
Distance
##ucker
##input
render
liberal
Ib
(5,
##0-
Tal
magnetization
##analy
idle
(80
##cheme
Brazilian
##uric
ALL
Pediatrics
discrepancies
##ythem
##yk
##din
stratification
storing
pathologic
SAT
Base
⎪
fisher
surveyed
-5
positives
anticancer
1989
Collaboration
##WM
Malaysia
##Ro
##omyc
##108
##uez
43,
##olerant
MSC
quotient
Usually
alt
marking
publish
Methodology
##prov
ARTICLE
turbine
contradict
Scot
##plicit
potato
recycling
pathophysiology
JF
extrapol
revolution
Formal
Rank
##neider
##irkung
kinematic
##groups
aueh
##40,
##Ther
##Et
##.2%)
##coun
##(10
Computation
0.34
biodiversity
HbA
Vacc
oC
cipher
fing
##ellites
meanings
##ulfide
lysine
##16.
5.8
nodal
##orubicin
HMM
##tigen
##utations
##ERT
enlarg
Users
orange
phantom
freezing
visc
AUT
recognizing
##estock
##urning
hydrochlor
##[(
PDE
##..............
##osus
##.'
PLA
##arbonate
vegetables
##hens
##measured
ERP
defend
engineered
##aacr
##ENTS
moreover
##WF
##NET
compiled
##rei
radiative
Hypothesis
amen
Title
photore
Acid
amelior
148
##opus
elucidated
rays
##him
dominate
##cyt
##elin
ties
Neph
tRNA
NSCLC
##mc
imaged
backgrounds
##evalu
##ASP
chel
append
interplay
##uC
##yx
##full
##objective
upl
superim
##enia
feet
greedy
SOC
Zusamm
Helsinki
CMV
lute
4000
limbs
abolished
##six
Adult
Upper
ips
Choi
ash
Modern
Proteins
49.
##stat
0.80
0.38
NET
Prol
neurot
multiplicity
pocket
##ompatibility
constructions
São
niche
##itating
Ji
##-60
(34)
217
pregnancies
¶
speak
decays
lift
hyperbolic
fluoride
Examination
##17.
completes
##ureau
CRI
dissimilar
Seh
Seven
Tob
##RM
##لا
ation
neo
nucleation
cards
Gray
drink
(11).
broadband
owners
##10-
hus
Multiv
Austria
ascending
cultivated
offline
##cle
Partial
reass
##pk
adren
3/
##pair
##icol
149
##uality
##INT
##fib
glycine
abscess
##threshold
BV
[34]
##voltage
intermediates
aberrant
Gao
sor
##bin
flip
NOT
unambigu
disabilities
##27,
Exc
##iques
bones
speculate
##das
()
CHD
##quist
Ric
overw
warranted
##atinum
mutagenesis
##ycardia
packed
Angeles
marriage
RNAi
##essive
colitis
##error
Nigeria
##erals
dominates
##licher
mosa
##(5
100-
##element
skull
glu
0.29
Agents
##ét
enanti
interviewed
Á
##jn
##lm
##some
Meeting
accidents
districts
rms
##-2.
FV
##stad
suspensions
##eton
##sequent
TK
entang
Team
##PB
[35].
Complete
##sage
##EARCH
juris
Cooper
Unter
Dys
ICP
haplotypes
##identified
Suz
##NAT
bacteri
Las
drawbacks
leukocytes
##oured
Veterinary
##efficacy
Mak
Nelson
condensation
cleaning
beim
diffus
approached
Sj
intentions
Ultras
Lar
##aur
##iano
piez
USD
satis
restrictive
pellets
ISBN
liposomes
tongue
VE
##на
##ecl
splice
13:
convergent
microbiota
##chell
noticeable
uc
##ordinate
Gill
2013)
acceptor
leverage
##ovol
Linux
##correlation
glial
Remote
inferences
recre
freshwater
##generated
##GAA
docking
equivalently
##ishman
(12).
##hler
Aqu
Permission
endometrial
HN
TRAN
[18,
HU
audit
##Op
##lude
Strategy
microglia
reticulum
##ро
##encl
ESI
demanding
Cardiac
forwarding
subtraction
14:
##asant
nanoparticle
Francis
rodents
factorization
##oly
##kinson
##Mart
automata
expenditures
neurotransmit
##uo
##aben
hydrophilic
##fah
selen
sums
shaping
##ailand
##atosis
crust
glioma
orbits
##perg
Herm
Thromb
projective
sold
warming
Previously
regularity
Diese
Document
exploitation
∝
##timm
doping
kur
meets
methane
proto
##...........
##ocracy
inductance
Has
justify
subclass
seaw
multiplier
Bacillus
##)3
door
rewritten
Radio
##–25
##atinib
Variables
GN
nonnegative
##.39
dann
##rites
terrain
taxonomic
##HER
histograms
Dental
##anto
Jus
supplies
conversation
Roth
##forcing
everything
##IZ
CDK
actor
taxonomy
214
##/11
cn
knot
safely
Analytical
0.70
##jj
##chrom
##αβ
conceived
##cientific
ji
gesture
CDC
Traditional
##102
overlay
resilience
cigarette
##~.
Philadelphia
seasons
perin
travers
Interview
solves
rom
NV
ew
##acyl
##ogel
##](
sheath
##afe
lived
salivary
##rons
##ixel
scheduler
##180
##whe
MTT
##itarian
Golgi
linearity
##effects
abortion
clinician
Industry
Bab
Ñ
lessons
joined
Rom
Tem
Exposure
evaluates
##rieb
cube
Fourth
SNA
vote
convection
7(
Gonz
theorems
vibrational
communicating
153
LY
Baker
##neg
biliary
Infection
autocorrelation
lakes
neglect
ANN
ORF
logarithm
Relationship
157
##agner
Heidelberg
hypergly
FFT
##26,
Deep
transplanted
##–24
##stranded
##1%)
Bak
ancient
##ORDS
##culture
chemically
chambers
##.5.
Walker
initiating
prerequ
Medium
ix
striatum
attempting
ganglia
##IONAL
##igms
complaints
Server
dimethyl
##retro
[19],
0.01,
pollutants
Lact
freeze
hn
156
##|,
##uncture
##ilized
immunological
endow
AFM
Sports
JW
strugg
rinsed
##2000
consequent
forecasts
RNase
Fle
plex
predictable
genu
1989.
colonic
##KY
Cys
File
Radiation
simplex
##uren
uniqueness
##osc
##ipot
##db
oligonucleotide
##°,
AO
Acqu
##.......
Channel
hyperplasia
##Smith
Swiss
Recommend
identifier
Gab
Pic
##accept
stepwise
fertilization
Fluor
comorbidities
##amed
##anne
Loc
##Des
8.1
reper
##otemporal
[19,
spur
##AGA
##nsic
Indones
##illips
Espec
##iva
automaton
senescence
##LM
##opos
Range
poison
renewable
downregulated
hams
##titions
delivering
Von
##iour
##mium
manipulated
##IPT
CFU
##aemia
specialists
KEY
deeply
invalid
##icle
##...............
radiographic
##+.
##,0
phones
shortening
aiming
duoden
quadrup
McD
DATA
indistinguish
##held
##buffered
discretization
##oxygenase
##[0,
eu
PMID
Validation
##fixed
Isolation
##acil
##lecule
(1989)
##IB
##earman
Invent
therein
##owitz
solids
tibial
(1.2
abdomen
bottleneck
homot
##awi
Eb
##oves
pale
lM
##-33
cleaved
bzw
radii
##workers
NHS
neighbourhood
foraging
imperfect
autologous
##ocardial
substituting
Stem
chaper
##.............
0.96
##ushing
##dist
##ANN
##wang
wafer
##distance
TJ
Pathol
accesses
uk
##ferroni
##:10.1038/
##burn
Component
Disorders
preclinical
ecc
##argo
##tige
##/15
##iferative
##kinase
trapping
##än
swarm
AAAA
careg
posed
gestures
relying
idiopathic
##inates
Empirical
arous
BK
MPa
##agation
peculi
neuropath
8.2
RESEARCH
Fat
ovary
cit
buffered
Yosh
##eri
suffices
##ika
##ackets
##1.9
##utures
4.3.
Failure
rotated
Medicare
##oux
Reports
##days
textual
##rat
Programme
EBV
CXCR
##null
calor
rose
piecewise
Lyn
(35)
Ub
802.11
159
originate
Transmission
##yptoph
submission
##–(
Prediction
Binding
joining
##glob
10.1038/
##eced
##wand
Market
extrap
##,1,
Morris
##ausea
glaucoma
experimentation
##oment
Jordan
synthesize
apex
depleted
carbonate
continuation
transloc
##ympt
algae
interne
monkey
chlorophyll
dic
##fusion
Grade
launc
packaging
##fan
instrumentation
whatever
ectopic
Order
orally
##UB
##orent
Carb
##mus
##Id
##31,
lasting
finance
CSP
SES
##front
supplemental
subgraph
##inis
pT
1:1
##entiality
Signaling
randomization
##aviolet
STUD
unobs
10.1109/
rid
ffir
##olf
Motor
modulator
##aacrjournals
shunt
##pal
##cessively
Typical
##lon
avec
##MSCs
Amin
10.1002/
Ä
admissible
’’
##Wil
Infectious
CCA
MCP
converters
tons
analytically
TBI
Letters
##Hu
tagged
crosses
fossil
∞.
archae
connective
##ritory
Mouse
Survival
Verm
enormous
differentiating
##BMI
##lyl
Ple
##shore
0.94
loan
pyramidal
genital
Cha
##sd
##agl
REVIEW
mononuclear
##alone
Ward
stereo
spaced
##iza
##UTION
##ako
55.
##usters
##–100
Species
Observe
##/10.1371/
Phone
curved
sight
16:
Rio
Electric
posture
acetonitrile
1986).
anter
stops
cough
grounds
privile
lasers
interoper
genotyping
##4%
##tiles
sized
##even
Rayleigh
soll
##letion
Wilcox
##Rep
á
Burn
cart
Discovery
##yama
##note
minima
(13).
strands
Radiology
[35]
periodontal
##ethanol
##.45
0.78
maxima
mn
##ès
tablets
presumed
establishes
[36].
tuples
186
attraction
Virginia
Name
##online
##enching
Kap
visceral
##individual
Fra
158
portable
nonlinearity
Had
[[
ingestion
FH
epitopes
politics
##opsy
(∼
topography
##115
polypeptide
disaster
##parallel
Fur
1,2,
steering
abandon
researches
##gated
engaging
satur
Alcohol
builds
Certain
sporadic
Detailed
49,
RAN
##/4.
dangerous
abnormality
##erd
abrupt
Interfaces
##-39
calculates
Czech
discern
happened
##zk
##Ta
##2);
Leu
Bere
Few
##/14
fn
##apine
##atonin
##AX
Thermal
mobilization
NASA
locom
2012),
stabilizing
##123
##3.8
Combined
hypothesize
##oluble
Death
encoder
degenerate
Proposed
cardinality
Robinson
overwhel
##···
Synd
4.9
ABA
beste
distribute
audi
##obility
##ajournals
1995)
cranial
##xia
essence
301
caffe
guard
##If
154
tilt
microtubule
(1994).
##bon
tracked
bilayer
##obacht
Thailand
##ropathy
##upervised
xy
interfacial
166
PSO
##litaxel
(5.1
0.001),
Ng
contention
neuropathy
Pass
musical
province
177
Levels
titers
helical
fidelity
pacient
5.7
1999),
##onectin
endors
1988
##,.
ä
##etes
married
PID
intercept
ophthal
estud
tidal
pipe
##iscons
Fermi
chap
legitimate
WR
porcine
Spl
clonal
DQ
beet
(|
WE
Campbell
exhaustive
##?,
dotted
##erentiation
##-4,
Tu
Especially
excised
##ukey
Mapping
##information
Reviews
inefficient
Bill
Below
ineffective
##32,
##AE
rectif
##Applied
preserves
cerebellum
##oxylic
##adesh
##Scheme
##ivan
Tuber
progenitors
drastically
dm
##ashes
[20],
clay
##ecker
0.60
rewrite
KH
##rogens
phenolic
##anck
hydroxy
concave
unbiased
##mix
Ethical
Independent
##ün
##cant
apt
microc
##oxylin
NADPH
duplex
##terminus
##wk
rotations
Mend
klin
##GTA
##lique
##izability
Novel
singlet
275
Ik
Resid
##ril
û
##olia
ethylene
##approximately
##ERK
DK
neutrino
##star
##minute
voxels
eds
omit
Flex
tea
flowers
ua
listening
##tech
resonances
highlighting
Pay
##miss
NaOH
incon
rendered
Tyr
##ardo
viscous
##lle
geodes
VH
Scenari
Subs
##handlung
##bere
##othe
iodine
REM
##ostat
axioms
Award
calling
Cut
##inct
219
Watson
##conver
##CRP
Tam
Hes
##merce
erythem
##enging
##AIDS
taxes
##128
##asic
##sheet
shortly
manipulate
outs
##007
monomers
##:17
##welling
##isconsin
Nutr
Alexander
ejection
##rement
inpatient
blow
##133
0.37
splen
invited
Scholar
iteratively
##ipital
BDNF
Rs
anderen
bioavailability
##ektion
CAL
##rectomy
Eye
##afil
CHAP
##CAD
##phones
(70
##umps
Morgan
immersion
Expert
gating
anonym
taught
##1}
degrade
и
inlet
##28,
subcl
Prevalence
acyl
nut
dermat
physic
greenhouse
1983;
(14).
##terious
##PEG
decid
converting
borrow
##ahajournals
8.3
Cav
grading
Occup
Therapeu
##OW
Dept
paradigms
tens
Biochemical
broth
DSP
##halb
##dor
Cardiology
Starting
warning
Old
Mir
WITH
contractions
arte
Along
gast
gering
##uto
##ista
undergoes
Individuals
silic
discriminant
##iso
(7),
PRI
##inance
%.
crossed
distorted
##aid
∞,
maneu
BRA
Argent
##Type
−3
notations
##ultures
heterozyg
alters
##:16
associates
Thr
Manual
scarce
retrospectively
chemot
EI
167
haemat
deposit
##IVES
##cers
##MN
Skin
interconnected
attach
##esophageal
PSI
Kat
hits
disappeared
##-1),
repr
##ferred
seismic
##service
relie
emphasizes
##izz
Fluorescence
Ober
##etzt
##omegal
Manager
spermat
sequel
ingredients
Surprisingly
resembles
supplements
##fp
Declar
##1);
##2.9
IBD
##-2)
##throughput
Blo
approaching
rhiz
##2%)
##arms
Cust
suboptimal
qPCR
motors
Position
Reaction
kon
##romega
Intelligent
##acetate
conformal
##pressure
Glas
dere
Wit
##ompatible
redshift
##URES
##name
dish
##ometrics
##PAR
Whole
melt
seriously
manifestation
##''
##Ra
Hur
dissected
fan
##0001
bee
##othing
appoint
nk
2.5.
{{
##gate
uma
evenly
HK
gelatin
quer
##ilia
concurrently
tips
Moun
iP
##leading
AAA
##pit
##herche
couplings
##unn
##tilis
í
##omod
##6.7
rises
##uran
blinded
guiding
##exposed
Berkeley
impacted
Pharmacology
cro
cytoskeleton
##made
pall
Chand
Sevent
SIN
phosphatidyl
##ucht
deciding
exchanges
WB
##stoff
Polymer
Blackwell
Ð
Matlab
##-6-
##except
TRE
relied
migrate
opens
##nr
##useum
fecal
1.25
photographs
barg
placental
##liter
GJ
vanishes
hepatocellular
augmentation
Schr
##find
symmetrical
##MPs
##antle
Robust
##-38
##attering
influential
begun
glycogen
abundances
##-199
IgA
vomiting
RPMI
lysed
Medica
digiti
##RV
ton
##ategories
##(9)
##Wang
invariants
suppresses
##irubin
##ïve
JB
estimations
##tees
##Pb
##itching
comparatively
##ansen
Jon
Xia
##center
##othelial
##placement
(23
Maryland
##cyc
kr
##Mat
##atisfaction
Pil
subsystems
Lund
rodent
##nutrition
anatomic
##letin
Centers
##oarthritis
##Sl
Turk
##ATPase
0.85
coffee
↓
Kang
bacterium
##lev
##itum
##region
halo
RAD
porosity
cogn
NIR
discount
[20,
rearrangement
Biot
##ressing
maximization
205
Analog
##users
Beyond
exerted
##PET
Euro
swimming
causality
Opp
(4.2
anesthetized
photosynthetic
screens
##pretation
associative
constituted
##omethyl
(36)
##phan
ICC
[37].
##lee
##micro
Multim
Pitts
##ORY
SST
Barc
Screening
ramp
##otional
skilled
51,
tolu
san
Seoul
humid
layered
bj
##CAP
stone
rewards
->
Eric
##–23
##illy
CSI
corrosion
##mos
##iation
PPI
neonates
##tc
vertically
ted
latitude
erad
##osarcoma
climatic
##ierte
##National
##odend
palliative
##arean
0/
##|.
##ronectin
pj
Eco
##etter
websites
##MG
##ctomy
##erung
##umi
##optic
##course
Rodrig
169
##aussian
Marine
transmissions
Ans
ureth
protects
##books
births
##miR
(2.3
##intensity
follicles
##esh
nin
authorized
##dn
##ymmetry
propagate
dopaminergic
Rah
##trig
##osacchar
peroxidation
25-
Iowa
Lap
1√
Bonferroni
Status
extrinsic
15:
tradeoff
##ej
##ifold
disposition
ه
pedestr
deleterious
##29,
Inclusion
##)],
##look
OX
Others
Rand
roads
##series
##endo
100,000
survived
bursts
POL
##plas
##ucci
Rb
1950
##serum
Cases
Numerous
Nich
microsp
annually
1998),
##asible
Mini
##12)
warf
papill
##3.7
Miy
alert
Until
Durch
Bed
Shah
Wisconsin
browser
##berry
##within
[36]
Sleep
monotone
gamb
340
cytosol
subcellular
##GMP
histologic
##ysiol
Leon
calf
thrombin
0.67
##will
Investigation
##117
Alter
propositions
Heat
##photon
Doug
discom
–1
ruled
##oR
##optera
__
##ximab
bold
Compe
##éd
##MF
Adoles
arginine
Bat
Limitations
tiv
functionalities
##formin
3⁄4
##rik
XXX
bs
Stability
arousal
Subsequent
GAPDH
Sampling
Peer
(15).
SAP
##bands
KP
184
ALS
fra
Operations
dishes
750
8(
dk
##ovement
Lib
##loading
##CTC
Pad
1987
errone
terminus
proteases
##.44
housed
television
##ARS
##asaki
micron
Evolutionary
##AGT
SUMM
##warz
##geben
lupus
##onyl
fiscal
proteasome
homepage
mW
Ven
##oil
##KF
Angi
##Xn
##thermal
immigrants
(7.
urgent
##annels
Developmental
gathering
publis
hybrids
Educational
##Ks
outdoor
parametri
##amel
##tist
##artan
##alanine
increments
##isse
shut
##problem
##Pe
Crypt
##management
unpredict
Zo
Cardiol
Jung
logs
reviewing
##CY
##dip
##yma
##iances
Location
##amid
##unctive
attentional
religion
##research
chair
categorization
##quet
Flu
assigns
Garcia
variational
Bj
routines
Bacterial
suitability
Nin
Hierarch
removes
##design
##tests
QT
ware
amine
disordered
landmarks
atherosclerotic
##bil
radiological
elaborate
undergraduate
Row
checkpoint
##osum
Forty
##trin
Renal
0.68
alive
##abd
kinematics
−(
rim
vertebrate
follicular
164
cada
##|)
##ded
##KT
##-32
inducible
PGE
pivotal
traps
Insulin
seeks
exchanged
Aj
Instrument
##CON
charts
village
preparing
##ipore
##cit
##Inter
pulp
45%
osmotic
wounds
HJ
##otyped
header
##Kr
medicines
##Hb
displacements
##graphy
##dot
reception
boards
deriving
furthermore
##entary
##yptophan
##tische
##requent
conformations
Sed
hardness
##triction
##18.
progeny
COS
undesirable
##uba
kill
Words
chloroform
##4.6
##kDa
##STAT
550
##icans
writes
Chile
minerals
##ekt
PLC
##PSK
sister
ASC
fingers
##bene
##)〉
Maz
gratefully
##gh
##uchs
bounding
(400
##VL
##gang
chitosan
##raisal
pione
synov
facet
##abi
##Vi
cardiomyopathy
##enges
##rabbit
##effectiveness
##agle
52,
verbs
(16).
ranks
ascorb
cathode
insensitive
##:9
Weiss
ventil
##Data
Climate
##acker
Reson
##ethe
Wel
##apolis
Ion
##omatous
##tumor
6.8
Neg
derm
Alternative
pharmacokinetic
recognised
dl
Fischer
pleural
flower
##otive
##SB
##zoa
tp
Higgs
testis
businesses
Shap
pyro
encrypted
lymphatic
MPI
##stre
##andez
6.6
winding
dn
(2.1)
distortions
##arynx
demographics
##–60
##olving
##acional
Ek
##orum
widths
Substituting
##fem
ipsilateral
heterod
erh
##uscitation
erythrocytes
dal
##otherapeutic
multimodal
##19.
concur
(37)
##127
alphabet
probed
Subst
##cip
Need
##formations
##techn
erfol
pancreatitis
##iga
Compound
Fan
Pediatr
##tm
favored
##ERM
Emergency
##transfected
Products
crystallization
sport
##HIV
ofthe
##ensable
##sr
tourism
⎣
##engue
##-05
##otoxin
Silva
meteor
respondent
isomer
Hub
Sab
##/13
##obac
fingerprint
hospitalized
dealt
##-45
##lys
NSA
cock
##My
Georgia
admissions
dispro
HG
##anched
##oriasis
Micros
##transformed
Klu
##∗.
anteced
##cause
##jbc
##uence
Issues
##unktion
##obre
resemble
surviving
commission
marital
overexpressed
##KD
##itron
Philipp
163
##zymes
Bad
Ut
certainty
discomfort
##Intern
ensured
depolarization
##ARC
thousand
eliminates
##Gi
disput
dysplasia
Lecture
##ACh
(1988)
spaw
1989,
cp
##arks
##iele
##tico
##millan
##romolecules
[−
Layer
2018,
multiplying
NOS
Silver
##oria
##entials
Possible
HY
axiom
##opropyl
spoken
mp
blo
##fn
[21],
qualified
##agger
##UCT
Entw
violations
sond
##ADS
##ajp
(3.3
Fair
##Seq
##agers
##sal
##sof
besch
conjugation
##Ha
inset
constructive
##anners
ridge
deficiencies
compressive
chemokine
Guang
##idia
COL
(∆
##adaptive
##Rel
##atten
nausea
Genomic
classifications
##000,
multin
1985).
60.
##ystems
Rheumat
CNT
[38].
emulsion
Hend
##pain
BO
##uppe
livestock
preferential
carcinogenesis
puzz
liability
MIP
mismat
midline
pM
##opaed
medicinal
##opulations
173
pointer
##-37
(=
##Xt
##:19
##IAL
##there
keyword
FITC
##ogeneic
##odialysis
lamp
admits
closing
dissertation
Acids
Bureau
election
classifying
ischa
formalin
Tian
dyes
standardization
##zeit
1985
vestib
##ión
FG
##strate
##omology
##zin
ses
Rein
CTL
##kenn
Cyc
##otransfer
##gramming
triplet
Traffic
Intu
arsenic
monoton
##006
Shin
finitely
Harm
Colorado
imperative
Seed
Update
##atrick
##VR
nanotubes
photosynthesis
##especially
(75
ScienceDirect
183
##idated
pherom
##beam
Kidney
##lane
amplify
##agan
Kind
##dependence
homogenized
1982;
0.64
honey
preferable
Guide
142
acquiring
configured
strips
##ULT
##coll
Peak
morphism
##consuming
##Comm
dilation
Scand
developer
##Lo
Features
canine
##ovir
##ollen
(1.1)
suffers
##hat
rech
##stry
##amy
Fri
Statement
sealed
surplus
heights
Temporal
##/2.
DIS
Amazon
##4.8
herpes
oocyte
KC
##anus
burning
Greece
stringent
eigenvectors
Laser
connects
##retroviral
Procedures
##IDs
179
Chung
##öm
##abl
Og
##IEEE
stoichi
propagated
Util
failing
##kann
fees
EJ
##structured
0.005
##heits
elemental
ille
HEPES
primitives
##true
##urane
Griff
reflective
gift
multif
##Ki
1].
##roplasty
assurance
lobes
friend
printing
##Cal
tj
##enteric
SBP
consolidation
##mias
catalog
ATPase
Tests
twelve
##azard
##Rec
STUDY
152
professor
catechol
##Roche
##oplasma
radiol
2014)
permutations
##Ru
mitigation
5.1.
##bred
##olinergic
eben
Sav
adolescence
wherein
Simulations
##.46
unsupervised
sexes
competent
##.43
##antib
contractile
tern
Vascular
Compute
neuroprot
District
insufficiency
ẋ
Load
oils
Inventory
##orial
##cgi
MEF
##-5-
teach
Macmillan
Manuf
##formaldehyde
county
##XS
##iesen
##esticular
Jane
##,5
(6,
##pathy
(8),
coils
##+1.
EMT
outbreaks
alleviate
Systematic
(#
PAH
##trained
entrepreneurs
11)
##NAc
##iento
##tizing
propagating
##jee
##orentz
pursue
##ropolitan
##otroph
.....
pesticides
55,
##TF
Ui
sevent
##ellation
adaptations
manipulations
##sagepub
intrigu
,1
enhancer
diaphr
##orov
Quantification
damages
sugars
Esp
nontrivial
Associate
antipsych
##015
admit
migraine
##BO
segreg
##aws
##statis
antioxidants
sexually
##chitz
##TOF
RK
caudal
Place
FU
##INS
##lem
##task
Sat
optimally
phospho
##rystalline
theor
##azep
corticosteroids
##inoc
##schem
grafting
Weber
assimilation
harder
absolutely
whi
mine
chief
Alk
Double
rooted
##oup
Adams
stably
##!,
tunneling
Principles
indigenous
##Sw
Pk
seeing
tolerant
borders
Dovepress
mann
protr
dislocation
Wien
(300
##ikation
##Mon
diagnose
##nar
Km
##lived
##sequence
predators
Tween
departure
##avy
tran
maximizes
##gramm
duality
##enf
##abstract
love
granule
(193
Astron
Length
Collec
remn
##(3,
##econds
denaturation
1994)
pmol
risky
siblings
actuators
Mis
batteries
modi
6),
CXCL
quartz
Tol
Noise
##odel
Rice
##Sal
##ovan
##htm
218
Auto
dile
predator
mail
Excell
hysteresis
Mars
##MAX
Accuracy
##2*
##Wall
2013),
chr
(17).
pretreated
COMM
diesen
Russell
mosaic
##ximation
##IES
kl
##Mic
Mode
##uten
inflow
##cellulose
owned
census
Devices
##inceton
HW
muss
nonparametric
simplification
menstr
granularity
PSD
##Chen
prison
##beck
1997),
prospectively
##/)
##),(
##hester
##prob
diesel
##check
##species
payload
##unde
6.7
street
Hispanic
expectancy
noninvasive
##LINE
57.
##ardless
bringing
unim
subtracted
##entry
##ostatin
perturbed
Portugal
insectic
Bd
proteolytic
Hypertension
##intech
decentralized
##otechnol
suspect
9%
emerges
diesem
virtue
hydrodynamic
Thesis
##MK
##natural
Teil
##muir
##shell
##ittel
##entistry
##erex
faulty
##/10.11
##ibrated
##foli
radiographs
Filter
Phillips
Tm
carbonyl
0.001,
jj
##Suppl
emergent
tc
GenBank
##2-1
exciting
Feng
wrist
(1993).
sensation
##0}
##ORS
routers
##")
Sud
##öl
Zi
gaining
centroid
Turner
##ARE
##oeh
invertebr
Roc
Researchers
7.6
alanine
placenta
##pliance
Lawrence
watershed
Hs
Wik
##mente
luminal
##cumin
##Hol
1988.
alignments
postpartum
intrusion
dexamethasone
UNIV
Chromat
addiction
adipocytes
##CGG
Viet
Tx
176
jitter
##istem
10.0
SUMMARY
##8.6
##icially
Candida
##/16
290
Ferr
##−,
##asion
0.74
bubbles
preceded
Ay
##stituted
trusted
(1987)
SPE
ao
##ivided
modulates
##,*
##Abb
##nier
##eight
##ationally
Pakistan
disulfide
¿
permissions
##STM
##Anal
##ENS
Wales
Reverse
ABSTRACT
Actually
##UTR
Lipp
##dark
allergy
fractal
enforce
territory
rp
##ambda
cars
revis
Rud
##injection
Property
##opathological
1–2
cavities
hered
##LY
##Av
##entity
Brand
##expressed
alternatively
quenching
##Mill
&#38;
##stellung
analgesia
Reliability
moduli
returning
director
sagittal
sigm
##teral
sky
extremity
##Corresponding
justification
##abei
##Int
ons
mountain
/0
TMS
1986
##HH
[37]
nose
agenda
##RES
Publisher
noun
hull
producer
##encer
[21,
warrant
##ós
buyer
##validation
Dirac
breastfeeding
##Akt
##PEND
##urea
[39].
##013
optics
ALT
ι
disrupt
disposal
##ifted
Schul
platinum
singularity
##iko
##aturing
IOP
foreground
##60.
Bez
##rying
AMPK
##romyces
bull
##govern
##relevant
vj
##inks
CaCl
##-.
Koh
Aging
##trate
displaced
Tukey
Slo
polygon
178
65%
##−)
Hot
##bury
##ivery
prompted
diagnostics
Recons
linker
##tischen
recognizes
imported
Trade
ASA
##nahme
##fungal
explores
##opp
xed
coalition
##aind
fetus
nickel
##ipschitz
postsynaptic
everyone
economically
horse
painful
silent
inductor
Solutions
monitors
starvation
occasions
inquiry
Dent
Neumann
##osphate
Arn
cancel
immersed
##media
flowering
Rol
catar
0.21
rooms
##training
Declaration
##educ
ASP
##ipro
##market
##epithelial
##John
-1.
##ifting
##acian
##Wi
acknowledg
330
Buch
##represented
##yrene
polyt
lasted
farming
resonator
fort
sketch
Density
retrans
db
##otti
Hin
grounded
##intechopen
##rystals
##wich
accretion
Discrete
##RG
Ecol
agreements
XRD
Transcription
##TD
0.39
pend
##tene
##.42
CHO
##ikawa
##iveness
intriguing
palm
didn
2–
Mitochondri
##emics
Peng
Smad
##terase
##heastern
Rhod
propri
Induction
Vas
##nesota
redis
##aron
baby
##TO
##3);
labelling
cyber
anaesthesia
Schwartz
##elo
Exercise
##inus
0.77
spores
##osex
##ır
##Eng
##ulas
dureh
##neu
⎧
VD
blade
lignin
PTH
cephal
##hetamine
##Conn
(26
fight
reinforced
xp
Bene
Wilcoxon
sees
Nonlinear
bidirectional
cong
Kos
timed
Herz
Chair
Drugs
Alber
können
tremend
Mechanisms
mandibular
SQL
−0.0
##grav
dwar
##oxford
##oxifen
Bir
##ubated
renormal
Pittsburgh
blur
##549
PAS
##razole
outstanding
##>>
hs
manifolds
(35
ald
Buck
##LES
Kom
grazing
##ophils
reef
##HY
probing
##tiz
10.3
enth
Lead
subj
manifested
EW
##.48
pedagog
##19)
##Ben
##INK
Costa
FEV
horn
Cai
Criteria
##.~
##ayashi
##abatic
glutamine
##rr
Foster
blots
ks
Und
##gran
registr
##uctose
##rus
Nd
Ξ
analogs
Late
(90
1988,
141
Hein
##dimension
superposition
postmenopausal
##filled
Vitamin
Bn
Bond
##specified
analysing
launched
##atsu
marginally
##resid
##figuration
expressive
51.
bridges
polymeric
Methyl
Anesthe
aster
FACS
##clusive
Ny
FOX
##Meier
##ayama
(194
investigator
18:
RBC
RDF
##onine
rubber
##/8
Comparisons
Patterns
Schl
##8.8
UAV
Cover
integrates
Minnesota
seh
##25.
putting
##jiang
PHY
##expl
2].
##hardt
losing
sentiment
##±0.0
personalized
##–200
##ultry
syringe
##uti
##aval
elution
President
Minimum
energetic
##male
(18).
finish
##likelihood
##mmol
##iosis
sensitization
##Em
anticoagul
##250
##6.6
##icted
##roleum
##ofacial
holder
<0.001
expir
+∞
##memory
particulate
Claim
reperto
##structure
pyruvate
beat
Avenue
##Cell
##tzmann
hydrogel
unre
##dev
##llen
Aim
2017).
Reduced
##intensive
contaminants
predation
Pren
horses
##yph
REC
##ophores
draws
##ICATIONS
##ymers
biodegrad
##overs
174
ACL
##xious
##ко
##Model
refere
capacitors
Deg
ange
##ografts
microtubules
discontinuous
##doped
##lysis
Bil
SSC
##opher
reforms
##änd
Bron
Sustain
##3-1
ENS
swallow
rectangle
208
Nucleic
subtracting
##ettes
smoot
Kaz
seminal
##weak
##bind
vin
assistant
##vy
##friendly
thiol
##EI
##achen
ourselves
##anson
##icardial
adapting
Modelling
FIR
inhabit
##select
##hypertensive
sitting
recursively
guinea
refine
storm
##2.2
fistula
##separ
multiplicative
##orphic
##fitting
toxins
##timore
PURP
##/17
ah
equator
Variation
##lete
Cov
(500
Neuroph
É
(2015).
esters
unlabeled
##half
##insky
Mining
Processes
##uloskeletal
##ymp
##BH
(38)
##Trans
##lammation
immunostaining
¥
Fn
Jensen
Thanks
##ovsk
saliva
destabil
,0
##iced
##.55
##ampsia
twofold
##ttes
Wagner
neurologic
[22],
diamond
dv
##ordant
##22.
optimisation
.)
ultraviolet
##DN
monocyte
exploits
vowel
Peters
Arbeit
opportunistic
tablet
summed
dilutions
autosomal
Pure
freshly
Lig
discs
Effective
lifes
Cartesian
saying
##adient
amide
Caucasian
##tax
Frag
##follow
##mology
Dual
0.002
Roche
##100,
##hoff
##onuclease
##ponential
inertial
Probability
frustr
responders
RGB
oscillatory
##.56
precipitated
infarct
parsing
cj
0.76
##olization
##publications
##oxfordjournals
Almost
##.47
kth
commodity
Particle
mediation
[22,
##expensive
##vastatin
estradiol
prostagland
##Del
Jean
##cluster
sharply
##ís
Antim
##TV
(28
microstructure
Ohio
colocal
mais
##opulmonary
54,
##ни
##states
Organic
Gordon
Û
unexpl
(.
##gels
oracle
(40)
##({
temporally
determinations
€
Bag
functor
##kan
SEL
Improved
isotopic
QU
##selected
behaves
pruning
pursuit
(0.2
Schneider
Lorentz
7.8
mold
Ô
hydration
ended
##endocrine
1.01
##omorphisms
sarcoma
loans
entails
##−/−
SEC
##ventions
##145
##30.
Histor
Bioinformatics
empower
##ductivity
announce
parameterized
##arn
##hire
1-2
##ecan
##CRIPT
##ipe
1)(
Hopkins
##ppers
##aliana
tutor
modulo
millions
##oct
Farm
financing
multicenter
##vated
##computer
imagine
encounters
¤
outlet
separable
##urus
doxorubicin
cardiomyocytes
##pects
logistics
##cultural
daughter
BMJ
%),
meshes
compensatory
uniformity
polyethylene
480
##othor
Intervention
Cron
EQ
bronchial
internally
0.55
etching
utilities
##FV
Way
##fection
password
revascular
##reased
[38]
sixth
##rp
Rao
hollow
##processor
encapsulated
Murray
cationic
##]+
##MAC
exceptional
MAS
##34,
##700
0.0000
eb
##ín
##-67
##SOD
coral
##nexin
constitutively
##OAc
##ductors
53,
##avoid
titanium
Forward
(9),
undi
facets
lenses
##hof
(19).
jedoch
stool
##los
UI
##gamma
patents
FK
Bin
##ococci
masking
##ionized
Extension
MCM
meg
rhod
##vert
stressors
Clustering
##atia
lysate
traveling
##ersham
HCT
Alexa
precipitate
##sup
Often
##charomyces
17:
Nerv
##reading
Kas
##ris
locomotion
Comprehen
9.1
##2}
##inetic
##5.6
BALB
Making
##esteem
polys
##SING
Annu
##avorable
subtilis
unrel
adenovirus
Syd
seawater
Schematic
12)
Trich
merit
1984).
caffeine
Bog
##ectom
Rats
##object
trabec
erst
##wig
PQ
##uker
##traumatic
##ktop
crani
liquidity
ASS
radioactivity
LLC
quatern
##upper
Cdc
CAN
Lipid
##Mac
##Dav
tall
physiologic
prerequisite
##124
collateral
Facebook
##/9
avian
reset
toluene
perfused
vasculature
GSK
fungus
flowing
Conservation
0.66
galact
discharges
##114
shRNA
2]
solute
unwanted
postoperatively
##3.9
Sob
SQ
Mitchell
acetylation
neoplastic
LJ
CHAPTER
##ophe
##idone
quies
##subject
ageing
telecommun
##gets
##nium
APPEND
##uta
Pas
PURPOSE
winning
aerial
bioactive
releases
inhalation
##romagnetic
##Reg
Mechanism
seam
puncture
Ug
##mega
palp
##elona
gm
##Ak
##cold
310
##isure
Finn
nanom
Collins
persisted
##oreal
ÿ
remind
Neuropsych
0.32
Koch
melatonin
Sox
worm
##1.3
##fahren
rivers
conductive
##=−
1996),
##significant
fundamentally
ulcers
translates
Past
brackets
Conventional
Interactive
##pared
fibrous
PCB
Member
oi
pertinent
characterizes
schw
##outheast
##gre
ancestral
collectively
(1986)
neoplasms
breed
causative
reserves
##ánd
Ris
##oblastic
Matthe
oxides
##genden
о
diversification
##stock
(0.00
covariate
Bis
LOS
np
##oE
##ativa
rocks
##usts
##artite
##ancement
effluent
##ça
internalization
##party
disabled
##SU
jk
luminance
middleware
##6.8
favourable
hypothalamic
yk
infinitely
JAMA
seal
femur
##bio
##brand
resorption
##(3),
tied
(39)
##hepatic
homogenous
INS
ApJ
##analyses
Ech
Obesity
competi
##ergent
anode
outgoing
subscales
##isations
disparities
##otopic
##8.9
loose
##oro
##arot
Hansen
manufactured
##aram
CASE
[40].
Murphy
##oters
interchange
amend
specially
einzel
Gupta
Twitter
##anos
Rose
##translational
inaccurate
Yuan
Kenya
advent
325
uplo
##Ke
##urnal
Pressure
Cm
latencies
monolayers
##opia
##icion
Stephen
creativity
##zol
corners
succession
VAR
##Note
##ÞÞ
##NAS
Hof
##ucher
Cook
##oconstr
bn
Being
exem
##wald
##heli
##135
truncation
uncontrolled
##dase
PAN
dutch
disturbed
confinement
##rock
##abeled
##State
etwa
Record
sondern
Wen
##ifluor
Liang
##Ct
Einstein
##unctiv
MIS
(2017)
##although
coronal
waist
##IPA
identically
##May
##signal
vertebrates
underlie
##odontic
Resistance
##around
##color
anger
##yahoo
Requirements
##uretic
occupy
Game
lamina
tells
exerts
circuitry
99%
##VCH
##bB
##irt
perioperative
Bild
Coulomb
##WH
##auss
investigates
##01).
CRF
Fit
##Ax
endocytosis
digits
##aterally
Multivariate
##–0.
hygiene
##ilical
entrance
##obacterial
rolling
maxillary
##anil
##quer
##.41
eat
accepting
5.9
##quilibrium
##arters
presently
Pul
Gibbs
##physical
calcification
Hyd
albicans
##fü
isofl
reside
algorithmic
##WC
##branes
fractionation
Stern
fishes
##ocaine
reconc
PIC
tumorigenesis
Session
chemokines
##126
declining
Motion
transiently
clarified
##(5):
##epid
JT
##util
##entre
##53,
##plet
pharm
##4.9
nil
harb
linkages
vibrations
##WI
Hash
specialization
biggest
iris
[23],
##)→
Physiological
Mutations
##luorescent
##rov
[14
##hig
Ln
##zhou
Dy
Hon
(0.4
1987.
##23.
nations
fle
Xiao
utterance
ko
##lla
(20).
animation
##119
analyzes
DEN
erup
Reduc
gateway
+=
##lymph
responds
Evol
comorbidity
inclusions
[1–
##wert
##matic
coatings
##ovich
BLAST
Spearman
impul
##rospinal
##dz
Ae
NIC
devised
##icates
traced
enlargement
thaliana
##intr
foster
Demographic
##Sub
##urk
inactivated
DEV
piezoelectric
##olla
pacing
##Cd
lands
analgesic
Streng
strengthening
##iax
##ción
nig
myeloma
PDGF
Embry
benzene
denominator
##Gly
##comb
Rome
peric
doubling
Bit
prosthesis
Ii
MRSA
acclim
epidermis
combat
##subs
stays
##<0.05).
##IFN
Mixed
Contact
##VEGF
1981;
##Gy
60-
eligibility
Concerning
Percentage
##TiO
herbiv
sj
Polar
chances
##keeping
ctober
pertaining
TU
##Arg
MDS
##reference
***
UDP
phonological
shaft
violated
beds
##Qiagen
##adrenergic
transferring
##.1%)
##-43
##odied
Apop
##ipedia
Cel
##mmas
##birth
allocate
retardation
##ouri
SOA
##atite
##bmj
##eptic
##enzyme
Nu
Handbook
photonic
PY
##pow
PTEN
debug
(1992).
##imento
depended
##auth
##014
macular
decides
cancellation
##uen
Edwards
XP
DPP
dichotom
ek
151
##mk
Lac
stro
initialized
##ienna
dimensionless
##engers
Danish
Experience
##:18
59.
##SIM
hypothalamus
0.88
Efficient
ere
synapse
Benn
invoked
Query
streptomycin
PED
lis
adopts
normality
Phe
dysp
laid
cheap
competitors
Modified
LDA
##comings
Ll
mantle
##social
Concept
##squares
adiponectin
##either
suppressing
##Hi
##8.7
xxx
Ê
ban
##ocused
Pulmonary
homomorphism
##esch
Brownian
298
##products
illnesses
jth
arres
reacted
aneurysms
##genesis
##ogaster
carbohydrates
novelty
##úde
premise
liquids
Which
titration
Medicaid
Pav
Pharmacy
NOD
crown
##cus
##butyl
)−
ans
##weis
Strategies
fishing
multipath
vegetable
##то
##sizing
Anten
Finite
Wide
Müller
##occup
wo
365
11).
255
anyone
Langmuir
quantifying
juice
##/10.1021/
9.2
Sig
Sri
Device
##Sk
##Lab
violent
##Pad
currency
##oping
##11)
VF
phytoplankton
Jose
##etrics
##maximum
outward
##direction
bolus
dermal
##Cam
metac
partnership
(7,
testicular
(95
Papers
necrotic
##ayan
Mortality
oven
seemingly
##UK
##5.8
DEM
52.
boy
##insulin
##oub
##LF
##ophilia
##415
##teilung
Teaching
##2/2
chapters
stigma
ortholog
superimposed
Nish
##otherap
Blu
stirring
##fre
##His
LDH
(10),
##CAN
##Grant
Horn
Mack
[23,
[39]
Colon
##stalk
##ppe
CCS
swing
Weinheim
##=(
(27
organize
falcip
holistic
multilevel
bargaining
##ostomy
##21)
##LDL
Chu
##since
aliquots
##hart
shrinkage
LTE
draf
##plicates
##lipidemia
kJ
caching
##activating
##-0.
arrived
##7.8
##rout
NAC
##md
##jud
##qual
UE
cages
##'(
TCA
crash
Simultaneous
dollars
##atine
Functions
antifungal
PROP
tris
picked
##35,
380
##ACG
AMD
Sydney
##Of
##SVM
##ondyl
##lusive
APPENDIX
##aciones
CFT
Nom
lang
uterus
worden
Olig
bary
Hughes
cholinergic
linearized
##122
##Non
Gb
Routing
myocytes
##WHO
jour
valves
Difference
QCD
##ahashi
settlement
##ielsen
earthquake
settle
ATCC
practitioner
hypo
##Group
Rp
##utung
##bn
poster
prescribing
650
monoc
primates
##sus
##uded
splenic
##33,
##pergillus
arom
Respiratory
Submit
weaknesses
chord
1],
0.05),
DCT
sphe
certificate
triglycerides
Cry
##cia
doped
##aha
comfortable
##akter
##cis
##thromb
elbow
Ck
org
everywhere
315
tile
transpos
##itably
##KM
##metal
biore
islet
Rig
endoscopy
teen
QC
Lane
Trials
haemorrh
##yon
##abelle
anno
##math
##/20
immunized
OBJECTIVES
##Vis
DAPI
Delta
##affinity
##QC
##antes
##=5
##ongevity
dj
##FAs
##have
tackle
##oxidation
##relative
optional
dimers
##uchy
THF
Tun
Political
##uminal
##admin
foam
Abd
(3.1)
misclass
runoff
restricting
##.54
##thel
MDR
SMC
Element
inexpensive
sacrificed
GU
##poor
##amins
rhin
##neutral
weighing
∂2
##Thermo
##10].
##amiliar
falciparum
Interactions
mari
bees
##ichlet
arteri
presynaptic
Michel
Bulletin
Argentina
resolving
escal
OO
##osely
transcriptome
tails
ChIP
##potent
educated
containers
Mari
Consortium
Rf
ganz
Kv
##olite
acetylcholine
##/4.0/
Iron
septic
##XL
Luo
##14].
TOP
flask
##vinyl
Datas
catast
binomial
covalent
News
multivariable
famous
56,
##forth
resistivity
launch
##mortem
##13].
##yel
##cortical
expansions
##ticing
##WP
##ipt
##arker
Initiative
teles
##variable
CAB
dp
hur
catalysis
IoT
##osensory
citations
##atized
FISH
ih
loud
pumping
Sti
##FO
##10]
thy
gleich
beneath
Winter
##tj
##1-2
##ERG
vn
##ERAT
Registry
##dat
PMS
rigidity
##CTA
formaldehyde
##5.7
##tel
##ovolta
Recovery
##2))
##host
[41].
msec
patterning
UM
Basel
spurious
##0|
##1_
Jew
##xs
Iter
##ifera
##/+
Lack
##KH
5.2.
Rogers
scalp
Maxwell
##otonic
receptive
##*(
##ORE
Tf
Speed
dodec
Behaviour
##ropic
neighborhoods
PWM
hallmark
opposing
vanishing
Xie
##inous
follicle
recursion
parenchyma
##129
##each
##Jun
converts
##SPR
##umed
MIN
locomotor
##henden
phylogeny
##[1]
Cham
##luidic
allelic
compelling
translations
Adam
Maternal
inserting
##Myc
##uther
##national
ward
detachment
Suzuki
uncorrelated
##ück
Alb
Kob
iodide
corollary
##nick
triglyceride
##ospheric
Responses
unfolding
(1/
80,
Maria
##viation
##Jones
incont
answering
Namely
Sometimes
##USA
##asses
underestimated
backsc
beiden
100.
scholar
##versy
outage
psoriasis
##eca
##<0.05)
11%
Improvement
unpredictable
folded
##pnas
besonders
##overl
tubules
vanish
222
##imi
##usually
0.1,
confron
Spect
Respond
paclitaxel
−4
thro
rearrangements
Erl
stacking
campaigns
worlds
rf
pace
Cycle
Glucose
0}
##yna
##hrung
##clip
##arrays
235
electrocardi
flooding
Gard
Hawai
genuine
DY
concordance
1,0
Universidad
alloys
##guyen
tl
movie
##Promega
(21).
Laplace
pdf
tunable
telomere
Endocrinol
##closed
##ignant
unavailable
##dT
1987,
##gkin
-20
Exec
discriminative
RCC
fic
predetermined
KI
##ocomp
(2.2)
##peptide
##threat
fixing
condens
##!!
70.
##upt
(1985)
pluripot
##-48
##.49
##transi
islets
deflection
##MIC
Nt
Tools
##Sa
##ea
heard
sparsity
##ecn
Madison
quadrature
##iors
Henry
shelf
Electroph
##118
Mamm
##integration
##155
##hev
conson
Shannon
##assess
intubation
decor
Indonesia
tactile
(0.01
micelles
Í
Accessed
0.93
13%
antiretroviral
subscale
welche
unstructured
chemo
Spin
crest
##atik
(8,
##lj
sarc
abst
elective
occasional
Kw
Raw
FDI
Diag
microvascular
↑
Bam
shortcomings
##yme
##EMBER
(10,
prophylactic
conjugates
##than
Forsch
Kluwer
Voltage
14%
Britain
##imide
##Tables
ALG
Fel
Civil
Ontology
intraperitoneal
RSV
persu
##ichtig
##(+)
##eit
(33
ã
konnte
dendrites
##istar
Lagrange
##CAC
##sians
##omi
Fifty
husband
##–34
CAC
Grand
cryp
Calcium
hydrochloride
##ANS
[0.
stainless
207
Reading
DSS
##〉.
##ETs
caroten
utterances
##−1),
Nar
Android
Intuitively
resolutions
appeal
houses
pacientes
##rocess
##FH
##convex
[24],
##-3′
ok
Alpha
appreciate
cd
ر
##limiting
disappearance
External
1980;
##inities
ceramic
##Lee
Affairs
##–33
##ennes
contiguous
##nitro
puts
trout
##omposition
16%
##turn
differentiable
Stevens
credibility
##acious
cones
##soluble
Õ
therapist
contradictory
microsatellite
##omyel
##sampling
descend
UA
##enclature
Cooperative
catalase
##science
trimester
methylated
dehydration
##ONE
Gut
Branch
SME
conductor
unbounded
refrig
reconstructions
speedup
ن
Austin
fragmented
1.1.
##akh
0,0
##ozyme
evac
quadrant
Kun
divisions
##otransferase
##ampling
##oxo
WD
##IK
Barcelona
##ECs
dire
##ре
##inez
TSP
twins
forb
Egypt
histamine
##pecies
17%
##toc
##infl
204
extrac
Sources
##Cy
##atable
Ether
wal
QD
Glut
contacted
Fixed
externally
amplic
afferent
Dh
[24,
aids
antidepressant
##NV
SPECT
##oxidase
ISP
Tat
stroma
elongated
##mog
3–
##15].
),(
segmental
55%
disproportion
caries
##chro
##uned
##ocyst
skewed
programmer
coat
torus
Baltimore
Existing
sedimentation
##die
##acqu
cin
semic
abstracts
disclosed
##targeted
##ritin
HTML
##hybrid
##iesis
##adec
Edin
ascribed
endoplasmic
-6
##continuous
Principal
##/,
cleared
##short
##ermost
coales
##phosphory
Campus
optimizations
Vienna
53.
Therapie
superiority
knew
##11].
Cyp
incidents
##pps
CRT
##lash
##inst
##links
frog
##MY
Storage
Mycobacterium
qRT
mitosis
##onditional
Regardless
monotherapy
Kelly
mechanically
##pool
engineer
Developing
Diet
Types
pret
##aggreg
Direc
betr
ects
Jahre
derives
tones
scavenging
za
---
ideally
sedation
sensitivities
1-1
##imental
eigh
wine
##197
WP
allogeneic
##170
Ott
##global
beings
##final
##lectic
##cens
Pref
Module
credited
multiply
polyacrylamide
##pent
##cover
honest
##-80
WSN
sial
Nutri
slab
Enhanced
##-04
Extended
##ipheral
afforded
##production
Untersuchungen
Wald
##isehen
happy
criticism
##rk
Recomb
KK
desorption
##aires
Compos
Vill
KGa
RAP
##38,
yp
commutative
outlier
Laplacian
lacked
HepG
##ysaccharides
Spectral
parentheses
OV
mS
Dim
bridging
Bangl
denen
jumps
transcriptase
seller
Scenario
##(∆
Johns
##204
Bang
Quad
RELATED
newer
sorption
##peer
Cold
##.58
retaining
PIP
Haem
##Comput
1995),
Stewart
perinatal
##rof
])
##24.
##SAS
zwei
democracy
##tractor
deliber
##arel
Rating
Nations
##50.
##incial
##2+-
20:
##afts
math
inward
releasing
deformations
##profit
metalloprotein
("
##itian
Muscle
KGaA
iNOS
209
Book
parabolic
intersections
##Stud
##iability
bra
unpaired
nephropathy
PFC
endos
1983).
JG
##labelled
lifting
Supplement
tagging
Ergebnisse
1986.
##inces
acknowledges
##RK
outlines
##Ho
##113
MOSFET
fibronectin
Whit
##ipine
##ceiver
##Health
Lipschitz
##enson
aversion
parenting
(·
Identifier
##azi
4;
confidentiality
##ennis
##say
##-44
##uka
folds
##ño
6.9
gingival
##had
appreciated
##osures
broadening
AIP
Structures
immobilization
##CAR
deadline
Aden
cleft
##eclampsia
##Mark
18%
pathologies
##opez
CNN
Epit
satellites
##SiO
##jet
gamet
Andre
ancestor
Automation
##2[
carc
appli
##interest
Computers
##jm
##attle
dialog
permittivity
##Cas
##measures
Carls
flanking
nitrite
AKT
##loro
été
##igible
##factors
Constant
cef
Î
assemblies
162
tetrac
Ç
gear
##xl
Ef
(0.8
trophic
Efficiency
##él
Atl
##corrected
Aspergillus
##ofil
lth
zeigt
Anim
beats
##QI
erroneous
immunotherapy
420
artis
inevitable
11-
Daw
Gauss
##hä
##(11
##afen
##istine
##gut
##ochim
ate
##.57
Genomics
##ROS
unt
septum
FCS
##carbons
reconstit
##ISA
Kop
10.1021/
##antibodies
Collaborative
##ratio
Neur
(22).
parasit
Imm
Uncertain
PKA
##rian
##yman
adi
hub
Hab
##−4
tune
prednis
[42].
##imple
##enting
visiting
terminate
kits
sweep
Princeton
##otation
discontinued
33%
PFS
SMA
tracts
##Ol
##ucleotide
##Rob
osteoarthritis
##XY
##bourne
Gd
Tib
subpopulations
##aza
inclusive
arriving
ihrer
worsening
ultrasonography
Greek
organisational
161
chimeric
Dul
##rh
##ipolar
Release
64,
Kent
Ground
##Institute
oblique
##FGF
9.0
BrdU
##tructuring
repeating
proceedings
esophagus
Pc
278
decryp
Poin
Edition
ordinal
0.86
Neurob
Severe
(10.
##IFT
dilatation
ABI
ي
digestive
recessive
attendance
geodesic
relativistic
definitely
ANT
##amilies
[199
faecal
disagreement
370
##helix
2500
cuff
##acia
##zeich
Ethiop
NaH
capill
##Control
##FG
attainment
Poor
##4.1
busy
lifespan
singularities
##pet
shaking
Metabolic
transitive
mock
0.003
##because
controllable
##ATCC
##alez
Cao
##electric
##nderungen
unsuccessful
##ORD
anthropogenic
rb
##≥0
##regon
(11),
bipartite
Gren
overlapped
Precision
disclose
##12].
##icides
##orously
CEA
##Script
neuroc
Endocrinology
PMA
referenced
flame
ambulatory
bicarbonate
Estab
0–
goodness
discontinuation
##PN
##lek
KJ
undetectable
##odia
Surge
thirty
computerized
##Chem
##language
##147
##Comp
##quad
destroyed
technically
##008
cosine
insertions
Jacobian
##157
Justice
graphic
Selected
Philosoph
##azone
##Abs
vk
forget
divides
Multic
thickening
##.53
gad
officials
Pp
(37
gan
immunoblotting
##ansas
##tide
resuscitation
##fc
##CNT
##rien
203
embr
##ancers
##aris
Fluid
punishment
(1991).
Psychol
$2
##atism
RCTs
##trophic
##rinted
##strong
acted
renin
##div
bibli
yj
56.
denoting
shopping
Dirichlet
kary
radioactive
##7.6
Hos
metformin
AMI
Sensors
mur
Living
colloidal
stance
##lav
##absorption
corruption
neuromuscular
managerial
##unks
313
psycho
societal
##corresponding
##zn
##azo
1986,
notif
quenc
##comDownloaded
Bour
Jersey
NPC
Array
caregiver
fibrinogen
##rics
CPT
##ersch
rDNA
instructional
##essors
Vel
(41)
Wid
Amer
melanogaster
##iman
articular
abelian
##ALU
fuels
selling
Beta
cholec
RPE
##12-
##foot
PARP
expenses
##Aug
BU
numb
PDA
Observations
∆(
##ufig
Sund
terror
provisions
##etine
DEC
dilated
MZ
##intervention
##&)
kS
underm
##abis
Likert
Université
Allergy
folate
Crit
urg
##bildung
##radiation
ligase
shoots
ther
Solar
anticipate
Ding
##205
##potential
299
dorm
prototypes
##1[
(45
Abstr
Church
##-03
inconsistency
70,
Nine
newsp
##/7
deduc
evolves
posted
loadings
pharmacy
GLP
##190
##uchen
##omyces
##ticas
(2.4
Parent
dengue
FUT
Tanaka
leth
1993)
##/1.
correcting
OLS
##GAP
MCA
Vet
##tracking
Marshall
##+=
Pneum
Houston
contrasting
triangulation
Transition
Boltzmann
[25,
Conflicts
##otarget
lipase
NGC
eIF
ripple
confident
thymus
lattices
##.52
##ivable
10.1016/
12).
Sensing
##single
timest
septal
##abilized
perforation
illustrating
ŷ
interneurons
JAK
##.’
##illen
##/18
##ieee
##RIB
KT
ink
Yield
puber
titer
smoothness
##root
PBM
millis
Cant
Rules
cassette
erythrocyte
chromatographic
##lk
ants
Except
powered
##uals
won
stick
familiarity
certification
Webs
anions
VAS
Kyoto
Klinik
revenues
##modium
surely
##vit
##screen
maximized
##hende
jun
##inositol
Acet
insoluble
pA
206
constitutional
##165
##iency
Cyber
##nez
##tima
cing
organizing
##project
equivalents
##ferm
##inel
##ieren
affirm
tachycardia
##upuncture
##plot
2015)
ellipso
##sj
##16].
erw
phospholipid
Tar
weap
##who
##processed
##urium
disagree
##commercial
Epidemiol
campus
pumps
##Bt
¦
theta
longevity
RMSE
(1-
barley
##ifiable
##lympus
facilitation
subspaces
##limb
repertoire
##thy
TSH
##eptor
PTP
##istering
Biotechnol
phosphoryl
cryptographic
##LB
pheromone
ATG
Wilkins
Dor
Sequencing
hypotension
Cauchy
cadmium
##TROL
##!)
##asa
##borns
##Go
##sehe
Edinburgh
##igroup
##abolism
myelin
DTT
##IQR
##ditional
antigenic
##wavelength
fk
rapamycin
contributors
misc
Zeiss
rj
54.
decompose
Treat
Ali
Thom
smoothed
nanocompos
##uthan
Nort
BCR
neutralizing
workloads
originates
plasmin
officers
375
não
Ern
##lication
##iste
Qualitative
Actin
ú
##asters
##ait
##CX
##zh
fastest
##pack
inhaled
OECD
scrap
collector
assure
cataract
##utroph
0.025
##(1/
##awed
##36,
decon
0.44
LTP
##original
heading
Mutation
microbes
##obut
(21
Arm
##zahl
(23).
amenable
323
oxal
##oplasts
2014),
BioMed
MEAS
autoreg
comply
Alf
uro
##verbal
##athyroid
leucine
retrograde
##ecraft
##:10.100
##90.
##iehen
roof
##general
anesthetic
advancement
##opolysaccharide
sine
Graphics
hexagonal
schooling
##physiology
2–3
abiotic
bead
schon
##agia
Ariz
##respectively
oligodend
elevations
unin
##schein
counties
##ologischen
##APP
##-10,
3.5.
interconnection
##scan
##Kn
##home
flatten
monotonically
</
Burk
metaphor
ribosome
hydroxide
customized
##opoly
Secret
pooling
localize
##istol
##esting
dissoci
##developed
##teger
Assoc
Times
incurred
##ILL
##eni
##chool
warfarin
photos
##./
##oya
WF
Fire
Circuits
[0
kk
rods
##:;
Gle
oncogenic
thrombocyt
realizations
BAC
Army
##arez
##worm
##ÖÖ
##Gene
##quartile
##011
##oco
##amers
spans
Should
entitled
helper
##acad
##016
(1.3
proline
chickens
homotopy
##cholesterol
PAC
##herry
Lingu
##determined
19:
hereditary
progressed
##nett
CSC
##tries
coars
fertilizer
aggl
##event
reluct
##ilization
unfavorable
excitability
##Ob
Federation
##emaker
##centric
Befund
spermato
Streptococcus
##–32
Virol
Particularly
Objectives
peculiar
prevailing
(2-
0.89
Gir
QDs
Friedman
synovial
lots
interpol
methionine
controversy
acr
##edema
0.05;
bilirubin
##hexane
passi
reliance
pest
trains
##regnancy
convective
Mé
PCC
##Research
infertility
DNase
Reason
expose
polyphen
##146
XY
lysosomal
Valley
poultry
##demand
##oelectron
##trees
microv
succin
Ov
Alle
aesthetic
randomness
57,
unequal
condensed
symmetries
##1,...,
arrives
relays
##ва
1984
##1—
##FORM
Extre
Stokes
##unkt
legacy
##eterministic
##blood
($
analysts
##cg
motivate
##allic
Cow
trough
##−=
##rum
##achine
##0);
pursued
worms
##insically
stressful
keratinocytes
##Tech
outperform
insure
ñ
voters
##behavior
bereits
AMS
Lex
##liquid
passages
accessory
[25],
angina
orbitals
##ifuge
TECH
Retrieval
##-47
Descriptive
##SG
veri
DET
insulation
:1
##kx
intersect
(0.3
Submitted
DAG
imposing
queues
Defense
58,
##ATC
##purpose
arose
Towards
Front
##genome
##hus
refuge
doubled
Flo
Ellis
Khan
##Cp
Zw
talking
purchasing
Observation
alongside
incontinence
##rein
oncology
Xenopus
regress
##metry
FTIR
basement
surg
335
5′
Dow
##tedly
rear
Stone
Zellen
PCs
pes
Basin
unsatisf
*,
Oz
##(1+
##ijn
publishing
##facts
methan
Gest
shortened
##nitt
1,2
Members
##myc
extrapolation
FEM
umbilical
##ramb
Sad
Coast
##138
##hous
peroxis
Annals
##PLA
##gorithm
directory
imposes
continental
Mot
catalyzed
glucocorticoid
##odd
Suppl
##aryl
vasodil
##therapy
pupil
##floxacin
##tolerant
(0.6
workforce
POP
##geries
##Univers
selbst
tremendous
Syndrome
Root
##erator
reservation
leisure
questioned
##tan
##ITION
##olipid
##ISS
[60
##oplasm
[43].
Complexity
##-70
(42)
naming
##clock
uncons
vestibular
analytes
##alen
Gulf
171
Jahren
0.87
hots
backup
daytime
##tick
0.84
Vehicle
listeners
##ön
##009
##tainment
Rehabilitation
##adish
Graham
Ran
0.2%
Kd
SLC
MEMS
livers
Diagnostics
reachable
##6.1
Jenn
exports
thalamus
##tet
paediatric
motivations
superfamily
##achn
Coh
FSH
ternary
―
##tol
beef
Fellowship
7.7
(12),
additions
Comprehensive
##eks
##anguages
detox
##?)
Cra
sket
##LEMENT
##EGFP
fest
##theoretic
Selective
##195
Fault
Physicians
hyperglycemia
Representation
ISI
thromboemb
Saudi
accepts
##ри
##graphic
POS
mate
parsim
Composition
##Green
fathers
possessed
##chel
Daten
ØØ
##opause
##SPSS
##econ
sonic
##oga
MMSE
##=0,
retinopathy
##opaedic
tolerate
(34
sanc
Acous
Agilent
10.5
indisp
tweets
##regulate
Suc
##wegian
##found
##olium
intend
ignoring
(*
##linearity
##axia
Select
Cord
Generalized
AUTH
pragmatic
##17].
##araj
##Pol
9.3
##acces
friendly
##controller
KE
##osi
Div
Meth
zeig
imprec
Platform
Behandlung
##ández
fj
##observer
##ны
224
Gesch
(1984)
##,6
##rooms
Minim
graphite
discontinuity
tryptophan
Membrane
##–80
pension
adhere
wishes
Madrid
stents
Vin
isomers
hernia
cantile
vaccinated
Delay
subdivided
1):
eleg
bol
respects
##-02
##pixel
##SK
Nb
Crohn
discretion
Hat
##seven
##gf
##ль
IK
vertebra
Nguyen
pervasive
Hamm
paste
##(6):
##handed
Pages
unaccept
Adding
steadily
##wen
neighbouring
##adeh
##uskal
aryl
flour
mitogen
butter
identifiable
normalize
345
transmits
##study
entrepreneur
airways
##ophosphate
motivational
##144
##202
bivariate
##anded
scripts
nonempty
periodicity
eh
##Rev
##ulted
[41]
occipital
unreliable
TLC
##-90
##nj
GFR
Measuring
Contrary
##FB
##HPLC
adjoint
Transformation
Column
##azz
##uar
##Gib
##abling
##Xj
sarcom
SOL
Capital
##gm
QOL
Daily
##olas
solitary
##esser
##ortal
##7.7
LQ
##uzumab
wedge
Plants
PAM
tamoxifen
invertible
##Sol
COM
latit
adherent
##column
Bt
Fraction
##equivalent
suspicion
##anden
town
forensic
##jing
Horiz
Entwick
SIMULATION
##shown
##building
temporarily
##ped
appreciation
girl
conversations
sweet
mainstream
##те
##reb
Chir
##engineering
##ugen
ttp
profitability
Bry
Ded
appealing
д
Gate
##PCA
(29
photod
intakes
companion
arrhythmias
##50%
##join
finer
##titudes
footprint
3′
fm
oval
Acquisition
Near
245
thrombus
foundations
##ozo
maybe
Douglas
##omain
##tiven
asks
meningitis
brainstem
##ovis
##isser
(24).
reply
##ogy
):
1994),
Exchange
Viol
##rolimus
##inkel
Merck
##IJ
##,)
auxin
planner
##Supplemental
(9,
positional
##transcription
●●
fraud
Pm
bilinear
##26.00
##ISSN
embed
Fus
sobre
##stationary
aberrations
##seed
encompasses
##arginine
Oregon
villages
Victoria
overlo
lactation
Bangladesh
neuroimaging
Saccharomyces
1985,
centrality
senses
analyte
488
Quarter
sedentary
Ery
ersten
splits
##HN
Cab
##finite
##glycerol
##sight
Lock
##ismus
hypother
leng
65,
buyers
##respondence
##ontally
##apers
##Set
nj
##.59
tive
Tracking
separates
##olph
shedding
##lr
craw
bonded
##End
317
Sharma
Sb
GnRH
cowork
rounded
copolymer
accountability
##leb
inevitably
cens
therapists
lights
eventual
resected
komm
degenerative
##SY
##onde
υ
[26,
##cussion
thrust
##FN
bulb
##commerce
285
Mang
##oxyp
HRP
cosmological
##gaard
Personality
thresholding
##nine
75,
AIC
##dried
mathematically
##stroke
##ullivan
primord
LAN
INFORM
gang
##averaged
##ogas
##tubulin
Estimates
cooperate
hydrocarbons
##dens
BCG
##models
Incor
##***
##36/
Areas
buried
Purpose
Richardson
4/
Symp
##arians
Components
##timacy
episodic
psychosis
##odem
Sit
100.0
##Spec
Gamma
Wistar
##sung
RBF
summing
##yj
##heart
Bund
delib
delete
)}
(43)
experimenter
bc
##icus
-10
##éri
##RIT
##ffi
Enzyme
incur
germline
##threatening
69.
retirement
##gins
DEF
Hydrogen
##uis
ende
cerebrospinal
##–35
cigarettes
##aminase
depict
adversely
##lamyd
simplifies
##hk
##——
##ðxÞ
##merc
encapsulation
erm
##134
meals
planet
Chain
vegetative
##onica
Ryan
regenerative
menu
##acency
spreads
branched
Arizona
##uin
Mexican
##203
##erem
1982).
##oprotective
Fang
sigma
##oyd
Shaw
66.
Host
diurnal
##diss
traction
tent
##27.
##ulli
##occurrence
menstrual
##spin
meist
NADH
troub
REPORT
flavonoids
##vage
photocatal
##alan
14-
##ython
Anxiety
XI
Sul
Bren
convolutional
%).
90,
Arabic
Chl
bon
Algebra
Ideally
##12]
##flex
##opre
Jim
Frage
stating
HTTP
BCL
##inned
##148
cobal
‐
##QOL
(∂
##ichten
##SNR
dropping
concluding
©200
##ifferentiated
CPS
Pig
reus
forearm
Synchron
##acrine
##GGG
##oca
0.004
abbrevi
##ilden
Feld
##embered
landscapes
##imid
THz
metap
cleaned
tangential
##Pn
##93/
Crystal
striatal
GBM
intentional
biosynthetic
sig
Start
##estation
desktop
≠
LW
brush
kindly
##obacillus
executes
##-06
##his
Phylogenetic
foli
Vinc
##95%
##pattern
Chemicals
Xt
##Work
##issive
troph
Horm
verifying
##itigation
fluorescein
sale
##40.
##flat
Advis
nice
Davies
##ologische
allograft
Iso
##particles
investor
explosion
Universal
complexities
##heads
##search
##resistance
poisoning
##/).
172
Yao
Tropical
evaporated
mineralization
kerat
interruption
##easible
XL
bk
##ILITY
lookup
##fram
masked
##contrast
##diabetic
HUV
##ophosphamide
Informatics
Stochastic
speciation
##)|2
##urement
Numbers
##Scientific
intravenously
Becker
∗(
aspart
foi
Ring
infancy
9.4
DHA
Pax
Gew
##mentary
Universidade
overexpressing
##web
Neuron
arthroplasty
propositional
biologic
MAX
1985.
##RIC
Ds
##rele
Trauma
##rovascular
##206
spi
argon
##ivas
optically
)()(
Jen
prox
##agents
è
McM
Src
##relin
nocic
316
[44].
##tructed
##agh
14)
##reted
Town
hrs
intrap
Assistant
pril
chemil
Rk
slave
Dimension
crosstalk
##(4,
Zr
kappa
##digital
##gow
kan
##ichts
overlaps
lb
REG
0.48
##avidin
##rexate
enamel
Contract
surprise
##opress
Bou
letting
glycosylation
##2/3
##6):
##AUC
employer
##CCG
##elly
Tong
defence
appraisal
disseminated
##trim
Urs
##Fc
publisher
##rastructure
##leit
##scher
##orepine
Scal
##etent
##lactam
##vacizumab
##rev
suffix
##SMA
historically
transitional
Howard
vendors
##0+
Associated
##uder
##ativen
##DCs
Lars
bears
spill
##.51
##kary
rif
wes
postural
Private
≺
seques
##gia
1979;
democratic
phagocytosis
1992)
##direct
reconfiguration
approximating
##vj
peace
##Phys
Finding
##132
Cath
##,000
59,
IHC
Significance
##ulae
rés
cantly
advised
blockers
musculoskeletal
18-
(44)
mediast
competencies
=1
##utory
Fung
##5(
##”),
-0.00
##)∈
##injected
incompatible
vulnerabilities
0.31
curcumin
spacer
reinforce
PDMS
##domains
##Zhang
Mell
lub
True
breadth
accelerating
deren
##lage
Dose
jets
Scholars
Pret
##Sah
inserts
##lips
1-3
exterior
##iday
Peterson
deformed
interrupted
tf
Greg
##uscripts
anastomosis
##June
Crow
misleading
Fores
##lectomy
visitors
##immer
##endar
##described
pressing
sputum
editorial
migrating
distinguishes
Prism
believes
vasoconstr
Burg
silk
multipliers
##018
##anco
Carr
MPEG
obey
##2)(
##onormal
,2
Bew
##EMS
##lac
0]
Dex
provinces
##Tx
Schwarz
##eland
deoxy
Disclosure
Plasmodium
##ONS
oft
fals
Facility
##thi
nr
##entrations
exponents
(25).
handles
effectors
substan
deaf
babies
gs
[15
Perc
allergen
##olk
explants
mesenteric
##-1).
##inia
epochs
Norwegian
papillary
##oba
LBP
pill
##ocortical
epileptic
##inducible
straw
nodule
scrutin
proactive
##MRT
##obia
13)
##taking
phospholipids
##UNEL
##agawa
JK
PZ
Fresh
Hn
##umped
likewise
##pu
##emer
watch
##delay
deno
##-1/
Oil
versatile
[40]
punct
21:
223
accord
##axy
Thi
Metal
##60,
SOM
##lectivity
biofilms
##′1
0.58
transients
employers
semantically
##ylon
##panze
##oglycan
CONTROL
Dj
flavor
##oubtedly
##012
##–28
(45)
##ucks
##ordering
grammatical
##motor
elaborated
Job
Collectively
RQ
80.
algal
blend
paternal
usable
educators
excitations
##comple
##Tri
##alsy
inclination
proliferating
capillaries
##orepinephrine
Υ
##53-
##oxane
Geneva
dieses
FJ
##concept
##roscope
##ovoltaic
Orthop
Toxicol
0.92
(2.3)
10000
##kind
Sound
##olly
##BSA
[42]
defer
##circuit
cohomology
##11]
−1.
diodes
Fortunately
Psychiatric
counsel
explos
Antarc
euthan
epidural
Pick
Primer
##3/2
Transplantation
##2+,
##Map
Yale
newborns
5/
opposition
##amt
cotrans
##ancomycin
Pon
Jak
##platelet
À
##angers
##167
Nep
Reed
Erkrank
##AND
CML
##issi
##ppel
contraceptive
thumb
inspir
##ovasc
tear
diagnosing
##Du
lc
##infrared
22%
wife
##ophilus
##fel
Kennedy
##aug
Ich
isometric
Nucl
Begin
##initial
hemodialysis
entail
elite
##256
##ondo
##Yi
$1
Egg
iti
##omide
##LN
},
##othy
Banach
Threshold
181
fetuses
##5.9
belt
downlink
1990)
0.0001).
##fraction
reprints
Ara
SIP
##oprost
##resolved
illegal
fos
WLAN
rit
##recogn
congruent
##yz
Tryp
##acute
378
GAL
mimics
##characterized
Ord
nous
merits
spatiotemporal
locking
relatedness
##10).
##obar
##segment
curative
intermolecular
oscillators
maximally
##Syn
(9.
ORI
Sor
##chrotron
Programs
hops
migrants
ICS
Yin
##wendung
##139
##45,
329
##systems
uncover
successively
vendor
##DV
jap
Eins
Oxid
##opyran
semen
Cycl
nicotin
##18].
strokes
Spar
reservoirs
##Class
##ULLET
##unning
##Sec
##preserving
temperate
supervisor
9(
Tradition
##rated
##molecule
##lez
cosmic
pf
deionized
62,
nanor
uncovered
##Brown
pups
snapshot
[26],
##periodic
##xin
Gö
smoothly
reorganization
tariff
##11-
degener
coordinating
ADAM
FUTURE
##opharmac
##tot
##)!
Lith
NATURE
##enem
##oste
##jamin
fellowship
254
Writing
##consistent
##oln
##ecu
##clamp
##Ala
MPC
oligomers
biogenesis
AAC
genomics
quoted
hazardous
##CAS
##uating
Motivation
nanostructures
##opid
1/3
NGF
Improving
administrators
##ludes
##ushed
##-49
superconducting
Solving
Hern
intrinsically
attenuate
DIC
##polymer
biometric
##tem
321
##2+]
##Van
Progn
Invitrogen
##pj
##talk
archive
primate
##Europe
##olaryng
anywhere
groove
Challenges
Visualization
⋆
##EBP
##hmen
CIR
hero
##ilk
##West
##prac
10.22
directors
thermally
##Ev
PSNR
##menting
##Tg
##(11)
somehow
##ilen
electros
electrically
61.
Circuit
Dip
glycemic
multilayer
Colomb
##enten
Carcin
spectro
Concentration
##.6,
##wage
viz
Prospective
##alsh
evening
##Glc
Tier
Return
Chest
iliac
##cool
305
slit
Sexual
Ethernet
##enriched
Ia
CER
Native
##.]
##breeding
##yb
##forder
Seattle
browsing
##29.
manipulating
financ
microspheres
##fiber
compliant
Dn
##rease
##uents
xm
##28.
dwell
##vist
##release
rhythms
judges
Sid
oxygenation
##154
##ieb
##Web
Lau
enthal
##oso
312
233
0.56
##ABP
diph
##administration
##ış
##017
##anten
(3.2)
sibling
##elen
##iani
numeric
libitum
isop
fructose
organelles
Anne
styl
##atheter
butt
prospects
dominating
##View
##Xiv
##stral
Stro
##away
Executive
VV
Dic
##coded
##stress
Instituto
##iens
(64
##igung
interconnect
##aguchi
##sharing
##thread
FDG
PART
Gain
plexus
kPa
MALDI
##ointing
Regular
##osm
PCP
SSA
stacked
sla
chunk
hematoxylin
HPA
pursu
swine
robotics
##possibly
Feedback
QR
##iston
spins
cen
Hass
coworkers
##grading
##Mb
+2
EO
##omo
##LEY
nanop
tender
##ofen
sulphate
##joint
dying
##typically
Controller
SCR
winds
syllable
##PRO
Operating
contributor
consultant
Ĥ
##207
##PSO
DEP
solvers
Nacional
embolism
Controlled
##owels
Pyr
oligomer
initiates
eradication
repetitions
Sek
Tes
##ogrel
##-3.
##209
CQ
Iz
populated
terminates
eigenvector
malformations
##ÒÒ
##iazep
seldom
Emerging
Multimedia
327
corpora
##deoxy
##emens
(0.7
herbal
##Luc
STEM
moieties
Epstein
##7.9
chaos
(1990).
##vn
Metabolism
Lud
absorbing
assertions
Trp
Dietary
mosquitoes
##Pd
WWW
spanned
MeOH
Choose
geographically
##reten
##LU
EPR
appl
0.46
Eisen
##harmonic
hydrocarbon
##strain
Tk
##−1/2
Arctic
afterwards
tort
scarc
replica
nanowires
##305
MCS
Strain
##elsevier
renders
##alin
##incott
selenium
Transplant
intercellular
ausge
hear
##Graph
0.83
fibrils
hydrogels
##hran
Herein
damaging
##$2
lnc
1024
hourly
Stockholm
lep
Duration
artificially
##magn
hemorrhagic
##Ap
Mall
##ATS
##large
ovaries
contraind
indispensable
CBF
GPs
withdrawn
subdivision
##avin
envision
CSA
volunteer
surgically
30°
ICAM
Thermo
##gulation
incubator
spermatozoa
##iba
61,
dismut
antiserum
sponsored
accuracies
zn
eNOS
multiplexing
##MMP
Dt
proteinuria
Admin
##embedded
possessing
SLA
shells
##ABC
cv
sigmoid
Nc
Refer
##MET
##squared
receipt
Cass
##Molecular
spacetime
Loren
Room
##osecond
Cj
stratum
enclosed
diaphragm
borderline
uj
##adjuvant
##ALY
nf
[18
DOX
##grass
autopsy
1967
##middle
Spectrum
##vern
dipl
##5%,
295
##grant
##ULAR
##FLD
##ginate
##rights
ought
adequacy
1≤
immunocomp
40-
##parameters
Ble
TAC
##imura
1983
##oqu
Deb
OFF
##fill
Fine
codons
Pj
migratory
##elman
##obl
32-
##uitable
nonc
Oxygen
osteoclast
##üss
##enhagen
##Correspondence
CMS
Was
unbalanced
##ème
##sted
Turb
harboring
##ли
227
convincing
##121
CIN
##ecton
universally
Boh
Hann
SIRT
preem
Albert
Census
shaded
Antibodies
##atar
##diffusion
contradicts
##149
economical
WJ
##WN
##wn
specialty
##chl
##duk
##anabe
Edge
##spectrum
sensed
##denoted
Practical
narrowing
##Rb
##Hill
7),
acyclic
Stream
prescriptions
maker
quiet
##136
Hardy
##eradish
CAG
Hoch
##ticity
##increasing
Apoptosis
##−1).
(32
##catalyzed
Availability
Mind
frontier
Identifying
Constraints
neighbours
shortage
Bah
exud
surgeries
##ELD
reimb
##Rd
OUT
LOD
##proced
Scotland
##(2+
DBP
Ful
##dense
olive
enforced
speculated
##,~
auc
Parker
annih
##-/
##EDs
##lund
structuring
bark
##polarized
ARCH
allen
regurg
conferences
##elm
Sha
manipulator
luminescence
##tiff
Nit
1978;
##uppen
logics
catheters
##ainen
Excel
##900
BOLD
volcan
##orientation
Mech
1.2.
##Level
Zhong
[45].
cargo
##auti
AAV
##ogroup
RED
maze
##restricted
helium
diminish
##authorized
endurance
polysaccharide
##CESS
##acheal
##32.
Progress
horizontally
98%
Polish
DCM
Nowadays
Agreement
Matter
##156
Katz
compositional
HRMS
Register
analyst
CNTs
byte
quit
##4):
202
predec
Welfare
physicochemical
##Hall
nests
statin
cohesion
[...]
